<pad>	0
<unk>	0
<sos>	0
<eos>	0
__url__	0
__path__	0
__ip__	0
__cmd__	0
__number__	0
__eot__	0
__user__	0
▁i	-0
▁t	-1
▁a	-2
▁th	-3
▁s	-4
▁w	-5
in	-6
er	-7
ou	-8
▁d	-9
▁the	-10
on	-11
▁c	-12
re	-13
▁m	-14
at	-15
▁n	-16
▁h	-17
or	-18
▁f	-19
▁b	-20
st	-21
▁.	-22
▁to	-23
▁y	-24
an	-25
ll	-26
ing	-27
▁p	-28
▁it	-29
ot	-30
▁u	-31
▁you	-32
▁an	-33
▁in	-34
es	-35
ed	-36
▁is	-37
▁l	-38
en	-39
▁g	-40
ow	-41
et	-42
om	-43
it	-44
▁wh	-45
ve	-46
▁do	-47
▁o	-48
▁ha	-49
le	-50
▁and	-51
▁not	-52
▁that	-53
ut	-54
ar	-55
all	-56
▁on	-57
▁re	-58
un	-59
se	-60
ion	-61
ic	-62
▁have	-63
ver	-64
▁can	-65
▁r	-66
ld	-67
▁e	-68
ac	-69
is	-70
stall	-71
▁for	-72
tu	-73
ay	-74
id	-75
▁be	-76
▁k	-77
ere	-78
▁of	-79
▁what	-80
ro	-81
▁install	-82
▁su	-83
ith	-84
▁fi	-85
▁but	-86
as	-87
ad	-88
▁tr	-89
▁with	-90
▁my	-91
ould	-92
pt	-93
ec	-94
al	-95
el	-96
▁us	-97
am	-98
ig	-99
ill	-100
bun	-101
buntu	-102
▁j	-103
ork	-104
▁-	-105
ble	-106
▁any	-107
▁me	-108
out	-109
▁if	-110
▁lo	-111
▁ne	-112
▁pro	-113
▁how	-114
ke	-115
ust	-116
▁ubuntu	-117
ly	-118
▁li	-119
ri	-120
▁com	-121
▁sh	-122
▁st	-123
ag	-124
▁are	-125
▁so	-126
▁or	-127
▁just	-128
ind	-129
▁ch	-130
art	-131
▁se	-132
ome	-133
▁am	-134
▁work	-135
▁up	-136
▁try	-137
oun	-138
pp	-139
▁as	-140
ent	-141
▁there	-142
▁your	-143
od	-144
ess	-145
oot	-146
▁this	-147
em	-148
▁get	-149
▁con	-150
ack	-151
▁will	-152
▁does	-153
▁no	-154
rom	-155
hing	-156
ter	-157
op	-158
▁v	-159
▁use	-160
▁from	-161
now	-162
▁then	-163
▁de	-164
▁al	-165
ht	-166
one	-167
ch	-168
▁know	-169
do	-170
▁go	-171
▁ex	-172
▁run	-173
▁lin	-174
▁x	-175
▁dri	-176
ant	-177
ell	-178
▁need	-179
▁did	-180
and	-181
▁un	-182
▁all	-183
▁at	-184
▁sudo	-185
im	-186
ate	-187
ally	-188
▁when	-189
ight	-190
▁ma	-191
il	-192
her	-193
ame	-194
ce	-195
▁some	-196
ct	-197
ore	-198
▁di	-199
▁want	-200
▁1	-201
▁like	-202
age	-203
▁sy	-204
▁one	-205
▁file	-206
▁would	-207
ows	-208
ect	-209
▁should	-210
ks	-211
▁out	-212
▁comp	-213
ul	-214
blem	-215
▁ad	-216
▁problem	-217
▁now	-218
▁see	-219
elp	-220
ine	-221
▁was	-222
ount	-223
▁help	-224
▁sc	-225
de	-226
▁apt	-227
ard	-228
▁wind	-229
ort	-230
▁using	-231
lo	-232
▁part	-233
other	-234
▁boot	-235
gr	-236
▁than	-237
▁set	-238
ation	-239
▁comm	-240
ab	-241
vers	-242
ound	-243
ur	-244
ang	-245
ink	-246
▁ok	-247
os	-248
est	-249
ff	-250
ast	-251
are	-252
own	-253
▁installed	-254
so	-255
▁ac	-256
ok	-257
▁ab	-258
oug	-259
pen	-260
▁pack	-261
qu	-262
stem	-263
▁gr	-264
ition	-265
erm	-266
▁its	-267
get	-268
▁make	-269
▁pl	-270
▁think	-271
▁command	-272
fig	-273
▁man	-274
able	-275
▁windows	-276
les	-277
nt	-278
▁er	-279
not	-280
pe	-281
ux	-282
▁ser	-283
very	-284
con	-285
▁find	-286
ror	-287
▁say	-288
▁cannot	-289
us	-290
▁about	-291
▁yes	-292
ain	-293
ont	-294
▁mount	-295
▁rem	-296
▁im	-297
pl	-298
▁dis	-299
ir	-300
▁2	-301
▁error	-302
▁som	-303
▁partition	-304
▁gu	-305
rect	-306
▁only	-307
▁int	-308
▁system	-309
ach	-310
ting	-311
▁somet	-312
▁cd	-313
ning	-314
▁add	-315
▁app	-316
um	-317
▁linux	-318
▁could	-319
ich	-320
▁en	-321
ox	-322
▁sure	-323
ase	-324
▁right	-325
ia	-326
ied	-327
ap	-328
ough	-329
▁which	-330
▁anyone	-331
▁way	-332
ers	-333
thing	-334
eck	-335
▁net	-336
▁has	-337
▁why	-338
▁files	-339
▁look	-340
▁chang	-341
nel	-342
ure	-343
ub	-344
our	-345
li	-346
▁he	-347
▁mod	-348
▁other	-349
▁something	-350
▁we	-351
ions	-352
nect	-353
▁qu	-354
ult	-355
▁check	-356
▁new	-357
▁by	-358
ice	-359
00	-360
▁open	-361
▁where	-362
▁back	-363
sh	-364
▁trying	-365
ick	-366
▁log	-367
▁mean	-368
▁start	-369
der	-370
ol	-371
▁pre	-372
▁them	-373
ost	-374
reen	-375
▁server	-376
▁connect	-377
inal	-378
ive	-379
rd	-380
▁may	-381
▁ty	-382
▁down	-383
apt	-384
▁thing	-385
▁got	-386
ash	-387
▁well	-388
ide	-389
ry	-390
▁upd	-391
▁more	-392
▁tim	-393
▁tried	-394
▁term	-395
cess	-396
▁running	-397
▁af	-398
if	-399
au	-400
▁still	-401
up	-402
▁same	-403
▁they	-404
▁card	-405
▁here	-406
ug	-407
ire	-408
▁package	-409
▁hard	-410
top	-411
▁user	-412
work	-413
ail	-414
▁screen	-415
ck	-416
▁sp	-417
▁drive	-418
▁fo	-419
esk	-420
▁gn	-421
▁root	-422
▁ag	-423
ware	-424
ory	-425
▁thanks	-426
.0	-427
▁terminal	-428
▁network	-429
load	-430
ite	-431
▁ke	-432
be	-433
iz	-434
ist	-435
ss	-436
▁wr	-437
▁sa	-438
esktop	-439
▁after	-440
.1	-441
ove	-442
▁ye	-443
▁ker	-444
▁3	-445
▁every	-446
ade	-447
ace	-448
▁config	-449
ong	-450
▁vers	-451
ause	-452
▁gnome	-453
ue	-454
▁kernel	-455
▁grub	-456
▁tell	-457
▁et	-458
▁read	-459
▁into	-460
▁dont	-461
▁time	-462
▁past	-463
▁direct	-464
▁rec	-465
▁driver	-466
▁def	-467
lease	-468
▁rep	-469
▁sound	-470
ile	-471
per	-472
install	-473
▁working	-474
▁works	-475
ose	-476
ass	-477
▁fir	-478
▁ev	-479
▁ed	-480
▁also	-481
vid	-482
▁anything	-483
▁type	-484
ord	-485
tern	-486
▁good	-487
▁change	-488
▁supp	-489
▁rest	-490
▁ide	-491
▁bec	-492
less	-493
▁version	-494
ated	-495
ages	-496
▁says	-497
▁seem	-498
▁opt	-499
way	-500
▁first	-501
▁dev	-502
end	-503
ault	-504
▁--	-505
▁had	-506
ah	-507
▁desktop	-508
ving	-509
▁le	-510
gram	-511
▁paste	-512
▁download	-513
▁ip	-514
▁cl	-515
ies	-516
▁fire	-517
ft	-518
▁line	-519
▁update	-520
▁really	-521
▁program	-522
▁stu	-523
▁comput	-524
▁again	-525
fs	-526
▁live	-527
▁because	-528
ree	-529
read	-530
▁fix	-531
▁too	-532
int	-533
▁even	-534
act	-535
▁sour	-536
▁used	-537
▁diff	-538
▁res	-539
▁please	-540
▁nvid	-541
▁drivers	-542
▁list	-543
▁bet	-544
▁nvidia	-545
▁default	-546
▁upgr	-547
ity	-548
▁iss	-549
▁6	-550
▁aut	-551
▁ask	-552
fore	-553
▁under	-554
▁off	-555
▁pass	-556
▁might	-557
iss	-558
orry	-559
▁put	-560
▁hi	-561
config	-562
▁usb	-563
put	-564
▁before	-565
▁fl	-566
▁sw	-567
mm	-568
▁quest	-569
og	-570
▁mach	-571
ager	-572
▁remove	-573
.10	-574
orm	-575
▁sec	-576
▁let	-577
▁play	-578
▁computer	-579
ep	-580
▁ext	-581
.04	-582
itor	-583
▁ar	-584
▁hd	-585
▁wire	-586
ready	-587
▁fe	-588
▁fold	-589
▁maybe	-590
▁sorry	-591
boot	-592
▁cor	-593
▁8	-594
▁differ	-595
ys	-596
▁already	-597
▁though	-598
ip	-599
▁mess	-600
▁bl	-601
▁fine	-602
xt	-603
▁ssh	-604
▁prob	-605
org	-606
▁inst	-607
▁access	-608
▁load	-609
▁give	-610
▁directory	-611
▁support	-612
▁cont	-613
▁br	-614
▁gre	-615
▁cre	-616
▁show	-617
▁happ	-618
▁nothing	-619
th	-620
ves	-621
ript	-622
▁question	-623
ak	-624
▁10	-625
▁mu	-626
▁setting	-627
app	-628
▁someone	-629
▁men	-630
ty	-631
▁passw	-632
▁machine	-633
ces	-634
▁0	-635
ary	-636
aptop	-637
▁much	-638
bin	-639
play	-640
bo	-641
▁another	-642
▁bot	-643
▁yeah	-644
▁output	-645
▁without	-646
▁laptop	-647
▁syn	-648
▁home	-649
▁loc	-650
▁ent	-651
ely	-652
▁disk	-653
▁ls	-654
▁cant	-655
▁name	-656
ably	-657
si	-658
av	-659
▁able	-660
▁packages	-661
▁found	-662
fox	-663
▁wireless	-664
▁happen	-665
▁stuff	-666
▁been	-667
▁rout	-668
▁thr	-669
▁restart	-670
▁4	-671
ber	-672
▁key	-673
lic	-674
▁script	-675
▁folder	-676
▁po	-677
▁bu	-678
▁firefox	-679
conf	-680
▁device	-681
▁cr	-682
▁password	-683
▁reboot	-684
▁menu	-685
▁5	-686
▁over	-687
▁going	-688
▁deb	-689
▁vide	-690
▁thats	-691
▁installing	-692
▁probably	-693
▁edit	-694
▁9	-695
ution	-696
dis	-697
▁web	-698
▁lib	-699
▁7	-700
▁bit	-701
▁seems	-702
▁click	-703
▁actu	-704
ake	-705
▁issue	-706
ress	-707
▁xorg	-708
▁very	-709
ial	-710
▁eas	-711
▁pos	-712
ull	-713
▁spec	-714
ever	-715
▁manager	-716
▁idea	-717
ser	-718
pend	-719
▁tw	-720
▁repos	-721
ple	-722
▁upgrade	-723
▁old	-724
▁option	-725
fer	-726
▁source	-727
ually	-728
▁done	-729
▁cop	-730
▁correct	-731
▁perm	-732
▁pc	-733
aptic	-734
▁having	-735
kg	-736
▁those	-737
▁per	-738
▁box	-739
▁wrong	-740
▁different	-741
▁said	-742
di	-743
▁doing	-744
▁synaptic	-745
▁getting	-746
▁guess	-747
rent	-748
▁pastebin	-749
▁never	-750
▁fail	-751
sol	-752
▁sim	-753
▁sear	-754
ically	-755
ie	-756
▁everything	-757
▁video	-758
▁intern	-759
ata	-760
ous	-761
▁possi	-762
ond	-763
ache	-764
urn	-765
ead	-766
lf	-767
▁through	-768
▁plug	-769
▁del	-770
▁pr	-771
ubuntu	-772
▁who	-773
▁flash	-774
▁port	-775
▁inf	-776
▁reinstall	-777
ix	-778
▁etc	-779
▁el	-780
▁oh	-781
▁things	-782
pkg	-783
▁link	-784
let	-785
▁login	-786
▁better	-787
gg	-788
▁hell	-789
ual	-790
mb	-791
mod	-792
▁both	-793
▁soft	-794
min	-795
▁dpkg	-796
led	-797
▁copy	-798
▁actually	-799
ince	-800
▁configure	-801
▁looking	-802
▁nt	-803
▁acc	-804
apper	-805
name	-806
▁exact	-807
gl	-808
▁point	-809
▁router	-810
▁search	-811
▁te	-812
▁software	-813
▁gi	-814
▁permiss	-815
ize	-816
▁else	-817
▁since	-818
▁problems	-819
▁cur	-820
▁cli	-821
ither	-822
wh	-823
▁mon	-824
ge	-825
▁em	-826
▁ph	-827
▁sl	-828
▁depend	-829
▁resol	-830
▁goog	-831
aph	-832
ody	-833
▁ap	-834
ence	-835
▁av	-836
▁grep	-837
▁gui	-838
▁settings	-839
ought	-840
▁hey	-841
rl	-842
▁delet	-843
▁lot	-844
▁two	-845
▁specif	-846
▁min	-847
▁process	-848
▁lol	-849
ild	-850
▁chan	-851
▁free	-852
▁dist	-853
self	-854
▁possible	-855
▁graph	-856
▁form	-857
▁hello	-858
ved	-859
ways	-860
▁applic	-861
▁connection	-862
ude	-863
lect	-864
▁os	-865
▁via	-866
▁pat	-867
oks	-868
body	-869
▁inter	-870
▁take	-871
cd	-872
▁keep	-873
▁application	-874
server	-875
▁internet	-876
▁call	-877
▁window	-878
▁own	-879
ci	-880
vd	-881
▁while	-882
ish	-883
▁worked	-884
▁mode	-885
▁create	-886
▁ntfs	-887
▁most	-888
▁norm	-889
▁graphic	-890
▁sugg	-891
▁suggest	-892
▁doesnt	-893
▁setup	-894
▁hardware	-895
▁mo	-896
▁autom	-897
▁hmm	-898
▁ho	-899
▁instead	-900
▁guys	-901
▁sol	-902
▁ah	-903
▁monitor	-904
▁pe	-905
▁64	-906
▁test	-907
▁wine	-908
▁bad	-909
▁eth	-910
▁bro	-911
ave	-912
▁either	-913
ian	-914
box	-915
▁last	-916
▁looks	-917
▁kind	-918
dio	-919
▁write	-920
itt	-921
rc	-922
▁second	-923
▁det	-924
▁long	-925
▁such	-926
▁select	-927
sa	-928
dm	-929
▁sd	-930
▁foll	-931
board	-932
ars	-933
▁google	-934
▁vir	-935
▁xp	-936
▁kde	-937
itch	-938
▁ass	-939
▁inc	-940
ason	-941
▁were	-942
▁mounted	-943
▁current	-944
ment	-945
stand	-946
▁address	-947
king	-948
ener	-949
▁being	-950
▁compiz	-951
▁share	-952
▁top	-953
▁bas	-954
ule	-955
▁always	-956
▁str	-957
▁follow	-958
▁bug	-959
▁partitions	-960
▁ati	-961
▁shows	-962
▁cho	-963
ates	-964
▁reason	-965
▁thought	-966
▁yet	-967
ted	-968
▁peop	-969
▁admin	-970
▁kill	-971
▁format	-972
▁errors	-973
pro	-974
▁installation	-975
ious	-976
▁people	-977
▁cp	-978
▁exactly	-979
ava	-980
aut	-981
▁dvd	-982
▁wa	-983
wr	-984
▁message	-985
▁display	-986
ume	-987
▁proper	-988
cp	-989
▁understand	-990
oup	-991
▁sm	-992
oo	-993
port	-994
bit	-995
▁space	-996
▁options	-997
▁gp	-998
disk	-999
▁lu	-1000
ns	-1001
ower	-1002
▁tool	-1003
▁host	-1004
abled	-1005
▁channel	-1006
▁data	-1007
▁build	-1008
▁co	-1009
▁remo	-1010
ating	-1011
aun	-1012
▁few	-1013
nc	-1014
▁prefer	-1015
▁cod	-1016
gb	-1017
▁full	-1018
▁client	-1019
▁post	-1020
▁contro	-1021
▁au	-1022
▁clo	-1023
▁debian	-1024
▁manually	-1025
▁switch	-1026
86	-1027
▁swap	-1028
no	-1029
▁okay	-1030
▁cle	-1031
▁page	-1032
▁fig	-1033
▁whats	-1034
▁local	-1035
▁wait	-1036
tual	-1037
where	-1038
▁stop	-1039
▁best	-1040
▁exist	-1041
▁automat	-1042
▁ct	-1043
▁win	-1044
▁pan	-1045
▁alt	-1046
ouse	-1047
▁interf	-1048
▁pret	-1049
ba	-1050
ru	-1051
wer	-1052
▁dh	-1053
▁iso	-1054
▁text	-1055
ird	-1056
ues	-1057
▁avail	-1058
▁many	-1059
▁virtual	-1060
omm	-1061
▁ideas	-1062
▁pretty	-1063
▁enter	-1064
to	-1065
▁ram	-1066
net	-1067
▁icon	-1068
.6	-1069
▁around	-1070
▁real	-1071
▁miss	-1072
▁mat	-1073
▁ping	-1074
▁sam	-1075
▁once	-1076
▁turn	-1077
▁conf	-1078
▁info	-1079
▁users	-1080
aid	-1081
▁pri	-1082
▁figure	-1083
▁group	-1084
▁exec	-1085
▁easy	-1086
▁ctrl	-1087
sole	-1088
we	-1089
ifi	-1090
▁module	-1091
sp	-1092
ystem	-1093
▁sounds	-1094
set	-1095
▁spe	-1096
▁typ	-1097
▁happens	-1098
▁sources	-1099
▁id	-1100
▁end	-1101
▁anyway	-1102
▁thank	-1103
▁permissions	-1104
▁delete	-1105
ames	-1106
▁called	-1107
▁apache	-1108
ote	-1109
▁java	-1110
▁normal	-1111
player	-1112
tp	-1113
▁fre	-1114
list	-1115
vel	-1116
▁configur	-1117
▁11	-1118
▁resolution	-1119
▁dm	-1120
▁easi	-1121
▁ans	-1122
▁requ	-1123
▁remem	-1124
itude	-1125
▁reg	-1126
▁complet	-1127
▁vm	-1128
▁livecd	-1129
▁upgrad	-1130
▁appe	-1131
▁console	-1132
ged	-1133
configure	-1134
enc	-1135
▁available	-1136
▁gdm	-1137
▁remember	-1138
ios	-1139
▁enable	-1140
edia	-1141
▁come	-1142
.2	-1143
ign	-1144
til	-1145
▁naut	-1146
▁reco	-1147
▁path	-1148
▁act	-1149
▁tal	-1150
ric	-1151
▁gener	-1152
stab	-1153
vice	-1154
▁must	-1155
ouble	-1156
ittle	-1157
▁means	-1158
ilus	-1159
▁mult	-1160
gin	-1161
▁mouse	-1162
▁shell	-1163
▁gives	-1164
arted	-1165
▁wont	-1166
▁little	-1167
▁aptitude	-1168
▁hand	-1169
ession	-1170
▁their	-1171
sy	-1172
▁mem	-1173
ton	-1174
▁samba	-1175
▁nautilus	-1176
▁execut	-1177
man	-1178
▁these	-1179
ical	-1180
▁graphics	-1181
zy	-1182
▁compile	-1183
▁tab	-1184
ffect	-1185
▁filesystem	-1186
ules	-1187
▁made	-1188
▁press	-1189
▁backup	-1190
▁case	-1191
▁plugin	-1192
na	-1193
'.	-1194
▁day	-1195
ices	-1196
▁panel	-1197
▁dir	-1198
▁uses	-1199
▁audio	-1200
▁num	-1201
▁32	-1202
ob	-1203
▁whatever	-1204
▁bios	-1205
▁stat	-1206
▁late	-1207
▁next	-1208
▁fstab	-1209
▁image	-1210
▁uninstall	-1211
tem	-1212
▁won	-1213
▁tar	-1214
mount	-1215
aps	-1216
▁didnt	-1217
ful	-1218
▁dhcp	-1219
▁head	-1220
ance	-1221
▁mac	-1222
▁changed	-1223
▁issues	-1224
ences	-1225
▁intel	-1226
fe	-1227
▁answer	-1228
▁fr	-1229
gy	-1230
iv	-1231
▁black	-1232
▁beli	-1233
ans	-1234
▁dual	-1235
desktop	-1236
▁compil	-1237
▁exam	-1238
▁gparted	-1239
▁button	-1240
▁init	-1241
verse	-1242
eve	-1243
▁expl	-1244
ward	-1245
▁programs	-1246
▁fun	-1247
▁exper	-1248
▁hop	-1249
▁site	-1250
ise	-1251
cc	-1252
▁dapper	-1253
side	-1254
ents	-1255
▁prom	-1256
▁power	-1257
▁hdd	-1258
▁connected	-1259
▁auto	-1260
▁specific	-1261
▁alsa	-1262
▁installer	-1263
▁anybody	-1264
▁met	-1265
cept	-1266
▁kubuntu	-1267
▁far	-1268
▁wifi	-1269
▁drives	-1270
▁big	-1271
ql	-1272
▁chmod	-1273
▁interface	-1274
▁brows	-1275
▁extern	-1276
▁saying	-1277
▁fdisk	-1278
▁apps	-1279
▁commands	-1280
dd	-1281
▁usually	-1282
▁cat	-1283
▁wonder	-1284
▁keyboard	-1285
▁move	-1286
aces	-1287
▁extr	-1288
lock	-1289
ens	-1290
▁external	-1291
▁sort	-1292
▁failed	-1293
▁choose	-1294
▁booting	-1295
▁believe	-1296
ween	-1297
▁configuration	-1298
ken	-1299
▁bin	-1300
yth	-1301
▁ndis	-1302
▁hit	-1303
file	-1304
▁automatically	-1305
kes	-1306
ular	-1307
▁enough	-1308
▁nice	-1309
-1	-1310
inter	-1311
▁fast	-1312
▁account	-1313
32	-1314
▁php	-1315
▁downloaded	-1316
▁between	-1317
▁slow	-1318
▁save	-1319
ricted	-1320
▁place	-1321
ommend	-1322
▁doc	-1323
▁bash	-1324
ange	-1325
▁main	-1326
--	-1327
ph	-1328
▁luck	-1329
▁least	-1330
▁asking	-1331
▁cpu	-1332
tur	-1333
pa	-1334
▁cause	-1335
▁allow	-1336
▁enabled	-1337
▁burn	-1338
▁z	-1339
▁10.04	-1340
▁media	-1341
▁however	-1342
▁fs	-1343
ik	-1344
▁whole	-1345
▁lines	-1346
▁example	-1347
▁distro	-1348
manager	-1349
▁recommend	-1350
deb	-1351
ify	-1352
▁tak	-1353
wrapper	-1354
▁altern	-1355
▁ifconfig	-1356
▁told	-1357
▁latest	-1358
iverse	-1359
▁broken	-1360
day	-1361
▁great	-1362
▁needs	-1363
ative	-1364
line	-1365
▁enc	-1366
▁ref	-1367
▁each	-1368
▁laun	-1369
pci	-1370
▁unless	-1371
▁detect	-1372
▁env	-1373
▁repl	-1374
▁dns	-1375
com	-1376
esg	-1377
▁goes	-1378
sc	-1379
▁times	-1380
rypt	-1381
▁prompt	-1382
▁sub	-1383
▁applications	-1384
ime	-1385
▁dmesg	-1386
▁dr	-1387
▁updates	-1388
▁star	-1389
▁send	-1390
▁comes	-1391
▁incl	-1392
▁require	-1393
▁vol	-1394
▁remote	-1395
▁ever	-1396
▁less	-1397
book	-1398
▁ndiswrapper	-1399
64	-1400
▁mb	-1401
ather	-1402
iew	-1403
osed	-1404
▁perf	-1405
▁disable	-1406
▁missing	-1407
▁100	-1408
haps	-1409
sql	-1410
tk	-1411
edit	-1412
▁player	-1413
igh	-1414
▁ill	-1415
▁ro	-1416
▁minut	-1417
▁ive	-1418
▁perhaps	-1419
▁simple	-1420
me	-1421
▁makes	-1422
▁control	-1423
▁session	-1424
ables	-1425
plug	-1426
▁gl	-1427
▁raid	-1428
▁xserver	-1429
▁sda	-1430
▁crash	-1431
▁launch	-1432
▁effect	-1433
▁depends	-1434
ream	-1435
▁step	-1436
▁lspci	-1437
tup	-1438
▁pers	-1439
▁mplayer	-1440
▁weird	-1441
▁isnt	-1442
▁shut	-1443
wall	-1444
▁des	-1445
▁exp	-1446
lan	-1447
▁preferences	-1448
▁mp	-1449
▁checked	-1450
ert	-1451
▁stand	-1452
▁left	-1453
▁ran	-1454
▁recovery	-1455
ching	-1456
gn	-1457
▁hang	-1458
vious	-1459
▁gave	-1460
▁quick	-1461
▁lear	-1462
▁startup	-1463
ee	-1464
▁sk	-1465
▁result	-1466
.4	-1467
ud	-1468
▁added	-1469
▁retur	-1470
riend	-1471
▁es	-1472
pid	-1473
▁mysql	-1474
▁memory	-1475
▁mine	-1476
▁webs	-1477
▁rel	-1478
▁browser	-1479
▁hardy	-1480
▁gedit	-1481
▁nope	-1482
▁12	-1483
▁8.04	-1484
▁ones	-1485
ml	-1486
▁started	-1487
▁wanted	-1488
▁code	-1489
▁quite	-1490
▁var	-1491
▁somewhere	-1492
itory	-1493
ogn	-1494
▁supported	-1495
ask	-1496
▁matter	-1497
ruct	-1498
▁suc	-1499
▁ago	-1500
▁properly	-1501
▁solution	-1502
▁disc	-1503
▁clean	-1504
▁bree	-1505
root	-1506
▁dec	-1507
dev	-1508
arm	-1509
xx	-1510
80	-1511
▁cool	-1512
itories	-1513
-2	-1514
▁chip	-1515
▁talking	-1516
ouch	-1517
▁rather	-1518
uring	-1519
rop	-1520
down	-1521
▁firewall	-1522
ts	-1523
lc	-1524
▁breezy	-1525
▁needed	-1526
▁ps	-1527
▁inform	-1528
▁username	-1529
▁non	-1530
▁vnc	-1531
▁explain	-1532
▁wlan	-1533
▁irc	-1534
▁repositories	-1535
▁number	-1536
10	-1537
▁hold	-1538
▁release	-1539
▁wor	-1540
▁hope	-1541
▁permission	-1542
dri	-1543
▁fat	-1544
▁forum	-1545
▁ms	-1546
▁removed	-1547
▁heh	-1548
▁oper	-1549
▁9.10	-1550
for	-1551
▁printer	-1552
ging	-1553
▁stick	-1554
istr	-1555
▁gets	-1556
▁lock	-1557
▁trans	-1558
▁recogn	-1559
ista	-1560
▁sect	-1561
▁changes	-1562
▁went	-1563
▁trouble	-1564
▁vmware	-1565
▁2.6	-1566
▁report	-1567
log	-1568
▁lat	-1569
▁instruct	-1570
▁repo	-1571
▁close	-1572
▁vista	-1573
▁currently	-1574
full	-1575
▁vlc	-1576
▁friend	-1577
ention	-1578
oc	-1579
▁arch	-1580
▁correctly	-1581
ourse	-1582
▁iw	-1583
▁service	-1584
cli	-1585
ling	-1586
▁cert	-1587
grade	-1588
ible	-1589
▁volume	-1590
how	-1591
▁until	-1592
used	-1593
ank	-1594
rx	-1595
▁fresh	-1596
▁9.04	-1597
▁updated	-1598
▁resp	-1599
imes	-1600
▁simil	-1601
▁everyone	-1602
ture	-1603
▁restricted	-1604
▁sit	-1605
▁listed	-1606
host	-1607
▁fil	-1608
.5	-1609
▁information	-1610
▁administr	-1611
▁myself	-1612
▁edgy	-1613
▁experi	-1614
idd	-1615
probe	-1616
▁_	-1617
more	-1618
▁repository	-1619
▁runs	-1620
isty	-1621
11	-1622
▁xf	-1623
▁mom	-1624
but	-1625
glrx	-1626
▁itself	-1627
▁difference	-1628
▁ob	-1629
▁modem	-1630
▁starting	-1631
ently	-1632
ex	-1633
▁pur	-1634
plash	-1635
ga	-1636
▁website	-1637
▁following	-1638
▁gut	-1639
atch	-1640
ense	-1641
▁entry	-1642
▁ca	-1643
pped	-1644
▁sometimes	-1645
▁seen	-1646
ator	-1647
▁supposed	-1648
cho	-1649
▁created	-1650
reconfigure	-1651
mp	-1652
▁par	-1653
oub	-1654
▁anymore	-1655
▁course	-1656
ksu	-1657
▁dependenc	-1658
▁guide	-1659
ery	-1660
▁lik	-1661
▁xubuntu	-1662
▁bt	-1663
▁q	-1664
cache	-1665
▁yep	-1666
▁short	-1667
▁easier	-1668
▁bo	-1669
▁asked	-1670
▁gksu	-1671
▁similar	-1672
▁pid	-1673
▁feisty	-1674
▁loaded	-1675
▁amd	-1676
▁size	-1677
▁fin	-1678
back	-1679
▁modprobe	-1680
▁ftp	-1681
ython	-1682
▁ht	-1683
ps	-1684
▁ether	-1685
▁small	-1686
ines	-1687
▁ver	-1688
▁gutsy	-1689
▁devices	-1690
ject	-1691
ized	-1692
▁smb	-1693
ature	-1694
50	-1695
▁knows	-1696
▁appear	-1697
▁meant	-1698
▁theme	-1699
▁model	-1700
▁certain	-1701
▁care	-1702
▁tells	-1703
orrent	-1704
▁touch	-1705
▁priv	-1706
▁instructions	-1707
.3	-1708
▁person	-1709
▁speed	-1710
▁during	-1711
▁bar	-1712
▁fixed	-1713
▁strange	-1714
▁inside	-1715
▁modules	-1716
▁adv	-1717
▁hoary	-1718
▁editor	-1719
▁hour	-1720
time	-1721
cl	-1722
illa	-1723
▁fglrx	-1724
ark	-1725
▁font	-1726
air	-1727
ename	-1728
▁forward	-1729
ument	-1730
▁yea	-1731
▁ethernet	-1732
▁scan	-1733
▁making	-1734
▁reading	-1735
▁upgraded	-1736
▁python	-1737
▁wondering	-1738
▁mus	-1739
▁8.10	-1740
eres	-1741
▁unable	-1742
▁moment	-1743
▁10.10	-1744
▁rm	-1745
▁learn	-1746
▁view	-1747
▁blank	-1748
ced	-1749
▁order	-1750
ction	-1751
▁dd	-1752
▁except	-1753
nd	-1754
▁inv	-1755
-3	-1756
urity	-1757
ne	-1758
▁manag	-1759
arent	-1760
ility	-1761
pty	-1762
chat	-1763
▁wan	-1764
▁ipt	-1765
ately	-1766
ations	-1767
▁music	-1768
▁200	-1769
▁jo	-1770
▁completely	-1771
ulse	-1772
▁fsck	-1773
▁folders	-1774
▁ya	-1775
▁freez	-1776
▁happened	-1777
▁loading	-1778
▁likely	-1779
▁sing	-1780
▁messages	-1781
▁mail	-1782
▁empty	-1783
ilt	-1784
vm	-1785
▁md	-1786
▁thinking	-1787
▁force	-1788
▁lost	-1789
▁high	-1790
▁import	-1791
▁days	-1792
▁includ	-1793
velop	-1794
▁opens	-1795
▁starts	-1796
iron	-1797
▁away	-1798
▁bus	-1799
ustom	-1800
aw	-1801
ories	-1802
▁cards	-1803
▁url	-1804
ixer	-1805
▁chroot	-1806
▁bre	-1807
▁print	-1808
▁cons	-1809
▁speak	-1810
▁pulse	-1811
▁encrypt	-1812
upgrade	-1813
▁tools	-1814
▁sys	-1815
▁changing	-1816
zilla	-1817
xorg	-1818
▁based	-1819
erest	-1820
12	-1821
▁single	-1822
▁contain	-1823
▁20	-1824
▁iptables	-1825
▁configured	-1826
▁entire	-1827
▁mic	-1828
▁gtk	-1829
▁lang	-1830
ential	-1831
▁col	-1832
▁security	-1833
▁minutes	-1834
fo	-1835
▁mounting	-1836
▁servers	-1837
fully	-1838
▁names	-1839
▁odd	-1840
▁standard	-1841
▁lan	-1842
▁interest	-1843
▁static	-1844
▁mind	-1845
▁cable	-1846
▁universe	-1847
▁fam	-1848
ply	-1849
ten	-1850
user	-1851
pad	-1852
▁ir	-1853
▁manual	-1854
right	-1855
▁block	-1856
.'	-1857
hh	-1858
▁nic	-1859
▁controll	-1860
▁val	-1861
▁safe	-1862
▁mention	-1863
gz	-1864
▁gcc	-1865
▁word	-1866
ech	-1867
24	-1868
ying	-1869
▁custom	-1870
▁basically	-1871
▁administration	-1872
▁totem	-1873
▁showing	-1874
▁cdrom	-1875
ger	-1876
▁sever	-1877
▁others	-1878
ek	-1879
▁none	-1880
▁wik	-1881
▁game	-1882
▁prop	-1883
▁came	-1884
▁sto	-1885
▁xchat	-1886
▁normally	-1887
▁aw	-1888
▁mk	-1889
ax	-1890
cut	-1891
▁unity	-1892
ors	-1893
▁btw	-1894
▁defin	-1895
ily	-1896
▁fails	-1897
▁rele	-1898
▁vis	-1899
▁dun	-1900
▁gon	-1901
vert	-1902
▁heard	-1903
adeon	-1904
▁sense	-1905
uid	-1906
ftp	-1907
▁assum	-1908
ner	-1909
▁dam	-1910
▁related	-1911
▁flo	-1912
▁beh	-1913
▁later	-1914
▁thx	-1915
par	-1916
▁alternate	-1917
▁links	-1918
roll	-1919
▁takes	-1920
▁stuck	-1921
▁auth	-1922
plugin	-1923
▁section	-1924
▁mbr	-1925
▁built	-1926
off	-1927
▁develop	-1928
▁versions	-1929
ource	-1930
lin	-1931
▁virtualbox	-1932
▁theres	-1933
▁tot	-1934
▁unmount	-1935
▁simply	-1936
xy	-1937
▁radeon	-1938
ype	-1939
ode	-1940
▁side	-1941
▁fact	-1942
▁clear	-1943
rew	-1944
▁tem	-1945
key	-1946
▁assume	-1947
▁chipset	-1948
ides	-1949
▁ear	-1950
▁libr	-1951
du	-1952
▁refer	-1953
▁stable	-1954
▁80	-1955
vent	-1956
▁typing	-1957
▁da	-1958
▁return	-1959
▁gb	-1960
▁feel	-1961
▁cou	-1962
▁splash	-1963
▁input	-1964
▁machines	-1965
▁bun	-1966
▁gonna	-1967
▁replace	-1968
▁pop	-1969
▁writ	-1970
start	-1971
▁langu	-1972
▁his	-1973
▁00	-1974
▁sata	-1975
▁feature	-1976
ven	-1977
▁xfce	-1978
▁years	-1979
▁dunno	-1980
▁logs	-1981
▁ur	-1982
▁chown	-1983
▁drop	-1984
600	-1985
mit	-1986
▁computers	-1987
▁broad	-1988
▁games	-1989
iar	-1990
▁sun	-1991
▁bott	-1992
▁looked	-1993
▁logged	-1994
ecs	-1995
got	-1996
▁super	-1997
▁pm	-1998
▁detail	-1999
▁experience	-2000
▁orig	-2001
▁directly	-2002
▁keys	-2003
▁several	-2004
ano	-2005
▁ign	-2006
ironment	-2007
▁adding	-2008
▁karm	-2009
▁wiki	-2010
▁today	-2011
▁reset	-2012
▁inde	-2013
▁light	-2014
▁cent	-2015
▁ff	-2016
▁forums	-2017
▁appears	-2018
iple	-2019
▁7.10	-2020
ication	-2021
▁echo	-2022
use	-2023
rupt	-2024
▁gate	-2025
▁war	-2026
essential	-2027
term	-2028
▁yourself	-2029
▁bery	-2030
▁core	-2031
▁keeps	-2032
▁effects	-2033
▁true	-2034
▁11.04	-2035
aunty	-2036
▁karmic	-2037
▁den	-2038
▁downloading	-2039
▁ppa	-2040
▁cu	-2041
▁binary	-2042
▁applet	-2043
▁beryl	-2044
▁execute	-2045
▁actual	-2046
▁attem	-2047
43	-2048
▁dell	-2049
▁regular	-2050
▁environment	-2051
cid	-2052
▁wanna	-2053
▁dependencies	-2054
▁gksudo	-2055
force	-2056
▁jaunty	-2057
▁older	-2058
▁bottom	-2059
▁ports	-2060
▁expect	-2061
most	-2062
▁extract	-2063
▁playing	-2064
client	-2065
ased	-2066
usb	-2067
▁mir	-2068
▁function	-2069
▁document	-2070
▁util	-2071
▁att	-2072
drive	-2073
▁iwconfig	-2074
▁leave	-2075
dir	-2076
▁faster	-2077
▁disabled	-2078
▁gone	-2079
▁front	-2080
▁separ	-2081
▁tut	-2082
wise	-2083
▁pic	-2084
▁checking	-2085
▁rid	-2086
▁solve	-2087
▁attempt	-2088
▁sign	-2089
▁networking	-2090
▁deleted	-2091
ons	-2092
▁messed	-2093
▁meth	-2094
▁resize	-2095
ement	-2096
▁boots	-2097
stream	-2098
▁don	-2099
▁pres	-2100
▁booted	-2101
▁dial	-2102
▁hear	-2103
▁gateway	-2104
▁removing	-2105
ppy	-2106
▁nm	-2107
▁note	-2108
▁perfect	-2109
ider	-2110
▁controller	-2111
▁screw	-2112
ext	-2113
bu	-2114
hz	-2115
▁questions	-2116
▁previous	-2117
▁forgot	-2118
▁famil	-2119
▁begin	-2120
audio	-2121
▁cap	-2122
▁mov	-2123
esa	-2124
▁vim	-2125
▁lets	-2126
though	-2127
iso	-2128
aim	-2129
▁break	-2130
vide	-2131
▁vga	-2132
▁gent	-2133
▁restore	-2134
▁pidgin	-2135
▁location	-2136
ries	-2137
▁clos	-2138
▁activ	-2139
▁giving	-2140
▁language	-2141
▁online	-2142
tar	-2143
▁somehow	-2144
▁chat	-2145
▁success	-2146
▁internal	-2147
ially	-2148
bly	-2149
▁pick	-2150
lier	-2151
▁wub	-2152
▁um	-2153
ump	-2154
▁nano	-2155
using	-2156
▁shutdown	-2157
▁method	-2158
▁onto	-2159
lib	-2160
lst	-2161
▁almost	-2162
▁alright	-2163
▁listen	-2164
sd	-2165
ared	-2166
▁skype	-2167
▁lucid	-2168
▁store	-2169
▁suggestions	-2170
▁prim	-2171
▁saw	-2172
▁couple	-2173
▁results	-2174
▁wubi	-2175
▁systems	-2176
▁graphical	-2177
▁comment	-2178
▁localhost	-2179
▁perform	-2180
▁within	-2181
ether	-2182
▁hours	-2183
▁stupid	-2184
▁adapt	-2185
▁glx	-2186
▁multiple	-2187
▁mont	-2188
cm	-2189
▁rw	-2190
▁places	-2191
▁hah	-2192
▁kinda	-2193
▁although	-2194
▁gentoo	-2195
▁upgrading	-2196
▁plugged	-2197
▁minim	-2198
▁route	-2199
▁complete	-2200
fort	-2201
▁longer	-2202
▁exit	-2203
▁bunch	-2204
orial	-2205
▁double	-2206
▁earlier	-2207
▁nat	-2208
▁uuid	-2209
68	-2210
▁filename	-2211
▁scripts	-2212
ooth	-2213
era	-2214
▁ren	-2215
▁patch	-2216
aring	-2217
▁netbook	-2218
pi	-2219
▁extens	-2220
▁special	-2221
▁gig	-2222
acity	-2223
▁compat	-2224
▁somebody	-2225
sl	-2226
▁familiar	-2227
▁als	-2228
▁wired	-2229
ng	-2230
▁newer	-2231
▁tutorial	-2232
▁editing	-2233
card	-2234
▁nec	-2235
▁telling	-2236
edi	-2237
▁proxy	-2238
▁basic	-2239
▁job	-2240
pr	-2241
ases	-2242
orth	-2243
cam	-2244
▁suppose	-2245
▁otherwise	-2246
▁extra	-2247
▁tv	-2248
ording	-2249
▁15	-2250
io	-2251
▁scroll	-2252
▁compiling	-2253
info	-2254
loc	-2255
▁above	-2256
▁provid	-2257
▁bring	-2258
-0	-2259
60	-2260
▁rand	-2261
connect	-2262
▁installs	-2263
▁ge	-2264
ground	-2265
▁him	-2266
▁month	-2267
▁desc	-2268
▁lots	-2269
▁partic	-2270
ath	-2271
por	-2272
▁seeing	-2273
▁uname	-2274
arently	-2275
▁specify	-2276
▁important	-2277
▁finish	-2278
▁low	-2279
glx	-2280
▁hda	-2281
▁newb	-2282
▁stay	-2283
▁pci	-2284
386	-2285
▁lar	-2286
▁contents	-2287
omain	-2288
▁shared	-2289
▁shortcut	-2290
▁separate	-2291
▁wish	-2292
▁prot	-2293
emon	-2294
▁11.10	-2295
▁primary	-2296
▁wget	-2297
▁max	-2298
▁locate	-2299
▁reinstalling	-2300
▁directories	-2301
▁red	-2302
▁che	-2303
▁cam	-2304
▁pulseaudio	-2305
▁typed	-2306
▁plugins	-2307
any	-2308
▁consider	-2309
▁executable	-2310
ester	-2311
▁assuming	-2312
df	-2313
▁whether	-2314
▁yup	-2315
ora	-2316
▁random	-2317
su	-2318
▁denied	-2319
▁19	-2320
77	-2321
▁40	-2322
▁propri	-2323
▁date	-2324
gener	-2325
new	-2326
▁anywhere	-2327
▁icons	-2328
▁disks	-2329
▁vari	-2330
ms	-2331
▁gim	-2332
know	-2333
▁connecting	-2334
▁particular	-2335
▁tty	-2336
red	-2337
▁compiled	-2338
aries	-2339
▁du	-2340
▁wpa	-2341
umb	-2342
tr	-2343
ib	-2344
▁22	-2345
▁background	-2346
icial	-2347
▁hehe	-2348
▁apparently	-2349
▁worth	-2350
▁obvious	-2351
▁general	-2352
▁table	-2353
ring	-2354
linux	-2355
▁original	-2356
▁lsmod	-2357
▁seconds	-2358
▁wi	-2359
free	-2360
▁arg	-2361
etary	-2362
tf	-2363
▁forget	-2364
▁mirror	-2365
▁ali	-2366
▁wants	-2367
mail	-2368
▁necess	-2369
screen	-2370
▁modify	-2371
generic	-2372
fix	-2373
▁compl	-2374
▁noob	-2375
▁ie	-2376
▁fed	-2377
▁ipod	-2378
ties	-2379
pping	-2380
ended	-2381
▁hp	-2382
▁loop	-2383
▁multiverse	-2384
▁recently	-2385
ups	-2386
pack	-2387
▁pub	-2388
▁rebooted	-2389
▁restarted	-2390
▁ident	-2391
▁wow	-2392
▁soon	-2393
▁limit	-2394
irc	-2395
▁nfs	-2396
▁tho	-2397
▁talk	-2398
▁ignore	-2399
▁tun	-2400
▁30	-2401
urning	-2402
▁deal	-2403
bash	-2404
rib	-2405
▁char	-2406
amed	-2407
▁corrupt	-2408
mms	-2409
▁useful	-2410
▁detected	-2411
▁hmmm	-2412
pn	-2413
ww	-2414
000	-2415
zip	-2416
▁loads	-2417
▁inte	-2418
pc	-2419
▁clue	-2420
▁inser	-2421
▁arr	-2422
▁http	-2423
▁convert	-2424
rw	-2425
▁sent	-2426
po	-2427
streamer	-2428
setting	-2429
▁turned	-2430
▁yester	-2431
▁dos	-2432
▁domain	-2433
▁yesterday	-2434
▁busy	-2435
▁complain	-2436
▁interesting	-2437
▁amar	-2438
idden	-2439
grub	-2440
▁alot	-2441
▁followed	-2442
▁love	-2443
▁25	-2444
▁export	-2445
▁msg	-2446
shot	-2447
▁recover	-2448
▁confused	-2449
▁umount	-2450
▁asks	-2451
▁lay	-2452
uses	-2453
▁proprietary	-2454
▁connections	-2455
▁doub	-2456
admin	-2457
▁watch	-2458
▁syml	-2459
ster	-2460
ross	-2461
sync	-2462
▁ado	-2463
▁intre	-2464
▁email	-2465
▁crashes	-2466
image	-2467
▁stopped	-2468
olution	-2469
▁xmms	-2470
▁synt	-2471
▁webcam	-2472
peg	-2473
▁bootable	-2474
resh	-2475
▁hm	-2476
▁nv	-2477
▁dat	-2478
▁fedora	-2479
▁level	-2480
settings	-2481
▁known	-2482
amixer	-2483
urt	-2484
uh	-2485
▁flux	-2486
▁damn	-2487
▁amarok	-2488
ta	-2489
under	-2490
▁supports	-2491
.8	-2492
▁integr	-2493
▁sdb	-2494
▁serv	-2495
▁troub	-2496
▁16	-2497
▁interfaces	-2498
▁transfer	-2499
▁anno	-2500
▁torrent	-2501
▁micro	-2502
▁ind	-2503
▁rc	-2504
ffic	-2505
▁cron	-2506
▁mis	-2507
▁beta	-2508
pos	-2509
add	-2510
▁rh	-2511
▁join	-2512
▁cut	-2513
▁serious	-2514
▁accept	-2515
▁half	-2516
▁passwd	-2517
▁unknow	-2518
▁task	-2519
▁ath	-2520
▁intrepid	-2521
▁defaults	-2522
▁advice	-2523
pm	-2524
▁adapter	-2525
▁details	-2526
▁nick	-2527
▁tech	-2528
▁fonts	-2529
▁blu	-2530
▁dig	-2531
.06	-2532
amp	-2533
▁rt	-2534
▁syntax	-2535
fortun	-2536
▁notic	-2537
▁alternative	-2538
▁lts	-2539
loader	-2540
come	-2541
▁adobe	-2542
raid	-2543
▁everytime	-2544
olic	-2545
▁given	-2546
▁track	-2547
direct	-2548
my	-2549
▁official	-2550
reci	-2551
only	-2552
▁addition	-2553
▁unfortun	-2554
▁startx	-2555
▁engl	-2556
▁alsamixer	-2557
▁drag	-2558
▁floppy	-2559
fl	-2560
▁hostname	-2561
▁7.04	-2562
itten	-2563
▁troubles	-2564
▁often	-2565
▁purge	-2566
▁1024	-2567
▁contin	-2568
ium	-2569
▁gstreamer	-2570
▁sur	-2571
▁exists	-2572
▁private	-2573
just	-2574
▁rebooting	-2575
▁hot	-2576
▁bcm	-2577
▁guest	-2578
▁evolution	-2579
light	-2580
its	-2581
▁unknown	-2582
▁doubt	-2583
▁active	-2584
▁figured	-2585
ised	-2586
▁broadcom	-2587
ky	-2588
▁opened	-2589
▁lvm	-2590
▁hangs	-2591
▁whenever	-2592
▁trick	-2593
▁archive	-2594
▁three	-2595
ero	-2596
▁themes	-2597
▁pages	-2598
ister	-2599
eler	-2600
head	-2601
ters	-2602
comm	-2603
▁np	-2604
▁codecs	-2605
▁brb	-2606
▁haha	-2607
▁english	-2608
▁outside	-2609
▁equ	-2610
▁vesa	-2611
▁shot	-2612
alt	-2613
utions	-2614
▁fro	-2615
▁record	-2616
▁freezes	-2617
▁according	-2618
▁room	-2619
▁harddrive	-2620
▁helps	-2621
▁mnt	-2622
▁uh	-2623
▁vi	-2624
ze	-2625
cod	-2626
xp	-2627
▁mark	-2628
▁mut	-2629
▁stream	-2630
200	-2631
what	-2632
tube	-2633
▁howto	-2634
.9	-2635
▁happening	-2636
▁public	-2637
▁chance	-2638
ified	-2639
▁phone	-2640
▁mentioned	-2641
inks	-2642
▁wel	-2643
▁bat	-2644
▁services	-2645
bird	-2646
▁minute	-2647
mbox	-2648
▁appreci	-2649
▁crap	-2650
▁status	-2651
▁easily	-2652
▁eh	-2653
▁warning	-2654
▁occ	-2655
oid	-2656
▁mother	-2657
▁choice	-2658
▁logging	-2659
▁overwr	-2660
▁usage	-2661
▁buy	-2662
▁testing	-2663
▁took	-2664
▁hidden	-2665
▁request	-2666
▁param	-2667
▁selected	-2668
▁plan	-2669
▁restarting	-2670
▁acpi	-2671
▁gaim	-2672
▁center	-2673
etooth	-2674
▁lists	-2675
▁groups	-2676
▁videos	-2677
of	-2678
▁mv	-2679
▁6.06	-2680
▁err	-2681
▁produ	-2682
▁possibly	-2683
▁firestart	-2684
ives	-2685
▁include	-2686
▁sus	-2687
urs	-2688
▁handle	-2689
▁youtube	-2690
▁pull	-2691
▁sharing	-2692
▁rev	-2693
▁kernels	-2694
ports	-2695
click	-2696
uge	-2697
▁native	-2698
rec	-2699
▁seper	-2700
▁repe	-2701
ift	-2702
▁noticed	-2703
▁utility	-2704
▁closed	-2705
▁mist	-2706
▁taking	-2707
az	-2708
▁phys	-2709
▁due	-2710
▁firestarter	-2711
rest	-2712
yn	-2713
▁brow	-2714
▁world	-2715
▁render	-2716
▁processor	-2717
▁her	-2718
mware	-2719
ops	-2720
▁writing	-2721
▁huh	-2722
▁curs	-2723
▁common	-2724
▁sync	-2725
▁pi	-2726
▁mozilla	-2727
▁entries	-2728
omp	-2729
gtk	-2730
▁refresh	-2731
ssi	-2732
▁mkdir	-2733
▁named	-2734
▁night	-2735
ffer	-2736
▁recognize	-2737
▁searching	-2738
▁newest	-2739
run	-2740
the	-2741
▁processes	-2742
▁worry	-2743
▁suspend	-2744
▁browse	-2745
▁existing	-2746
▁fluxbox	-2747
▁owner	-2748
20	-2749
▁isp	-2750
pur	-2751
▁bluetooth	-2752
inting	-2753
▁daemon	-2754
▁resolve	-2755
▁welcome	-2756
ny	-2757
▁properties	-2758
▁ahh	-2759
▁respond	-2760
▁required	-2761
▁irssi	-2762
ient	-2763
▁requires	-2764
▁networks	-2765
abling	-2766
6-	-2767
▁match	-2768
▁replac	-2769
bern	-2770
ythmbox	-2771
▁plz	-2772
▁envy	-2773
40	-2774
▁opening	-2775
avi	-2776
▁fair	-2777
▁totally	-2778
ale	-2779
▁pain	-2780
▁dest	-2781
▁cups	-2782
▁neither	-2783
▁havent	-2784
▁monitors	-2785
▁dialog	-2786
▁50	-2787
▁fan	-2788
arty	-2789
▁along	-2790
bar	-2791
▁datab	-2792
▁reinstalled	-2793
▁coming	-2794
▁bel	-2795
▁trash	-2796
▁necessary	-2797
▁returns	-2798
▁tail	-2799
▁performance	-2800
ols	-2801
▁updating	-2802
source	-2803
leep	-2804
icult	-2805
usion	-2806
he	-2807
▁wm	-2808
▁cache	-2809
rm	-2810
▁hate	-2811
▁regard	-2812
▁authent	-2813
stat	-2814
▁guy	-2815
▁specifically	-2816
▁located	-2817
▁annoying	-2818
aa	-2819
▁curi	-2820
▁gconf	-2821
▁book	-2822
▁stra	-2823
java	-2824
▁finding	-2825
▁state	-2826
▁firmware	-2827
▁ess	-2828
azy	-2829
ned	-2830
▁difficult	-2831
▁grab	-2832
▁fault	-2833
▁mag	-2834
▁metacity	-2835
▁movie	-2836
ontab	-2837
space	-2838
▁gimp	-2839
▁programm	-2840
▁unfortunately	-2841
▁ins	-2842
bl	-2843
▁pls	-2844
▁creating	-2845
▁ways	-2846
▁class	-2847
▁bootloader	-2848
▁definit	-2849
▁guessing	-2850
▁wat	-2851
▁apply	-2852
br	-2853
▁killall	-2854
▁present	-2855
▁df	-2856
▁respon	-2857
▁compatible	-2858
▁hibern	-2859
ca	-2860
▁cm	-2861
ident	-2862
▁bes	-2863
▁dhclient	-2864
▁images	-2865
▁newbie	-2866
▁crontab	-2867
page	-2868
▁perfectly	-2869
▁project	-2870
45	-2871
▁packag	-2872
init	-2873
▁buttons	-2874
▁picture	-2875
▁oss	-2876
▁smart	-2877
▁www	-2878
▁easiest	-2879
gnome	-2880
▁saved	-2881
you	-2882
▁secure	-2883
▁week	-2884
▁onboard	-2885
▁lem	-2886
▁library	-2887
▁straight	-2888
▁prog	-2889
▁vpn	-2890
▁motherboard	-2891
▁sucks	-2892
▁atm	-2893
▁bind	-2894
cs	-2895
▁copied	-2896
▁assign	-2897
▁behind	-2898
supp	-2899
purge	-2900
▁screens	-2901
▁hack	-2902
▁provide	-2903
▁documentation	-2904
▁snd	-2905
ality	-2906
▁suggested	-2907
▁large	-2908
800	-2909
▁nor	-2910
▁encrypted	-2911
te	-2912
orage	-2913
▁she	-2914
▁tel	-2915
▁upload	-2916
▁17	-2917
▁cds	-2918
ormat	-2919
restricted	-2920
▁indeed	-2921
▁screenshot	-2922
▁reload	-2923
▁hal	-2924
▁rece	-2925
▁blacklist	-2926
▁disconnect	-2927
▁putting	-2928
▁rename	-2929
core	-2930
▁seperate	-2931
▁lsusb	-2932
▁hor	-2933
▁rsync	-2934
fat	-2935
▁paramet	-2936
▁flag	-2937
bers	-2938
anced	-2939
torrent	-2940
wire	-2941
▁afa	-2942
▁13	-2943
▁symlink	-2944
▁near	-2945
▁contains	-2946
▁generic	-2947
▁extension	-2948
ges	-2949
mo	-2950
▁sshd	-2951
▁manage	-2952
▁geforce	-2953
arch	-2954
▁count	-2955
▁master	-2956
▁including	-2957
rome	-2958
▁imag	-2959
2-	-2960
path	-2961
▁mob	-2962
▁headers	-2963
▁allows	-2964
▁recommended	-2965
▁instance	-2966
▁batter	-2967
wards	-2968
▁scr	-2969
▁months	-2970
▁unix	-2971
office	-2972
alid	-2973
▁packet	-2974
▁cursor	-2975
▁distros	-2976
▁steps	-2977
▁quot	-2978
▁charac	-2979
▁written	-2980
▁register	-2981
▁xd	-2982
▁reconfigure	-2983
▁sleep	-2984
-2.6	-2985
andr	-2986
▁vbox	-2987
▁office	-2988
▁screwed	-2989
check	-2990
▁stops	-2991
▁clicking	-2992
▁lemme	-2993
▁resc	-2994
▁tmp	-2995
▁lose	-2996
ashing	-2997
▁suggestion	-2998
▁incre	-2999
ete	-3000
▁nobody	-3001
▁docs	-3002
▁blue	-3003
▁extended	-3004
▁64-	-3005
mc	-3006
96	-3007
▁missed	-3008
▁24	-3009
▁ppp	-3010
▁invalid	-3011
▁rules	-3012
▁tries	-3013
▁string	-3014
▁putty	-3015
▁ret	-3016
▁exc	-3017
▁obviously	-3018
irm	-3019
▁affect	-3020
▁helping	-3021
ef	-3022
arily	-3023
dk	-3024
▁edition	-3025
▁menus	-3026
▁moving	-3027
▁shares	-3028
point	-3029
▁definitely	-3030
applet	-3031
▁openssh	-3032
▁jack	-3033
▁formatted	-3034
▁ready	-3035
▁susp	-3036
▁pastebinit	-3037
▁sn	-3038
▁aud	-3039
▁database	-3040
▁debug	-3041
▁warty	-3042
fw	-3043
▁clients	-3044
▁waiting	-3045
▁2.6.2	-3046
▁umm	-3047
data	-3048
▁awes	-3049
▁our	-3050
▁afaik	-3051
uments	-3052
acs	-3053
icate	-3054
▁acceler	-3055
▁mad	-3056
▁battery	-3057
iet	-3058
▁800	-3059
▁area	-3060
▁libraries	-3061
exe	-3062
pre	-3063
▁usr	-3064
▁generally	-3065
▁opera	-3066
ra	-3067
▁causing	-3068
▁forwarding	-3069
pan	-3070
▁advanced	-3071
▁aware	-3072
▁insert	-3073
▁numbers	-3074
ness	-3075
▁flashplugin	-3076
▁6.10	-3077
▁automatic	-3078
▁fol	-3079
appe	-3080
▁14	-3081
vn	-3082
▁included	-3083
▁lab	-3084
▁fully	-3085
ede	-3086
pass	-3087
rar	-3088
▁mor	-3089
▁burning	-3090
▁doesn	-3091
▁thread	-3092
▁layout	-3093
▁afraid	-3094
▁awesome	-3095
▁hone	-3096
view	-3097
55	-3098
▁storage	-3099
ftpd	-3100
ones	-3101
▁hoping	-3102
▁leg	-3103
ube	-3104
gether	-3105
▁management	-3106
▁item	-3107
txt	-3108
▁notice	-3109
izing	-3110
terminal	-3111
▁repair	-3112
▁tcp	-3113
▁managed	-3114
▁rhythmbox	-3115
▁vs	-3116
▁launcher	-3117
ached	-3118
▁copying	-3119
modules	-3120
▁happy	-3121
util	-3122
▁unplug	-3123
bashrc	-3124
underbird	-3125
iewer	-3126
▁loader	-3127
oud	-3128
pse	-3129
▁quit	-3130
▁avoid	-3131
▁brand	-3132
▁shift	-3133
▁confirm	-3134
fil	-3135
▁development	-3136
▁sites	-3137
ood	-3138
▁year	-3139
▁honest	-3140
da	-3141
▁dude	-3142
▁db	-3143
headers	-3144
▁base	-3145
session	-3146
.7	-3147
▁commun	-3148
▁life	-3149
▁anyways	-3150
▁rescue	-3151
gs	-3152
▁encryption	-3153
iddle	-3154
by	-3155
▁gnu	-3156
version	-3157
wd	-3158
▁lsh	-3159
aming	-3160
gu	-3161
▁lower	-3162
▁yah	-3163
▁xgl	-3164
15	-3165
erver	-3166
▁integrated	-3167
ected	-3168
▁bother	-3169
▁winxp	-3170
▁pdf	-3171
▁fut	-3172
▁umask	-3173
ification	-3174
▁medi	-3175
▁conc	-3176
▁helpful	-3177
▁operating	-3178
▁ubun	-3179
▁verify	-3180
▁variable	-3181
▁fu	-3182
▁initrd	-3183
▁60	-3184
build	-3185
▁tra	-3186
▁recent	-3187
▁art	-3188
▁logical	-3189
▁moved	-3190
▁foo	-3191
▁gotta	-3192
non	-3193
rem	-3194
level	-3195
▁total	-3196
ram	-3197
press	-3198
▁az	-3199
▁conflic	-3200
▁sudd	-3201
sible	-3202
▁emul	-3203
▁posted	-3204
▁automount	-3205
▁mostly	-3206
sum	-3207
ane	-3208
▁---	-3209
▁features	-3210
▁dead	-3211
▁lshw	-3212
▁blah	-3213
▁broke	-3214
▁ban	-3215
▁twice	-3216
ities	-3217
▁crashed	-3218
▁wouldnt	-3219
▁fore	-3220
▁pay	-3221
▁cy	-3222
urther	-3223
▁speakers	-3224
▁target	-3225
lex	-3226
alk	-3227
▁kon	-3228
ired	-3229
sn	-3230
▁further	-3231
▁minimal	-3232
▁polic	-3233
▁soundcard	-3234
▁physical	-3235
common	-3236
▁wrote	-3237
▁phot	-3238
▁bugs	-3239
▁iirc	-3240
▁recognized	-3241
▁besides	-3242
▁continue	-3243
▁partitioning	-3244
▁valid	-3245
▁mounts	-3246
▁curious	-3247
13	-3248
ips	-3249
▁color	-3250
▁quiet	-3251
▁failing	-3252
▁uni	-3253
hoot	-3254
▁scp	-3255
▁emacs	-3256
panel	-3257
▁protoc	-3258
saver	-3259
▁1280	-3260
▁ecli	-3261
▁folks	-3262
2.1	-3263
▁hopefully	-3264
▁squ	-3265
▁sudden	-3266
768	-3267
itching	-3268
▁op	-3269
▁solved	-3270
▁telnet	-3271
▁profile	-3272
▁thunderbird	-3273
▁agree	-3274
▁twe	-3275
▁eclipse	-3276
▁switched	-3277
▁response	-3278
stable	-3279
▁situ	-3280
▁offer	-3281
▁hig	-3282
▁tempor	-3283
▁absol	-3284
▁googling	-3285
▁pasted	-3286
▁vfat	-3287
▁additional	-3288
▁beginning	-3289
▁locked	-3290
utils	-3291
▁troubleshoot	-3292
▁knew	-3293
▁released	-3294
▁dependency	-3295
ific	-3296
▁stored	-3297
▁absolut	-3298
▁edited	-3299
essions	-3300
▁inet	-3301
▁chrome	-3302
▁libc	-3303
▁configuring	-3304
▁lamp	-3305
vant	-3306
▁1000	-3307
▁rate	-3308
▁future	-3309
▁esp	-3310
cast	-3311
▁symb	-3312
5-	-3313
ush	-3314
▁dv	-3315
▁initial	-3316
▁ug	-3317
▁512	-3318
▁huge	-3319
▁openoffice	-3320
mpeg	-3321
30	-3322
▁signal	-3323
▁backports	-3324
▁ipv	-3325
ma	-3326
isk	-3327
kill	-3328
▁uninstalled	-3329
▁finished	-3330
acy	-3331
▁determ	-3332
▁couldnt	-3333
▁unre	-3334
▁white	-3335
▁networkmanager	-3336
▁higher	-3337
▁topic	-3338
aper	-3339
▁policy	-3340
▁uid	-3341
▁switching	-3342
▁quotes	-3343
jor	-3344
pg	-3345
▁downloads	-3346
▁cube	-3347
phone	-3348
ounter	-3349
▁yours	-3350
nonfree	-3351
▁camera	-3352
▁esd	-3353
fg	-3354
▁rpm	-3355
▁ln	-3356
topic	-3357
soft	-3358
ledge	-3359
▁mistake	-3360
ites	-3361
▁kno	-3362
icks	-3363
▁cmd	-3364
▁repeat	-3365
▁value	-3366
▁points	-3367
▁traffic	-3368
▁500	-3369
▁proc	-3370
▁777	-3371
ker	-3372
▁opengl	-3373
▁wep	-3374
▁learning	-3375
▁activate	-3376
aker	-3377
▁personal	-3378
extr	-3379
nal	-3380
▁tit	-3381
▁plus	-3382
▁2.6.1	-3383
▁remount	-3384
▁rendering	-3385
ided	-3386
place	-3387
▁sessions	-3388
▁recall	-3389
erald	-3390
▁sel	-3391
over	-3392
▁hum	-3393
▁adjust	-3394
▁libs	-3395
▁third	-3396
▁swe	-3397
▁unstable	-3398
▁successfully	-3399
▁hosts	-3400
▁song	-3401
row	-3402
etch	-3403
test	-3404
ino	-3405
▁prevent	-3406
▁unet	-3407
▁uncom	-3408
▁bought	-3409
▁resolutions	-3410
▁major	-3411
▁amount	-3412
▁remot	-3413
▁owned	-3414
▁building	-3415
▁together	-3416
▁disappe	-3417
▁reformat	-3418
ropri	-3419
▁instal	-3420
dvd	-3421
res	-3422
ources	-3423
▁complic	-3424
▁perman	-3425
▁funny	-3426
db	-3427
illy	-3428
▁mix	-3429
▁middle	-3430
▁operation	-3431
▁visual	-3432
cle	-3433
ony	-3434
▁essid	-3435
▁xterm	-3436
▁reply	-3437
release	-3438
▁unetboot	-3439
▁seg	-3440
▁syslog	-3441
atives	-3442
▁content	-3443
▁1.5	-3444
▁compiler	-3445
▁addresses	-3446
▁dsl	-3447
ii	-3448
▁shall	-3449
▁trust	-3450
ability	-3451
▁emerald	-3452
▁1.0	-3453
▁perl	-3454
▁depending	-3455
sure	-3456
▁sees	-3457
▁lag	-3458
▁touchpad	-3459
▁glad	-3460
▁expert	-3461
▁knowledge	-3462
▁gf	-3463
▁fairly	-3464
▁equiv	-3465
▁experienc	-3466
▁xr	-3467
70	-3468
▁god	-3469
▁personally	-3470
▁wall	-3471
▁recomp	-3472
▁suspect	-3473
▁situation	-3474
▁accident	-3475
▁returned	-3476
▁cal	-3477
▁fill	-3478
▁against	-3479
rase	-3480
▁showed	-3481
▁till	-3482
▁design	-3483
word	-3484
686	-3485
▁netstat	-3486
la	-3487
▁ic	-3488
▁espec	-3489
date	-3490
▁boxes	-3491
▁unetbootin	-3492
appy	-3493
▁crazy	-3494
▁natty	-3495
anger	-3496
▁meaning	-3497
ency	-3498
ital	-3499
▁ot	-3500
wind	-3501
▁across	-3502
▁hibernate	-3503
▁cuz	-3504
▁freen	-3505
▁sudoers	-3506
▁5.10	-3507
▁azure	-3508
▁readme	-3509
-4	-3510
ics	-3511
miss	-3512
▁morning	-3513
▁reports	-3514
▁ter	-3515
▁appreciate	-3516
▁corrupted	-3517
uss	-3518
16	-3519
▁ss	-3520
▁hun	-3521
▁eg	-3522
▁dl	-3523
▁define	-3524
group	-3525
▁become	-3526
▁words	-3527
map	-3528
▁oops	-3529
▁imm	-3530
▁finally	-3531
▁wee	-3532
▁pkg	-3533
▁xrandr	-3534
▁remov	-3535
▁thumb	-3536
▁alias	-3537
rf	-3538
▁udev	-3539
▁authentication	-3540
▁notebook	-3541
▁failure	-3542
▁behavi	-3543
▁tunnel	-3544
▁azureus	-3545
ceed	-3546
locks	-3547
fault	-3548
▁upon	-3549
▁teh	-3550
▁clicked	-3551
oring	-3552
▁thru	-3553
▁ffmpeg	-3554
▁indic	-3555
▁reader	-3556
▁brid	-3557
▁allowed	-3558
editor	-3559
ropriate	-3560
▁eject	-3561
aq	-3562
▁especially	-3563
support	-3564
soci	-3565
cks	-3566
str	-3567
▁kdm	-3568
▁clock	-3569
▁freeze	-3570
▁lcd	-3571
ively	-3572
▁magic	-3573
▁scratch	-3574
driver	-3575
▁32-	-3576
▁compress	-3577
▁tweak	-3578
-8	-3579
oooo	-3580
▁sens	-3581
pace	-3582
form	-3583
▁sat	-3584
icd	-3585
▁mate	-3586
safe	-3587
▁mar	-3588
▁fetch	-3589
▁ifup	-3590
▁friends	-3591
cket	-3592
▁persist	-3593
▁listening	-3594
rwx	-3595
antly	-3596
▁glxinfo	-3597
aks	-3598
block	-3599
▁various	-3600
▁ahead	-3601
▁protocol	-3602
lly	-3603
ron	-3604
▁oo	-3605
edega	-3606
▁hw	-3607
▁rule	-3608
▁complicated	-3609
▁mixer	-3610
▁xine	-3611
▁highlight	-3612
▁label	-3613
▁om	-3614
ried	-3615
▁aux	-3616
▁sch	-3617
▁thanx	-3618
▁deleting	-3619
▁maxim	-3620
▁dro	-3621
▁microsoft	-3622
▁frame	-3623
▁runlevel	-3624
ecks	-3625
izes	-3626
ority	-3627
▁array	-3628
▁codec	-3629
ros	-3630
▁ld	-3631
▁gotten	-3632
▁wast	-3633
▁fixes	-3634
▁wicd	-3635
▁cedega	-3636
▁weeks	-3637
▁corpor	-3638
▁ather	-3639
▁spl	-3640
▁index	-3641
▁provided	-3642
▁shouldnt	-3643
▁laptops	-3644
▁displays	-3645
▁ton	-3646
▁suse	-3647
vnc	-3648
ye	-3649
▁killed	-3650
▁logout	-3651
▁maint	-3652
ats	-3653
codecs	-3654
▁backspace	-3655
''	-3656
▁rub	-3657
chool	-3658
▁messing	-3659
ings	-3660
avig	-3661
▁dump	-3662
▁assist	-3663
co	-3664
▁ut	-3665
▁ben	-3666
▁dvds	-3667
▁chose	-3668
▁atheros	-3669
▁action	-3670
cy	-3671
rr	-3672
▁concer	-3673
▁shown	-3674
▁programming	-3675
----	-3676
▁subnet	-3677
▁saf	-3678
▁remotely	-3679
local	-3680
▁rese	-3681
files	-3682
ersh	-3683
▁imagine	-3684
mi	-3685
▁18	-3686
▁shit	-3687
▁overwrite	-3688
aster	-3689
▁burned	-3690
▁dep	-3691
▁channels	-3692
▁descript	-3693
go	-3694
▁caused	-3695
▁iwlist	-3696
▁remain	-3697
500	-3698
uc	-3699
erd	-3700
▁movies	-3701
ocated	-3702
cont	-3703
▁html	-3704
▁lilo	-3705
▁ll	-3706
▁pressing	-3707
▁conver	-3708
keys	-3709
▁associ	-3710
ls	-3711
itive	-3712
ict	-3713
ribut	-3714
▁title	-3715
▁fixing	-3716
▁crashing	-3717
▁everybody	-3718
▁nmap	-3719
oke	-3720
▁searched	-3721
▁certainly	-3722
wifi	-3723
▁seemed	-3724
▁acceleration	-3725
can	-3726
▁qt	-3727
▁2.0	-3728
▁lack	-3729
▁256	-3730
▁clone	-3731
▁helped	-3732
▁appropriate	-3733
▁osx	-3734
▁interested	-3735
extras	-3736
▁range	-3737
▁esc	-3738
▁checks	-3739
tes	-3740
script	-3741
▁board	-3742
▁ips	-3743
▁shortcuts	-3744
▁upgrades	-3745
▁plays	-3746
▁specified	-3747
nx	-3748
like	-3749
▁plain	-3750
▁school	-3751
▁tested	-3752
▁multi	-3753
tually	-3754
▁libdvd	-3755
100	-3756
▁locally	-3757
▁hint	-3758
sel	-3759
▁self	-3760
▁slower	-3761
here	-3762
▁svn	-3763
video	-3764
▁ee	-3765
▁usual	-3766
mode	-3767
▁postfix	-3768
4-	-3769
22	-3770
▁turns	-3771
▁bootup	-3772
▁silly	-3773
▁wanting	-3774
▁unm	-3775
▁distrib	-3776
▁equival	-3777
aly	-3778
99	-3779
ustr	-3780
▁scsi	-3781
▁partit	-3782
▁rar	-3783
▁impos	-3784
▁sftp	-3785
help	-3786
ination	-3787
▁regarding	-3788
▁glib	-3789
▁incor	-3790
▁bigger	-3791
▁resource	-3792
0'	-3793
istory	-3794
▁wasnt	-3795
▁tray	-3796
▁rights	-3797
xine	-3798
▁relevant	-3799
▁wipe	-3800
iser	-3801
iter	-3802
▁disabling	-3803
auth	-3804
▁ste	-3805
inking	-3806
▁kept	-3807
▁filter	-3808
sec	-3809
▁capture	-3810
▁wtf	-3811
▁ant	-3812
▁seriously	-3813
ments	-3814
▁pointer	-3815
uf	-3816
▁reference	-3817
ompl	-3818
replace	-3819
▁argument	-3820
-5	-3821
▁linksys	-3822
▁immedi	-3823
▁dyn	-3824
ese	-3825
▁walk	-3826
artition	-3827
▁party	-3828
pose	-3829
▁asus	-3830
ball	-3831
open	-3832
▁resources	-3833
▁passwords	-3834
▁commandline	-3835
▁documents	-3836
▁fav	-3837
▁invol	-3838
▁reasons	-3839
▁smaller	-3840
▁corporation	-3841
flash	-3842
▁playback	-3843
zz	-3844
ism	-3845
▁gpg	-3846
▁privile	-3847
▁opp	-3848
▁rad	-3849
▁adduser	-3850
▁car	-3851
▁techn	-3852
▁redirect	-3853
look	-3854
profile	-3855
▁extensions	-3856
kernel	-3857
18	-3858
▁progress	-3859
▁tom	-3860
▁dock	-3861
▁conky	-3862
▁navig	-3863
▁unrar	-3864
▁determine	-3865
▁lea	-3866
1-	-3867
▁acer	-3868
▁pa	-3869
▁ul	-3870
▁impro	-3871
▁classic	-3872
arth	-3873
php	-3874
▁suck	-3875
▁coll	-3876
▁serial	-3877
base	-3878
ization	-3879
stood	-3880
▁mountpoint	-3881
zen	-3882
▁attempting	-3883
kb	-3884
▁mobile	-3885
▁cf	-3886
▁gigs	-3887
ho	-3888
bz	-3889
▁beep	-3890
▁absolutely	-3891
▁tran	-3892
▁dynam	-3893
▁panic	-3894
package	-3895
▁equivalent	-3896
reinstall	-3897
mission	-3898
▁throw	-3899
▁thinks	-3900
▁frequ	-3901
▁desktops	-3902
▁-9	-3903
▁releases	-3904
▁distribution	-3905
▁ppl	-3906
▁21	-3907
rive	-3908
▁launchpad	-3909
▁confusing	-3910
▁answ	-3911
▁dumb	-3912
emu	-3913
▁avi	-3914
▁synaptics	-3915
▁chrom	-3916
ramfs	-3917
▁suddenly	-3918
▁tree	-3919
▁split	-3920
▁automatix	-3921
ership	-3922
▁yo	-3923
▁impossible	-3924
wm	-3925
▁entirely	-3926
▁temp	-3927
▁corner	-3928
▁backups	-3929
▁ve	-3930
▁screensaver	-3931
▁team	-3932
▁tru	-3933
▁slight	-3934
mozilla	-3935
▁specs	-3936
icated	-3937
tek	-3938
▁increase	-3939
▁incorrect	-3940
▁tryed	-3941
▁eng	-3942
▁final	-3943
iting	-3944
▁opin	-3945
▁tend	-3946
xr	-3947
▁msn	-3948
▁cross	-3949
▁reach	-3950
▁decent	-3951
▁hook	-3952
▁grey	-3953
around	-3954
dp	-3955
▁alone	-3956
▁answers	-3957
▁decided	-3958
▁printing	-3959
▁.'	-3960
▁640	-3961
90	-3962
▁hy	-3963
▁uncomment	-3964
▁notification	-3965
▁parameters	-3966
▁buggy	-3967
▁willing	-3968
▁mint	-3969
gig	-3970
xxx	-3971
▁chromium	-3972
intel	-3973
rible	-3974
▁characters	-3975
▁jre	-3976
iba	-3977
parm	-3978
▁slack	-3979
▁bookm	-3980
▁recei	-3981
▁vo	-3982
__	-3983
▁maver	-3984
▁ta	-3985
▁amsn	-3986
▁vid	-3987
▁canon	-3988
▁partion	-3989
▁parted	-3990
▁sed	-3991
installed	-3992
▁har	-3993
▁makefile	-3994
ribe	-3995
▁flood	-3996
system	-3997
▁linked	-3998
2.0	-3999
▁photos	-4000
based	-4001
▁unpack	-4002
ute	-4003
▁madwifi	-4004
▁youre	-4005
hat	-4006
▁googled	-4007
ecture	-4008
▁ub	-4009
▁3.0	-4010
▁entered	-4011
▁useless	-4012
ection	-4013
▁generate	-4014
▁alien	-4015
▁parts	-4016
did	-4017
▁jump	-4018
▁yahoo	-4019
▁direction	-4020
well	-4021
ins	-4022
cape	-4023
eld	-4024
▁series	-4025
▁virus	-4026
▁hrm	-4027
ibility	-4028
link	-4029
▁sry	-4030
▁phpmy	-4031
▁ccs	-4032
▁ownership	-4033
▁shr	-4034
type	-4035
▁phpmyadmin	-4036
▁prefs	-4037
vs	-4038
▁attached	-4039
▁expected	-4040
▁compare	-4041
ool	-4042
▁discuss	-4043
bsd	-4044
▁compos	-4045
▁ccsm	-4046
3-	-4047
▁kick	-4048
▁ruby	-4049
▁limited	-4050
▁realtek	-4051
▁memtest	-4052
css	-4053
▁mini	-4054
ppix	-4055
▁worse	-4056
▁pu	-4057
lob	-4058
▁guides	-4059
▁spam	-4060
▁maverick	-4061
▁128	-4062
▁purpose	-4063
▁forever	-4064
▁reli	-4065
▁filesystems	-4066
ier	-4067
▁quality	-4068
▁wich	-4069
▁nameserver	-4070
▁muted	-4071
▁lsb	-4072
▁panels	-4073
3'	-4074
mon	-4075
▁accessing	-4076
▁afterwards	-4077
▁gfx	-4078
▁maintain	-4079
pri	-4080
▁history	-4081
-10	-4082
osing	-4083
comp	-4084
▁causes	-4085
▁logo	-4086
▁resolv	-4087
▁gpu	-4088
▁transp	-4089
▁hav	-4090
oss	-4091
900	-4092
adm	-4093
▁bits	-4094
▁rebuild	-4095
▁previously	-4096
▁dot	-4097
▁bright	-4098
▁workaround	-4099
66	-4100
sof	-4101
▁idk	-4102
▁mm	-4103
▁community	-4104
▁field	-4105
▁reiser	-4106
▁downgrade	-4107
▁typo	-4108
▁failsafe	-4109
▁speaker	-4110
▁destination	-4111
▁medibuntu	-4112
pth	-4113
▁bey	-4114
lets	-4115
iment	-4116
▁contact	-4117
▁fuse	-4118
▁identify	-4119
html	-4120
▁manuf	-4121
▁quickly	-4122
▁connects	-4123
mask	-4124
▁reads	-4125
▁thingy	-4126
▁combin	-4127
▁recompile	-4128
▁sweet	-4129
▁transl	-4130
▁autore	-4131
▁apple	-4132
▁stage	-4133
installer	-4134
gre	-4135
▁ii	-4136
▁creates	-4137
▁packets	-4138
▁blocked	-4139
▁accounts	-4140
▁tor	-4141
vo	-4142
allocated	-4143
▁band	-4144
▁blocks	-4145
▁reported	-4146
▁gmail	-4147
▁careful	-4148
▁knoppix	-4149
▁blocking	-4150
ghz	-4151
▁fuck	-4152
agn	-4153
▁zip	-4154
aged	-4155
fre	-4156
order	-4157
▁green	-4158
icon	-4159
▁const	-4160
▁smp	-4161
1024	-4162
▁pipe	-4163
▁hdparm	-4164
▁transmission	-4165
that	-4166
▁replaced	-4167
▁extracted	-4168
ds	-4169
▁upstart	-4170
▁mer	-4171
▁assigned	-4172
▁map	-4173
▁modified	-4174
▁sad	-4175
▁mobo	-4176
itecture	-4177
rol	-4178
▁fatal	-4179
▁wid	-4180
pathy	-4181
▁gt	-4182
▁manufac	-4183
oney	-4184
▁beyond	-4185
▁played	-4186
▁ppc	-4187
odes	-4188
quer	-4189
▁tosh	-4190
▁tarball	-4191
▁frustr	-4192
▁resume	-4193
▁activated	-4194
▁immediately	-4195
write	-4196
mentation	-4197
enty	-4198
unes	-4199
▁xin	-4200
▁0'	-4201
▁gen	-4202
ances	-4203
▁accidentally	-4204
▁sending	-4205
▁appreciated	-4206
cfg	-4207
▁mkfs	-4208
imedia	-4209
setup	-4210
▁lsof	-4211
atic	-4212
▁product	-4213
▁formatting	-4214
login	-4215
vv	-4216
▁engine	-4217
▁randomly	-4218
▁rom	-4219
move	-4220
▁ufw	-4221
▁visible	-4222
▁blinking	-4223
▁webserver	-4224
▁piec	-4225
▁unallocated	-4226
exec	-4227
▁opinion	-4228
17	-4229
ising	-4230
▁git	-4231
▁author	-4232
▁routers	-4233
▁roll	-4234
▁skip	-4235
▁imple	-4236
▁news	-4237
▁thus	-4238
▁ra	-4239
▁pointing	-4240
▁hence	-4241
▁players	-4242
▁len	-4243
▁2.4	-4244
▁provides	-4245
ipped	-4246
▁utf	-4247
fi	-4248
▁values	-4249
▁refused	-4250
iny	-4251
▁money	-4252
ieve	-4253
▁socket	-4254
▁uninstalling	-4255
▁cheap	-4256
altern	-4257
▁killing	-4258
jo	-4259
ctl	-4260
▁experienced	-4261
▁privileges	-4262
▁temporarily	-4263
cise	-4264
▁loss	-4265
▁handy	-4266
▁enabling	-4267
▁js	-4268
▁appearance	-4269
▁itunes	-4270
ifs	-4271
▁dem	-4272
▁vert	-4273
xconfig	-4274
▁wierd	-4275
▁hide	-4276
▁turning	-4277
▁toshiba	-4278
viewer	-4279
bind	-4280
als	-4281
unk	-4282
▁colors	-4283
▁spaces	-4284
▁stays	-4285
▁mdadm	-4286
▁possib	-4287
▁caps	-4288
▁surpr	-4289
▁bridge	-4290
▁uncheck	-4291
yle	-4292
▁taken	-4293
dy	-4294
▁pen	-4295
▁alph	-4296
▁fusion	-4297
▁ugly	-4298
▁lead	-4299
phones	-4300
▁mins	-4301
▁research	-4302
▁optim	-4303
▁simpl	-4304
▁websites	-4305
▁eventually	-4306
2.	-4307
ience	-4308
▁displayed	-4309
▁checkinstall	-4310
▁executed	-4311
▁multimedia	-4312
tht	-4313
▁gw	-4314
▁describ	-4315
▁realize	-4316
▁unmounted	-4317
▁mid	-4318
▁artic	-4319
▁fall	-4320
▁empathy	-4321
▁autoremove	-4322
dc	-4323
wl	-4324
▁description	-4325
shee	-4326
▁routing	-4327
▁kk	-4328
▁rmm	-4329
▁insp	-4330
▁worried	-4331
▁lic	-4332
▁configs	-4333
▁unus	-4334
▁modes	-4335
control	-4336
▁indi	-4337
omes	-4338
▁scanner	-4339
▁ntp	-4340
▁parameter	-4341
▁poor	-4342
54	-4343
▁arrow	-4344
▁isntall	-4345
▁rmmod	-4346
▁locale	-4347
rs	-4348
▁saving	-4349
arks	-4350
▁banshee	-4351
tools	-4352
▁understanding	-4353
udo	-4354
cing	-4355
▁smooth	-4356
▁pppo	-4357
▁honestly	-4358
▁los	-4359
▁claim	-4360
▁wallp	-4361
▁sets	-4362
▁packagename	-4363
▁items	-4364
▁below	-4365
▁binaries	-4366
▁bittorrent	-4367
▁sir	-4368
▁fit	-4369
fold	-4370
kid	-4371
thtv	-4372
1'	-4373
▁libdvdcss	-4374
▁referring	-4375
▁ti	-4376
del	-4377
tb	-4378
omet	-4379
▁debs	-4380
▁describe	-4381
licant	-4382
▁loopback	-4383
▁legacy	-4384
wid	-4385
▁worries	-4386
▁four	-4387
▁revert	-4388
▁character	-4389
▁kb	-4390
▁sitting	-4391
▁fullscreen	-4392
▁hdb	-4393
▁fing	-4394
iro	-4395
font	-4396
gears	-4397
▁mono	-4398
▁ability	-4399
▁lyn	-4400
▁accompl	-4401
▁harddisk	-4402
2'	-4403
img	-4404
▁erase	-4405
▁termin	-4406
old	-4407
rag	-4408
▁plenty	-4409
▁anal	-4410
iod	-4411
▁tick	-4412
▁browsing	-4413
▁cfdisk	-4414
▁finds	-4415
▁commented	-4416
▁ep	-4417
▁company	-4418
▁goto	-4419
▁mythtv	-4420
▁lx	-4421
▁listing	-4422
▁pent	-4423
▁twin	-4424
▁lame	-4425
▁controls	-4426
▁risk	-4427
▁lubuntu	-4428
▁viewer	-4429
▁dynamic	-4430
▁scanning	-4431
onf	-4432
▁experiment	-4433
▁burner	-4434
▁webmin	-4435
▁advise	-4436
▁hurt	-4437
▁solutions	-4438
ev	-4439
86_	-4440
tab	-4441
▁usplash	-4442
▁functionality	-4443
▁ns	-4444
iness	-4445
itted	-4446
station	-4447
▁appro	-4448
orrow	-4449
▁nah	-4450
▁header	-4451
ko	-4452
▁asp	-4453
▁tips	-4454
rip	-4455
ited	-4456
19	-4457
eme	-4458
▁unt	-4459
▁arent	-4460
▁recurs	-4461
▁architecture	-4462
▁000	-4463
▁conflict	-4464
▁tabs	-4465
cutter	-4466
480	-4467
▁ach	-4468
▁accomplish	-4469
▁administrator	-4470
▁pure	-4471
▁zero	-4472
gest	-4473
▁mass	-4474
▁ment	-4475
▁freenode	-4476
af	-4477
▁receive	-4478
jdk	-4479
▁pcmc	-4480
▁encod	-4481
▁compon	-4482
▁keyring	-4483
▁macbook	-4484
▁3.5	-4485
▁glob	-4486
▁advant	-4487
▁knowing	-4488
ama	-4489
▁smbfs	-4490
▁thinkpad	-4491
outh	-4492
▁expand	-4493
▁complaining	-4494
▁remix	-4495
▁hitting	-4496
phrase	-4497
▁danger	-4498
▁selecting	-4499
▁lynx	-4500
▁registered	-4501
▁coz	-4502
▁ipw	-4503
▁buffer	-4504
▁idle	-4505
▁clearly	-4506
▁defined	-4507
▁blkid	-4508
.0.	-4509
▁cases	-4510
▁encounter	-4511
reate	-4512
▁slackware	-4513
▁tutorials	-4514
386.	-4515
▁answered	-4516
least	-4517
iled	-4518
▁somewhat	-4519
▁gid	-4520
▁pcs	-4521
▁hanging	-4522
▁includes	-4523
▁ahhh	-4524
▁feed	-4525
▁types	-4526
▁pops	-4527
▁qemu	-4528
arely	-4529
orn	-4530
-386	-4531
▁didn	-4532
▁700	-4533
▁headphones	-4534
umes	-4535
apic	-4536
gt	-4537
▁pictures	-4538
▁90	-4539
▁chk	-4540
▁friendly	-4541
▁verb	-4542
▁belong	-4543
▁express	-4544
▁terms	-4545
▁manufactur	-4546
fficient	-4547
▁disconnected	-4548
cent	-4549
▁univers	-4550
▁spend	-4551
▁frozen	-4552
▁pcmcia	-4553
▁navigate	-4554
▁mot	-4555
▁pend	-4556
aug	-4557
▁ooo	-4558
▁unzip	-4559
▁complains	-4560
ision	-4561
▁dbus	-4562
28	-4563
▁pw	-4564
▁clam	-4565
mind	-4566
▁meta	-4567
▁processing	-4568
▁diagn	-4569
eg	-4570
▁2.6.3	-4571
▁audacity	-4572
▁nom	-4573
▁tre	-4574
▁spot	-4575
▁frontend	-4576
▁blo	-4577
▁exe	-4578
▁tired	-4579
▁responding	-4580
▁secondary	-4581
▁period	-4582
▁spell	-4583
vf	-4584
▁ib	-4585
▁openbox	-4586
▁precise	-4587
97	-4588
▁01	-4589
▁glxgears	-4590
grad	-4591
400	-4592
▁horiz	-4593
▁pract	-4594
▁brings	-4595
▁atleast	-4596
▁push	-4597
compl	-4598
▁techno	-4599
▁digital	-4600
ined	-4601
▁heck	-4602
▁redhat	-4603
esty	-4604
▁house	-4605
va	-4606
▁slightly	-4607
▁755	-4608
▁air	-4609
▁300	-4610
men	-4611
▁delay	-4612
▁directions	-4613
▁acces	-4614
▁marked	-4615
▁outputs	-4616
▁nc	-4617
▁timeout	-4618
▁thoughts	-4619
▁2.2	-4620
error	-4621
▁calls	-4622
▁pentium	-4623
dos	-4624
▁considering	-4625
86_64	-4626
▁amaz	-4627
etect	-4628
▁taskbar	-4629
▁isn	-4630
▁letters	-4631
▁erm	-4632
ret	-4633
▁slave	-4634
▁impress	-4635
supported	-4636
mhz	-4637
directory	-4638
kit	-4639
asing	-4640
▁crt	-4641
▁heav	-4642
▁unlock	-4643
▁workgroup	-4644
▁developers	-4645
▁rot	-4646
▁cheers	-4647
▁tag	-4648
▁individ	-4649
▁ssd	-4650
buffer	-4651
▁bytes	-4652
▁ther	-4653
▁extrem	-4654
select	-4655
▁apart	-4656
ering	-4657
yes	-4658
with	-4659
▁eff	-4660
urses	-4661
▁iface	-4662
▁compared	-4663
▁die	-4664
tain	-4665
▁1'	-4666
forward	-4667
▁larger	-4668
▁invoke	-4669
▁origin	-4670
▁refuses	-4671
cel	-4672
▁pcm	-4673
anish	-4674
ivity	-4675
▁cros	-4676
▁gar	-4677
▁nix	-4678
▁chain	-4679
▁jdk	-4680
print	-4681
eel	-4682
▁earth	-4683
▁fiesty	-4684
▁23	-4685
▁tip	-4686
▁brightness	-4687
▁stock	-4688
sover	-4689
apping	-4690
▁dark	-4691
default	-4692
▁bur	-4693
▁defrag	-4694
▁destro	-4695
▁freezing	-4696
▁jsut	-4697
▁newly	-4698
▁dma	-4699
▁face	-4700
▁sector	-4701
▁initramfs	-4702
▁upper	-4703
entially	-4704
▁entering	-4705
▁kvm	-4706
rel	-4707
▁hfs	-4708
▁bork	-4709
▁libg	-4710
▁mirrors	-4711
▁emulator	-4712
▁broadcast	-4713
1.	-4714
inf	-4715
ler	-4716
▁parent	-4717
▁containing	-4718
▁microphone	-4719
▁loose	-4720
ded	-4721
aced	-4722
945	-4723
▁colum	-4724
▁locks	-4725
▁mmm	-4726
▁nevermind	-4727
enger	-4728
▁gain	-4729
▁busybox	-4730
ifier	-4731
atform	-4732
▁accessories	-4733
alternatives	-4734
ilities	-4735
▁gimme	-4736
▁occur	-4737
▁breaks	-4738
will	-4739
▁slot	-4740
▁0.0	-4741
width	-4742
▁192.1	-4743
▁distribut	-4744
▁generated	-4745
▁detects	-4746
▁pressed	-4747
▁alpha	-4748
▁crossover	-4749
▁backed	-4750
▁puts	-4751
awn	-4752
▁io	-4753
▁600	-4754
cial	-4755
▁prefix	-4756
▁10.4	-4757
▁letter	-4758
▁attention	-4759
▁windo	-4760
▁usable	-4761
▁favor	-4762
▁cos	-4763
▁partitioned	-4764
▁bs	-4765
▁webpage	-4766
▁parition	-4767
▁vncserver	-4768
▁192.168	-4769
▁keeping	-4770
25	-4771
ung	-4772
while	-4773
tv	-4774
▁desk	-4775
▁lxde	-4776
▁iam	-4777
▁resizing	-4778
▁proced	-4779
▁eee	-4780
passwd	-4781
▁flick	-4782
▁indicator	-4783
oming	-4784
▁sil	-4785
▁edge	-4786
▁patches	-4787
logies	-4788
▁alter	-4789
▁decide	-4790
▁pinging	-4791
rt	-4792
▁mesa	-4793
▁complex	-4794
▁extremely	-4795
88	-4796
▁sdc	-4797
▁adress	-4798
▁cifs	-4799
▁troubleshooting	-4800
▁tight	-4801
▁interrupt	-4802
win	-4803
▁si	-4804
▁bandwidth	-4805
▁spin	-4806
▁relative	-4807
▁recording	-4808
▁adsl	-4809
anks	-4810
▁article	-4811
▁cvs	-4812
▁notes	-4813
▁understood	-4814
▁twinview	-4815
raft	-4816
▁query	-4817
▁feeling	-4818
▁permanent	-4819
▁aha	-4820
▁emb	-4821
dep	-4822
▁ends	-4823
▁crack	-4824
▁fps	-4825
▁symbolic	-4826
▁considered	-4827
▁bras	-4828
▁gd	-4829
▁excell	-4830
▁wip	-4831
▁associated	-4832
ison	-4833
▁accessible	-4834
duce	-4835
py	-4836
▁dirs	-4837
▁printers	-4838
▁hdmi	-4839
▁ogg	-4840
ka	-4841
▁pin	-4842
▁sho	-4843
▁managers	-4844
sw	-4845
lish	-4846
shell	-4847
▁2.1	-4848
igr	-4849
▁dash	-4850
▁selection	-4851
ctions	-4852
▁dangerous	-4853
▁hub	-4854
▁probs	-4855
fusion	-4856
▁mal	-4857
▁ended	-4858
fsck	-4859
▁dar	-4860
uz	-4861
▁excl	-4862
▁shoot	-4863
▁escape	-4864
▁400	-4865
▁ded	-4866
▁catch	-4867
▁switches	-4868
▁undo	-4869
window	-4870
▁crappy	-4871
▁safely	-4872
cha	-4873
resp	-4874
▁yu	-4875
▁404	-4876
▁spent	-4877
▁restric	-4878
▁fn	-4879
▁ssid	-4880
▁lucky	-4881
active	-4882
auto	-4883
▁agp	-4884
▁reverse	-4885
▁procedure	-4886
▁formats	-4887
▁mainly	-4888
diot	-4889
▁wide	-4890
▁behavior	-4891
▁somthing	-4892
hop	-4893
▁letting	-4894
▁1.1	-4895
plugins	-4896
▁offline	-4897
33	-4898
▁germ	-4899
▁cost	-4900
▁excellent	-4901
▁piece	-4902
▁leaving	-4903
▁nx	-4904
▁daily	-4905
▁proftpd	-4906
▁watching	-4907
▁wallpaper	-4908
lx	-4909
▁tomorrow	-4910
▁permanently	-4911
▁workstation	-4912
ssh	-4913
ren	-4914
ums	-4915
▁rip	-4916
▁ages	-4917
▁spare	-4918
▁symlinks	-4919
▁planning	-4920
jre	-4921
then	-4922
address	-4923
▁visudo	-4924
hand	-4925
▁conv	-4926
▁userm	-4927
▁joy	-4928
▁radio	-4929
offtopic	-4930
▁passphrase	-4931
▁cs	-4932
▁noise	-4933
▁family	-4934
▁dropped	-4935
▁terminals	-4936
bb	-4937
▁studio	-4938
▁sshfs	-4939
▁preference	-4940
▁802.1	-4941
▁removable	-4942
▁drw	-4943
▁ble	-4944
▁vend	-4945
▁ifdown	-4946
▁imo	-4947
record	-4948
▁surely	-4949
▁designed	-4950
▁raw	-4951
▁sid	-4952
ha	-4953
▁shrink	-4954
▁sequ	-4955
▁brasero	-4956
▁volumes	-4957
aling	-4958
▁compatibility	-4959
▁losing	-4960
inst	-4961
▁prior	-4962
proper	-4963
▁cheese	-4964
▁ui	-4965
▁unsupported	-4966
acer	-4967
▁style	-4968
avail	-4969
▁draw	-4970
▁append	-4971
▁strong	-4972
▁freebsd	-4973
eric	-4974
▁torrents	-4975
▁sb	-4976
▁mistak	-4977
▁proceed	-4978
▁1.2	-4979
▁froze	-4980
aby	-4981
▁ohh	-4982
▁waste	-4983
▁forced	-4984
download	-4985
▁brother	-4986
▁ensure	-4987
▁ignored	-4988
process	-4989
▁partiton	-4990
▁deluge	-4991
▁ice	-4992
▁happend	-4993
95	-4994
▁htop	-4995
▁cover	-4996
▁capable	-4997
▁candid	-4998
▁typically	-4999
que	-5000
▁wif	-5001
▁suit	-5002
-2.6.2	-5003
illion	-5004
▁discover	-5005
▁detecting	-5006
▁canonical	-5007
▁prolly	-5008
▁realplayer	-5009
▁5.04	-5010
▁sectors	-5011
▁surprised	-5012
▁readable	-5013
oking	-5014
▁bookmarks	-5015
98	-5016
▁crypt	-5017
▁sar	-5018
fonts	-5019
vfs	-5020
▁xxx	-5021
▁comfort	-5022
▁250	-5023
ali	-5024
▁pix	-5025
▁mand	-5026
▁tons	-5027
▁org	-5028
▁jour	-5029
▁framebuffer	-5030
code	-5031
▁someth	-5032
▁variables	-5033
▁nicely	-5034
▁identical	-5035
lied	-5036
▁offtopic	-5037
▁pref	-5038
▁freak	-5039
▁kernal	-5040
▁konquer	-5041
▁comments	-5042
▁explains	-5043
scan	-5044
▁autod	-5045
▁superblock	-5046
▁behaviour	-5047
▁anim	-5048
▁mute	-5049
acing	-5050
▁aplay	-5051
▁holding	-5052
▁testdisk	-5053
asks	-5054
▁fancy	-5055
ming	-5056
▁node	-5057
▁executing	-5058
ern	-5059
lik	-5060
▁usermod	-5061
opt	-5062
ssl	-5063
.10-	-5064
▁nearly	-5065
▁802.11	-5066
▁envyng	-5067
▁bars	-5068
▁event	-5069
▁vsftpd	-5070
▁stopping	-5071
▁died	-5072
▁handles	-5073
▁dupl	-5074
versation	-5075
▁therefore	-5076
▁workspace	-5077
▁xv	-5078
▁sony	-5079
▁idiot	-5080
▁omg	-5081
▁43	-5082
▁awn	-5083
xe	-5084
▁wo	-5085
▁lazy	-5086
▁analog	-5087
▁heron	-5088
▁overr	-5089
▁slowly	-5090
▁removal	-5091
▁led	-5092
▁reboots	-5093
▁verbose	-5094
▁improve	-5095
▁std	-5096
▁flaw	-5097
▁object	-5098
▁matters	-5099
▁suggests	-5100
▁scripting	-5101
▁elsewhere	-5102
▁1.4	-5103
▁ata	-5104
▁gaming	-5105
▁developer	-5106
omb	-5107
▁sym	-5108
▁xdm	-5109
abor	-5110
▁necessarily	-5111
bex	-5112
▁circ	-5113
tim	-5114
▁jav	-5115
▁hash	-5116
▁wise	-5117
▁depth	-5118
▁liter	-5119
▁strace	-5120
supplicant	-5121
ples	-5122
7-	-5123
▁wiz	-5124
▁temporary	-5125
eeee	-5126
▁becomes	-5127
▁possibility	-5128
logy	-5129
▁popular	-5130
▁reiserfs	-5131
▁reconnect	-5132
owser	-5133
▁budd	-5134
▁thnx	-5135
▁foc	-5136
▁concerned	-5137
▁gm	-5138
▁messenger	-5139
▁nut	-5140
▁streaming	-5141
▁hex	-5142
▁clar	-5143
300	-5144
daemon	-5145
▁position	-5146
▁closing	-5147
▁netmask	-5148
▁packaged	-5149
▁platform	-5150
▁minimize	-5151
810	-5152
ept	-5153
▁migr	-5154
▁dependan	-5155
fire	-5156
▁bsd	-5157
▁upt	-5158
▁compizconfig	-5159
▁combination	-5160
jpg	-5161
▁explan	-5162
▁oct	-5163
▁kn	-5164
cur	-5165
▁tricky	-5166
▁tb	-5167
▁gee	-5168
backup	-5169
▁decor	-5170
▁manpage	-5171
▁replacing	-5172
▁backport	-5173
iph	-5174
▁fal	-5175
ulting	-5176
▁assumed	-5177
▁struc	-5178
els	-5179
▁dum	-5180
▁differently	-5181
▁mpeg	-5182
▁hotplug	-5183
▁ec	-5184
icit	-5185
▁tiny	-5186
properties	-5187
▁httpd	-5188
▁yeh	-5189
▁worst	-5190
▁choices	-5191
9660	-5192
▁gnash	-5193
▁alternatives	-5194
▁70	-5195
ously	-5196
▁destroy	-5197
▁fx	-5198
▁ibm	-5199
▁paths	-5200
▁respect	-5201
▁human	-5202
▁candidate	-5203
▁restarts	-5204
▁dosent	-5205
▁excuse	-5206
▁learned	-5207
▁awk	-5208
▁xbox	-5209
▁inspiron	-5210
▁sr	-5211
▁nvm	-5212
▁bout	-5213
▁heres	-5214
dump	-5215
▁386	-5216
▁sig	-5217
▁libx	-5218
▁hat	-5219
▁advance	-5220
ape	-5221
▁regardless	-5222
track	-5223
xsession	-5224
▁structure	-5225
available	-5226
-6	-5227
▁dies	-5228
▁browsers	-5229
▁plugging	-5230
▁writes	-5231
▁konqueror	-5232
▁speaking	-5233
▁surf	-5234
itical	-5235
▁implement	-5236
▁apo	-5237
▁preferred	-5238
gi	-5239
▁pac	-5240
▁bum	-5241
▁ax	-5242
-2.6.1	-5243
▁pendrive	-5244
▁libgtk	-5245
ender	-5246
▁gir	-5247
▁aswell	-5248
▁originally	-5249
ecrypt	-5250
▁dualboot	-5251
▁faq	-5252
qt	-5253
▁xen	-5254
▁rock	-5255
gen	-5256
▁sql	-5257
▁logon	-5258
61	-5259
windows	-5260
mas	-5261
▁aim	-5262
enable	-5263
▁songs	-5264
▁forwarded	-5265
▁differences	-5266
tion	-5267
▁ple	-5268
itech	-5269
▁sits	-5270
ipping	-5271
▁backing	-5272
▁effort	-5273
aff	-5274
oul	-5275
▁ssl	-5276
▁tex	-5277
sys	-5278
▁ele	-5279
activ	-5280
▁pot	-5281
access	-5282
▁pasting	-5283
▁photoshop	-5284
▁snap	-5285
partition	-5286
hda	-5287
▁runn	-5288
aching	-5289
oh	-5290
▁frequency	-5291
▁story	-5292
▁uhm	-5293
▁flags	-5294
▁achieve	-5295
▁needing	-5296
hhhh	-5297
ured	-5298
names	-5299
▁wins	-5300
▁squid	-5301
respond	-5302
▁scrolling	-5303
▁updatedb	-5304
▁prof	-5305
▁aig	-5306
▁perms	-5307
▁choosing	-5308
pod	-5309
menu	-5310
ulate	-5311
▁interpre	-5312
▁received	-5313
▁arguments	-5314
▁fw	-5315
▁dedicated	-5316
▁pwd	-5317
annel	-5318
▁99	-5319
▁trig	-5320
update	-5321
▁shoud	-5322
▁cancel	-5323
▁windoze	-5324
▁manufacturer	-5325
aha	-5326
▁xfs	-5327
selves	-5328
▁prompts	-5329
ockey	-5330
▁aint	-5331
▁mask	-5332
▁taht	-5333
oute	-5334
▁speeds	-5335
▁elabor	-5336
▁misunder	-5337
▁patience	-5338
rwxrwx	-5339
aste	-5340
▁global	-5341
75	-5342
▁hooked	-5343
48	-5344
cop	-5345
phigh	-5346
▁wizard	-5347
▁5.1	-5348
network	-5349
▁allready	-5350
▁priority	-5351
▁transparent	-5352
backports	-5353
▁goal	-5354
iphany	-5355
▁aiglx	-5356
inux	-5357
▁compaq	-5358
▁encountered	-5359
ackage	-5360
▁harder	-5361
▁functions	-5362
browser	-5363
▁cables	-5364
lon	-5365
▁minimum	-5366
▁heavy	-5367
▁enlight	-5368
▁correspond	-5369
ets	-5370
ails	-5371
▁wild	-5372
▁ubunut	-5373
▁creator	-5374
▁benef	-5375
▁unload	-5376
▁comfortable	-5377
▁sis	-5378
likely	-5379
5-2	-5380
somet	-5381
▁removes	-5382
▁activity	-5383
▁symbol	-5384
▁recom	-5385
▁disappeared	-5386
▁gdesk	-5387
▁myth	-5388
▁wheel	-5389
doc	-5390
▁provider	-5391
orer	-5392
▁comand	-5393
▁examples	-5394
▁archives	-5395
▁vt	-5396
ague	-5397
▁borked	-5398
ater	-5399
▁damage	-5400
acting	-5401
▁cc	-5402
pper	-5403
▁posts	-5404
▁business	-5405
▁themselves	-5406
▁opensource	-5407
joy	-5408
upd	-5409
clock	-5410
▁clues	-5411
▁ultim	-5412
▁imho	-5413
▁0.9	-5414
▁column	-5415
proxy	-5416
▁tasks	-5417
▁powerful	-5418
▁eye	-5419
▁mx	-5420
▁garb	-5421
▁everywhere	-5422
▁lm	-5423
▁2.5	-5424
▁82	-5425
mouth	-5426
▁lately	-5427
▁elaborate	-5428
▁replacement	-5429
▁2007	-5430
hq	-5431
ored	-5432
▁metap	-5433
▁gam	-5434
▁libgl	-5435
▁context	-5436
73	-5437
ercial	-5438
▁explicit	-5439
▁horrible	-5440
yy	-5441
---	-5442
▁colour	-5443
▁recreate	-5444
▁epiphany	-5445
▁libflash	-5446
▁ou	-5447
usty	-5448
vest	-5449
▁shad	-5450
▁faker	-5451
▁gur	-5452
▁pow	-5453
▁acro	-5454
device	-5455
▁composite	-5456
laptop	-5457
▁allowing	-5458
gui	-5459
▁vendor	-5460
▁irq	-5461
▁embed	-5462
▁libst	-5463
▁locales	-5464
▁individual	-5465
change	-5466
▁member	-5467
▁reconfig	-5468
spe	-5469
▁voice	-5470
tle	-5471
▁120	-5472
▁highly	-5473
▁jockey	-5474
lab	-5475
▁tt	-5476
src	-5477
▁openv	-5478
▁prev	-5479
▁journal	-5480
▁essential	-5481
▁tee	-5482
▁gzip	-5483
▁remind	-5484
▁pav	-5485
▁ply	-5486
▁lime	-5487
iric	-5488
▁layer	-5489
▁copies	-5490
▁german	-5491
▁pad	-5492
clean	-5493
▁gray	-5494
fr	-5495
44	-5496
▁iph	-5497
▁duo	-5498
▁ghost	-5499
▁involved	-5500
▁physically	-5501
ini	-5502
▁mobility	-5503
▁reliable	-5504
▁harm	-5505
apped	-5506
▁suggesting	-5507
stu	-5508
▁mc	-5509
▁gotcha	-5510
▁hosting	-5511
ises	-5512
▁160	-5513
▁prep	-5514
username	-5515
▁sequence	-5516
jar	-5517
▁logitech	-5518
▁greet	-5519
▁unsure	-5520
iga	-5521
bing	-5522
▁rates	-5523
▁preview	-5524
▁definition	-5525
▁adds	-5526
▁sched	-5527
▁levels	-5528
libs	-5529
▁invest	-5530
▁segfault	-5531
▁automag	-5532
▁lt	-5533
acious	-5534
fwcutter	-5535
apache	-5536
▁among	-5537
31	-5538
kin	-5539
▁offers	-5540
▁sensors	-5541
▁extras	-5542
▁described	-5543
▁rtl	-5544
▁mys	-5545
baker	-5546
▁detailed	-5547
▁noauto	-5548
▁successful	-5549
hd	-5550
atly	-5551
▁1.6	-5552
▁hte	-5553
▁grow	-5554
▁ignoring	-5555
▁advantage	-5556
▁tablet	-5557
mbr	-5558
alled	-5559
onsive	-5560
▁pointed	-5561
gear	-5562
▁estab	-5563
▁headset	-5564
▁calling	-5565
▁cdrecord	-5566
ued	-5567
▁false	-5568
poses	-5569
live	-5570
mark	-5571
roid	-5572
▁vino	-5573
▁breaking	-5574
▁methods	-5575
▁simpler	-5576
▁flashing	-5577
▁tha	-5578
▁van	-5579
▁brain	-5580
▁limewire	-5581
wine	-5582
▁athlon	-5583
▁evening	-5584
▁persistent	-5585
erama	-5586
▁oneiric	-5587
▁prompted	-5588
▁drops	-5589
▁aver	-5590
▁pppoe	-5591
_0	-5592
uing	-5593
▁pol	-5594
▁utc	-5595
paces	-5596
▁wl	-5597
▁wmv	-5598
▁netbe	-5599
▁pkill	-5600
▁statement	-5601
▁pam	-5602
▁attempted	-5603
asion	-5604
creen	-5605
▁quake	-5606
▁unlikely	-5607
▁dk	-5608
▁686	-5609
▁lappy	-5610
▁stud	-5611
rpm	-5612
▁pal	-5613
▁ubunto	-5614
▁1.3	-5615
▁country	-5616
acle	-5617
dated	-5618
▁sendmail	-5619
▁troll	-5620
▁explorer	-5621
▁purposes	-5622
▁nu	-5623
folder	-5624
▁xfree	-5625
▁libstdc	-5626
▁locking	-5627
▁approach	-5628
▁truecrypt	-5629
▁rf	-5630
▁fly	-5631
▁kidd	-5632
weight	-5633
▁75	-5634
▁alloc	-5635
▁writable	-5636
▁nos	-5637
authority	-5638
▁py	-5639
▁launching	-5640
vol	-5641
▁inserted	-5642
▁freed	-5643
▁applets	-5644
tool	-5645
▁sigh	-5646
▁repartition	-5647
23	-5648
lu	-5649
▁sell	-5650
▁child	-5651
▁fy	-5652
arant	-5653
cies	-5654
▁lights	-5655
▁amazing	-5656
▁displaying	-5657
▁hel	-5658
▁hints	-5659
▁presume	-5660
ifications	-5661
stick	-5662
▁bla	-5663
▁hass	-5664
▁badly	-5665
1200	-5666
▁dong	-5667
▁awhile	-5668
▁closes	-5669
▁winehq	-5670
▁audacious	-5671
enames	-5672
▁und	-5673
▁solid	-5674
ays	-5675
strap	-5676
▁forth	-5677
▁plymouth	-5678
▁enlighten	-5679
▁buddy	-5680
idently	-5681
band	-5682
pages	-5683
▁wake	-5684
▁sizes	-5685
ope	-5686
something	-5687
▁xinerama	-5688
▁recognizes	-5689
▁jobs	-5690
▁attach	-5691
▁steam	-5692
home	-5693
▁permitted	-5694
▁pip	-5695
▁rog	-5696
▁thin	-5697
▁encoding	-5698
▁netbeans	-5699
▁ibex	-5700
▁license	-5701
▁viruses	-5702
▁noapic	-5703
▁dvi	-5704
▁clamav	-5705
▁yay	-5706
▁2000	-5707
▁gdesklets	-5708
▁ek	-5709
▁openjdk	-5710
▁instances	-5711
▁requests	-5712
▁workspaces	-5713
▁experiencing	-5714
bot	-5715
acom	-5716
▁picked	-5717
▁matches	-5718
▁customize	-5719
▁gnomebaker	-5720
▁sum	-5721
arrow	-5722
▁ru	-5723
repos	-5724
▁obtain	-5725
▁maximum	-5726
▁constantly	-5727
▁ni	-5728
▁segmentation	-5729
▁body	-5730
▁xml	-5731
▁ldap	-5732
▁greyed	-5733
▁optical	-5734
ools	-5735
▁round	-5736
▁satis	-5737
▁enjoy	-5738
▁visit	-5739
amd	-5740
▁pxe	-5741
▁calc	-5742
veau	-5743
gp	-5744
▁tonight	-5745
▁completion	-5746
▁useradd	-5747
▁02	-5748
▁hmmmm	-5749
screensaver	-5750
▁technically	-5751
▁damaged	-5752
▁realy	-5753
▁superuser	-5754
▁nas	-5755
▁terrible	-5756
▁tracer	-5757
nch	-5758
resc	-5759
▁iphone	-5760
ius	-5761
▁untar	-5762
▁theory	-5763
▁spanish	-5764
▁configurations	-5765
ahi	-5766
▁wife	-5767
▁resolved	-5768
gm	-5769
ands	-5770
▁hom	-5771
▁centr	-5772
▁clarify	-5773
tun	-5774
spot	-5775
▁src	-5776
▁waht	-5777
▁dream	-5778
▁1600	-5779
▁sorts	-5780
▁konsole	-5781
▁flashplayer	-5782
▁cred	-5783
▁stri	-5784
▁xar	-5785
▁incoming	-5786
▁dim	-5787
books	-5788
▁adept	-5789
format	-5790
▁frost	-5791
▁passed	-5792
▁assistance	-5793
▁96	-5794
▁2008	-5795
istent	-5796
▁wrapper	-5797
▁shutting	-5798
▁commercial	-5799
▁fake	-5800
ensive	-5801
▁partitioner	-5802
▁noone	-5803
▁acting	-5804
▁chances	-5805
▁04	-5806
▁45	-5807
lies	-5808
osity	-5809
▁anyhow	-5810
▁outdated	-5811
▁reser	-5812
▁literally	-5813
shark	-5814
▁sams	-5815
▁compressed	-5816
odeset	-5817
4-1	-5818
▁cell	-5819
▁opposed	-5820
match	-5821
▁4096	-5822
▁blind	-5823
▁focus	-5824
▁warnings	-5825
qld	-5826
▁ow	-5827
▁teach	-5828
▁dropping	-5829
700	-5830
cript	-5831
▁prints	-5832
▁technical	-5833
▁essentially	-5834
▁nou	-5835
eless	-5836
▁retri	-5837
▁formated	-5838
▁realized	-5839
▁filenames	-5840
52	-5841
ighter	-5842
achable	-5843
▁restrict	-5844
▁nomodeset	-5845
▁subst	-5846
sens	-5847
▁abort	-5848
▁28	-5849
pens	-5850
▁centos	-5851
▁temper	-5852
▁stack	-5853
▁4.0	-5854
▁cairo	-5855
▁explanation	-5856
mach	-5857
▁establish	-5858
▁locations	-5859
uu	-5860
mer	-5861
▁bitch	-5862
▁mandri	-5863
iding	-5864
▁attack	-5865
▁sometime	-5866
nip	-5867
▁mi	-5868
▁darn	-5869
▁guarant	-5870
▁debugging	-5871
▁libapache	-5872
aaaa	-5873
▁hur	-5874
▁que	-5875
▁discussion	-5876
▁instruction	-5877
epc	-5878
lay	-5879
▁imap	-5880
▁creative	-5881
1050	-5882
▁suitable	-5883
▁ahve	-5884
▁aspire	-5885
▁bypass	-5886
▁latter	-5887
▁-1	-5888
▁bound	-5889
▁android	-5890
▁wireshark	-5891
cr	-5892
lessly	-5893
▁subversion	-5894
▁tightvnc	-5895
▁unavailable	-5896
serve	-5897
▁sadly	-5898
▁tables	-5899
▁authorized	-5900
rist	-5901
fglrx	-5902
▁popup	-5903
▁critical	-5904
▁unreachable	-5905
▁reporting	-5906
▁frustrating	-5907
▁180	-5908
▁ekiga	-5909
▁states	-5910
▁netgear	-5911
▁xb	-5912
▁aff	-5913
▁early	-5914
▁shock	-5915
hi	-5916
▁tuner	-5917
▁appeared	-5918
▁verified	-5919
leg	-5920
▁kidding	-5921
▁hung	-5922
ield	-5923
▁joke	-5924
iling	-5925
▁togg	-5926
▁buying	-5927
▁opensuse	-5928
▁belive	-5929
pars	-5930
▁smtp	-5931
▁youll	-5932
▁samsung	-5933
ners	-5934
spec	-5935
▁kinds	-5936
▁faulty	-5937
▁languages	-5938
▁sends	-5939
▁french	-5940
▁lid	-5941
▁hr	-5942
▁ouch	-5943
▁untill	-5944
prise	-5945
▁stated	-5946
▁mandriva	-5947
vt	-5948
exp	-5949
▁98	-5950
▁hardly	-5951
▁dy	-5952
▁ofc	-5953
▁ugh	-5954
▁addr	-5955
▁occasion	-5956
139	-5957
▁xargs	-5958
.32	-5959
▁ship	-5960
▁requirements	-5961
▁components	-5962
fish	-5963
eee	-5964
▁vps	-5965
▁bcmwl	-5966
ked	-5967
ario	-5968
▁ral	-5969
▁supply	-5970
▁openvpn	-5971
▁incomp	-5972
▁utilities	-5973
▁explained	-5974
2200	-5975
▁checkbox	-5976
▁reasonable	-5977
kon	-5978
▁fc	-5979
▁scaling	-5980
.-	-5981
▁kid	-5982
▁glibc	-5983
▁saves	-5984
▁ncurses	-5985
coder	-5986
uming	-5987
▁dongle	-5988
▁48	-5989
▁acts	-5990
▁produce	-5991
▁udp	-5992
▁succeed	-5993
boy	-5994
nec	-5995
modem	-5996
▁viewing	-5997
▁pae	-5998
▁backend	-5999
ada	-6000
1.2	-6001
▁aka	-6002
▁rtorrent	-6003
craft	-6004
▁medium	-6005
▁brought	-6006
▁answering	-6007
eth	-6008
▁gun	-6009
▁firewire	-6010
cat	-6011
does	-6012
▁dice	-6013
▁freenx	-6014
▁completed	-6015
▁metapackage	-6016
▁attempts	-6017
▁backtrack	-6018
▁conflicts	-6019
▁traceroute	-6020
np	-6021
▁avahi	-6022
▁actionpars	-6023
complete	-6024
lookup	-6025
▁mixed	-6026
▁trigger	-6027
▁unbuntu	-6028
ior	-6029
und	-6030
remove	-6031
iconfig	-6032
fb	-6033
▁ko	-6034
▁autost	-6035
▁basics	-6036
▁gtkpod	-6037
▁frostwire	-6038
▁aside	-6039
▁moves	-6040
▁dialup	-6041
backspace	-6042
▁mistaken	-6043
▁meg	-6044
▁whit	-6045
drives	-6046
▁requested	-6047
users	-6048
▁broadband	-6049
▁utorrent	-6050
▁ubut	-6051
▁quote	-6052
installing	-6053
▁neat	-6054
▁ju	-6055
▁cas	-6056
43-	-6057
▁headless	-6058
_-	-6059
bed	-6060
▁div	-6061
▁fyi	-6062
▁protected	-6063
gconf	-6064
▁trace	-6065
ptp	-6066
▁mandr	-6067
▁hassle	-6068
▁mysqld	-6069
text	-6070
unch	-6071
▁deps	-6072
▁drake	-6073
▁positive	-6074
agle	-6075
▁matching	-6076
▁recognise	-6077
▁drm	-6078
media	-6079
▁envi	-6080
▁protect	-6081
▁expecting	-6082
▁actionparsnip	-6083
bs	-6084
have	-6085
▁owns	-6086
▁applied	-6087
▁temperature	-6088
▁bye	-6089
ulous	-6090
bits	-6091
ption	-6092
▁tm	-6093
when	-6094
▁events	-6095
▁sysv	-6096
thanks	-6097
try	-6098
▁rer	-6099
▁uhh	-6100
▁connectivity	-6101
iw	-6102
▁sane	-6103
▁capital	-6104
▁smbclient	-6105
col	-6106
▁charm	-6107
▁portable	-6108
▁wherever	-6109
▁searches	-6110
dec	-6111
▁mirc	-6112
▁fa	-6113
freq	-6114
▁ich	-6115
▁sup	-6116
▁flannel	-6117
command	-6118
▁hibernation	-6119
▁yell	-6120
▁wacom	-6121
0000	-6122
power	-6123
forums	-6124
▁claims	-6125
▁adm	-6126
▁unmet	-6127
▁overhe	-6128
repository	-6129
ining	-6130
▁gusty	-6131
▁blender	-6132
▁mpd	-6133
ribly	-6134
▁rarely	-6135
▁vncviewer	-6136
case	-6137
▁unr	-6138
▁towards	-6139
▁mandrake	-6140
▁curl	-6141
▁parall	-6142
▁unused	-6143
▁autodetect	-6144
oom	-6145
▁fb	-6146
▁ris	-6147
▁desp	-6148
▁remains	-6149
dsk	-6150
night	-6151
▁nics	-6152
nn	-6153
round	-6154
▁fawn	-6155
▁technologies	-6156
mys	-6157
pas	-6158
▁mhz	-6159
▁guid	-6160
▁ralink	-6161
▁launched	-6162
hting	-6163
▁roger	-6164
▁headphone	-6165
▁lightweight	-6166
emes	-6167
▁rwx	-6168
▁alsac	-6169
▁03	-6170
▁kop	-6171
▁parse	-6172
▁mencoder	-6173
orge	-6174
this	-6175
monitor	-6176
▁swapon	-6177
▁nouveau	-6178
▁patient	-6179
▁8800	-6180
current	-6181
34	-6182
isco	-6183
▁mas	-6184
▁tune	-6185
▁installations	-6186
-3.4	-6187
ae	-6188
▁san	-6189
▁legal	-6190
rary	-6191
aging	-6192
rescue	-6193
lol	-6194
▁mismatch	-6195
76	-6196
▁junk	-6197
▁wides	-6198
▁eeepc	-6199
▁diagnose	-6200
▁ia	-6201
▁iv	-6202
▁hdc	-6203
▁curiosity	-6204
png	-6205
asty	-6206
▁ist	-6207
▁dict	-6208
▁vanilla	-6209
▁seam	-6210
▁tough	-6211
▁va	-6212
istant	-6213
▁2.3	-6214
volume	-6215
▁safer	-6216
▁sorta	-6217
▁horizont	-6218
▁redo	-6219
abilities	-6220
hn	-6221
dns	-6222
ley	-6223
rit	-6224
▁95	-6225
agick	-6226
errors	-6227
14	-6228
85	-6229
trash	-6230
▁fixmbr	-6231
▁placed	-6232
▁accelerated	-6233
rad	-6234
asure	-6235
▁xbmc	-6236
▁quad	-6237
▁average	-6238
▁devs	-6239
▁extend	-6240
▁autostart	-6241
ergy	-6242
▁nop	-6243
▁finger	-6244
configured	-6245
▁conversation	-6246
▁obsol	-6247
▁liked	-6248
▁tracker	-6249
▁unusable	-6250
aris	-6251
▁sarge	-6252
ervers	-6253
▁lighter	-6254
vim	-6255
▁paper	-6256
▁vague	-6257
updates	-6258
▁choppy	-6259
▁homepage	-6260
▁executables	-6261
▁udf	-6262
▁2009	-6263
▁kopete	-6264
reg	-6265
▁combo	-6266
▁vertical	-6267
onym	-6268
▁tests	-6269
▁additions	-6270
▁1680	-6271
▁referred	-6272
▁por	-6273
action	-6274
▁duplicate	-6275
▁ghz	-6276
▁minor	-6277
▁unexp	-6278
▁widget	-6279
▁production	-6280
igy	-6281
▁agre	-6282
orders	-6283
▁amixer	-6284
irus	-6285
▁sth	-6286
▁piss	-6287
ew	-6288
veas	-6289
▁okey	-6290
▁subject	-6291
vc	-6292
▁9600	-6293
▁54	-6294
part	-6295
▁keyword	-6296
▁relatively	-6297
2-1	-6298
▁bah	-6299
▁pointers	-6300
cii	-6301
▁rob	-6302
graph	-6303
initrc	-6304
▁carefully	-6305
▁ubuntuforums	-6306
▁posting	-6307
▁frag	-6308
▁discs	-6309
▁illeg	-6310
▁modern	-6311
▁retry	-6312
built	-6313
▁blog	-6314
▁orange	-6315
78	-6316
▁unrec	-6317
▁printed	-6318
▁unplugged	-6319
5.	-6320
vdial	-6321
▁edubuntu	-6322
▁disappear	-6323
willis	-6324
▁dirty	-6325
▁overwritten	-6326
inc	-6327
may	-6328
▁644	-6329
▁pas	-6330
▁incompat	-6331
iate	-6332
▁clip	-6333
▁oracle	-6334
▁ought	-6335
▁tnx	-6336
▁sorted	-6337
▁whichever	-6338
▁nero	-6339
priv	-6340
▁daem	-6341
▁secs	-6342
▁merge	-6343
▁bed	-6344
▁chkdsk	-6345
▁stands	-6346
▁sticks	-6347
▁tcpdump	-6348
▁absolute	-6349
▁upstream	-6350
▁particularly	-6351
wo	-6352
▁tur	-6353
▁wil	-6354
▁serve	-6355
▁stump	-6356
eding	-6357
blah	-6358
▁wvdial	-6359
masq	-6360
▁mpg	-6361
▁override	-6362
▁aticonfig	-6363
▁noth	-6364
▁investig	-6365
▁automagically	-6366
▁bare	-6367
▁eyes	-6368
▁fingers	-6369
▁txt	-6370
▁evil	-6371
▁blame	-6372
▁puppy	-6373
▁vmlin	-6374
▁swf	-6375
▁accidently	-6376
71	-6377
▁915	-6378
▁null	-6379
oth	-6380
▁kd	-6381
some	-6382
▁qtp	-6383
▁reph	-6384
▁emails	-6385
▁stability	-6386
26	-6387
▁ops	-6388
▁paid	-6389
▁occurs	-6390
▁checksum	-6391
▁smbpasswd	-6392
dl	-6393
▁touched	-6394
▁accessed	-6395
▁embedded	-6396
essentials	-6397
▁gpl	-6398
▁hund	-6399
▁borders	-6400
▁mapping	-6401
▁explicitly	-6402
▁resort	-6403
▁recursive	-6404
ugg	-6405
rack	-6406
▁stre	-6407
▁deactiv	-6408
▁unusual	-6409
▁fli	-6410
▁zone	-6411
▁ctl	-6412
ril	-6413
▁320	-6414
aught	-6415
▁unexpected	-6416
hoc	-6417
uase	-6418
▁audigy	-6419
▁runing	-6420
▁partner	-6421
▁rythmbox	-6422
gers	-6423
▁3.4	-6424
asound	-6425
▁likes	-6426
▁rever	-6427
▁substit	-6428
▁recursively	-6429
▁wiped	-6430
▁integrity	-6431
▁partimage	-6432
▁disappears	-6433
fa	-6434
▁counter	-6435
▁switcher	-6436
▁wav	-6437
▁vmlinuz	-6438
▁intended	-6439
▁repeating	-6440
▁dependancies	-6441
pms	-6442
wave	-6443
▁pptp	-6444
▁deboot	-6445
21	-6446
▁cri	-6447
▁hands	-6448
▁decrypt	-6449
▁beginner	-6450
sm	-6451
there	-6452
▁vice	-6453
▁lp	-6454
▁flex	-6455
▁runtime	-6456
dr	-6457
▁cisco	-6458
▁snapshot	-6459
ety	-6460
ampp	-6461
▁dang	-6462
▁supposedly	-6463
▁driving	-6464
▁renamed	-6465
▁3.2	-6466
▁qtparted	-6467
▁bz	-6468
usted	-6469
▁nuts	-6470
▁xvid	-6471
▁equal	-6472
▁despite	-6473
▁2010	-6474
-686	-6475
dock	-6476
▁nslookup	-6477
▁lirc	-6478
▁shuts	-6479
▁becuase	-6480
▁hundred	-6481
▁favorite	-6482
▁nowhere	-6483
wn	-6484
icious	-6485
▁cond	-6486
▁nasty	-6487
▁five	-6488
▁12.04	-6489
▁nforce	-6490
▁preferably	-6491
▁rewrite	-6492
▁recorder	-6493
▁pd	-6494
▁----	-6495
▁asound	-6496
▁garbage	-6497
cap	-6498
▁iwl	-6499
▁tomc	-6500
▁biggest	-6501
ti	-6502
1-1	-6503
▁ri	-6504
▁halt	-6505
▁regist	-6506
▁alsaconf	-6507
ctor	-6508
▁grant	-6509
3945	-6510
▁bob	-6511
▁hdds	-6512
▁spit	-6513
▁dhcpd	-6514
▁powers	-6515
▁xs	-6516
ellite	-6517
▁organ	-6518
▁highest	-6519
def	-6520
osen	-6521
▁bookmark	-6522
▁converting	-6523
▁square	-6524
▁toolbar	-6525
▁compression	-6526
ui	-6527
▁56	-6528
▁imp	-6529
endar	-6530
▁photo	-6531
related	-6532
▁lookup	-6533
▁partial	-6534
etd	-6535
▁150	-6536
▁isos	-6537
standard	-6538
▁tasksel	-6539
▁widescreen	-6540
▁tomcat	-6541
▁imagem	-6542
▁reccom	-6543
▁yum	-6544
▁factoid	-6545
ects	-6546
▁tht	-6547
▁rerun	-6548
▁pattern	-6549
▁timed	-6550
▁remaining	-6551
▁cpufreq	-6552
▁independ	-6553
▁sensitive	-6554
▁dan	-6555
▁pata	-6556
▁decod	-6557
▁1.9	-6558
devel	-6559
▁infr	-6560
▁libqt	-6561
▁insmod	-6562
▁scheme	-6563
▁seveas	-6564
▁signific	-6565
▁ultimate	-6566
▁filezilla	-6567
▁ten	-6568
▁reduce	-6569
▁dad	-6570
▁thous	-6571
pensive	-6572
▁dealing	-6573
▁indicate	-6574
▁packaging	-6575
▁33	-6576
▁neg	-6577
▁deny	-6578
▁math	-6579
▁blacklisted	-6580
▁recon	-6581
▁usefull	-6582
uth	-6583
edir	-6584
imal	-6585
▁rotate	-6586
arded	-6587
mysql	-6588
▁latex	-6589
▁belongs	-6590
9-	-6591
firefox	-6592
▁mentions	-6593
ala	-6594
uted	-6595
▁stall	-6596
▁26	-6597
▁dc	-6598
▁accur	-6599
▁illegal	-6600
▁syncing	-6601
▁figuring	-6602
nl	-6603
legacy	-6604
▁intro	-6605
▁inserting	-6606
0.8	-6607
iqu	-6608
▁vb	-6609
▁768	-6610
▁der	-6611
▁hog	-6612
▁divx	-6613
▁thun	-6614
▁repro	-6615
▁logins	-6616
▁ipconfig	-6617
pdf	-6618
▁46	-6619
▁emulation	-6620
▁university	-6621
▁desired	-6622
ending	-6623
▁offic	-6624
▁prism	-6625
▁satisf	-6626
▁definately	-6627
▁drwxr	-6628
display	-6629
▁actions	-6630
86.	-6631
▁emer	-6632
▁beaut	-6633
▁reject	-6634
brid	-6635
▁sta	-6636
▁liveusb	-6637
▁installable	-6638
rate	-6639
▁conflicting	-6640
ched	-6641
▁sdl	-6642
▁1440	-6643
▁eating	-6644
▁mailing	-6645
▁forgotten	-6646
resol	-6647
▁processors	-6648
▁leaves	-6649
▁stores	-6650
▁rephrase	-6651
gh	-6652
eed	-6653
▁sections	-6654
▁horizontal	-6655
▁sen	-6656
▁colle	-6657
▁sufficient	-6658
tt	-6659
cre	-6660
▁codes	-6661
▁saver	-6662
▁ubuntus	-6663
▁cores	-6664
▁rough	-6665
▁barely	-6666
▁38	-6667
0.10-	-6668
sensors	-6669
▁powered	-6670
▁deep	-6671
▁summ	-6672
▁daemons	-6673
copy	-6674
▁sli	-6675
▁wir	-6676
▁lightdm	-6677
▁stumped	-6678
sk	-6679
▁fans	-6680
▁-_-	-6681
▁mtab	-6682
▁filled	-6683
▁downgrad	-6684
▁initially	-6685
▁api	-6686
alyst	-6687
▁flat	-6688
▁impression	-6689
gth	-6690
▁exchange	-6691
xgl	-6692
▁leno	-6693
▁desper	-6694
▁00.0	-6695
▁facing	-6696
▁ect	-6697
▁2006	-6698
▁gftp	-6699
▁feels	-6700
▁-.-	-6701
▁suff	-6702
▁pings	-6703
mplayer	-6704
▁review	-6705
specific	-6706
▁modifying	-6707
▁xm	-6708
ered	-6709
forge	-6710
▁experimental	-6711
▁chars	-6712
▁couldn	-6713
▁winamp	-6714
▁intall	-6715
▁envirom	-6716
▁forcing	-6717
▁screenshots	-6718
▁purple	-6719
ferences	-6720
▁debootstrap	-6721
▁interrupted	-6722
upp	-6723
▁doh	-6724
▁blow	-6725
▁5900	-6726
▁cook	-6727
entials	-6728
▁notify	-6729
▁satellite	-6730
▁beside	-6731
▁centre	-6732
▁son	-6733
▁references	-6734
fu	-6735
▁brown	-6736
▁cached	-6737
▁concept	-6738
▁whereas	-6739
rix	-6740
theme	-6741
▁practice	-6742
▁resolving	-6743
▁oem	-6744
▁inetd	-6745
speak	-6746
studio	-6747
▁skill	-6748
▁pak	-6749
▁zen	-6750
▁dj	-6751
erly	-6752
▁tryin	-6753
▁fastest	-6754
▁handled	-6755
▁nickname	-6756
92	-6757
zf	-6758
▁dkms	-6759
search	-6760
▁burnt	-6761
▁paying	-6762
72	-6763
plus	-6764
▁corruption	-6765
▁chips	-6766
▁maximize	-6767
ags	-6768
▁held	-6769
▁catalyst	-6770
▁problematic	-6771
hosts	-6772
▁rely	-6773
▁quicker	-6774
izer	-6775
▁2.8	-6776
▁ubu	-6777
▁annoy	-6778
▁affected	-6779
▁fuser	-6780
▁extracting	-6781
▁recognised	-6782
▁supporting	-6783
aches	-6784
▁scen	-6785
▁expensive	-6786
▁dying	-6787
▁oppos	-6788
ooo	-6789
alth	-6790
▁ord	-6791
eting	-6792
▁pair	-6793
▁rege	-6794
▁flush	-6795
▁eat	-6796
▁ttys	-6797
▁slash	-6798
▁coding	-6799
▁wit	-6800
▁ignor	-6801
▁lenovo	-6802
▁nameservers	-6803
val	-6804
▁tx	-6805
▁pit	-6806
▁swat	-6807
▁anytime	-6808
▁picking	-6809
▁urls	-6810
going	-6811
▁acess	-6812
▁april	-6813
sound	-6814
▁natively	-6815
▁signature	-6816
zer	-6817
▁doen	-6818
▁exim	-6819
drop	-6820
▁fool	-6821
▁writer	-6822
give	-6823
econf	-6824
▁incon	-6825
▁detection	-6826
ists	-6827
▁cry	-6828
ading	-6829
▁fell	-6830
▁ikon	-6831
▁befor	-6832
▁million	-6833
ya	-6834
astic	-6835
▁conso	-6836
▁belkin	-6837
▁useing	-6838
▁playlist	-6839
nat	-6840
clude	-6841
bat	-6842
rele	-6843
▁impl	-6844
▁elect	-6845
▁ibook	-6846
▁rdesktop	-6847
▁retrieve	-6848
ao	-6849
ications	-6850
▁oses	-6851
▁boost	-6852
▁standby	-6853
▁reconfiguring	-6854
fm	-6855
alone	-6856
▁bell	-6857
▁closer	-6858
▁glitch	-6859
▁guru	-6860
▁pause	-6861
▁conven	-6862
▁intell	-6863
▁corresponding	-6864
▁rdp	-6865
▁editors	-6866
▁gpt	-6867
iname	-6868
▁hits	-6869
▁portion	-6870
att	-6871
imin	-6872
▁pulled	-6873
▁instalation	-6874
▁jrib	-6875
friend	-6876
▁enlightenment	-6877
▁javas	-6878
▁sympt	-6879
▁pulling	-6880
epad	-6881
▁0000	-6882
▁ummm	-6883
▁cycle	-6884
arte	-6885
▁component	-6886
tin	-6887
▁whatso	-6888
▁acroread	-6889
▁spinning	-6890
▁je	-6891
acpi	-6892
▁benefit	-6893
▁fglrxinfo	-6894
▁authenticate	-6895
▁mech	-6896
itions	-6897
▁ascii	-6898
▁thunar	-6899
▁renaming	-6900
▁initialize	-6901
▁distributions	-6902
▁3.1	-6903
▁calendar	-6904
▁smoothly	-6905
▁surround	-6906
mad	-6907
▁tcl	-6908
▁tri	-6909
secure	-6910
kde	-6911
▁recomend	-6912
▁firewalls	-6913
▁functional	-6914
▁technology	-6915
▁misunderstood	-6916
-9	-6917
▁shadow	-6918
hcd	-6919
stop	-6920
oooooooo	-6921
▁converted	-6922
▁shockwave	-6923
ait	-6924
ncy	-6925
▁jum	-6926
▁ecrypt	-6927
▁roaming	-6928
ban	-6929
▁exa	-6930
▁dose	-6931
▁scale	-6932
directories	-6933
▁27	-6934
▁flav	-6935
▁hole	-6936
xinitrc	-6937
▁specifying	-6938
▁imagemagick	-6939
▁whatsoever	-6940
inese	-6941
▁argh	-6942
▁submit	-6943
▁discovered	-6944
▁rig	-6945
▁midi	-6946
▁ikonia	-6947
▁openssl	-6948
▁finishes	-6949
abit	-6950
reme	-6951
▁shout	-6952
▁symptom	-6953
▁facebook	-6954
35	-6955
▁socks	-6956
▁recognizing	-6957
▁wikip	-6958
▁mixing	-6959
▁chrooted	-6960
▁universal	-6961
▁videocard	-6962
▁anyth	-6963
▁compar	-6964
▁capabilities	-6965
▁virtualization	-6966
ppp	-6967
-2.0	-6968
▁repeated	-6969
▁dcc	-6970
themes	-6971
▁scared	-6972
resolution	-6973
▁indicates	-6974
-20	-6975
▁winec	-6976
▁warcraft	-6977
▁pointless	-6978
modmap	-6979
▁hosed	-6980
▁nicer	-6981
▁feedback	-6982
▁35	-6983
▁900	-6984
▁css	-6985
▁backwards	-6986
▁29	-6987
▁ultr	-6988
▁alive	-6989
▁haven	-6990
▁addons	-6991
▁postgre	-6992
▁officially	-6993
uff	-6994
▁avid	-6995
▁vaio	-6996
▁popped	-6997
▁baz	-6998
▁meh	-6999
▁antiv	-7000
▁americ	-7001
▁typical	-7002
▁ktorrent	-7003
cj	-7004
xvf	-7005
▁sni	-7006
▁chosen	-7007
▁sick	-7008
depend	-7009
compiled	-7010
▁opposite	-7011
▁-'	-7012
▁toggle	-7013
▁credentials	-7014
which	-7015
▁chipsets	-7016
▁cold	-7017
▁celer	-7018
▁strip	-7019
▁shoudl	-7020
▁automaticly	-7021
ai	-7022
▁admit	-7023
▁chinese	-7024
1.5	-7025
▁guided	-7026
▁consoles	-7027
▁img	-7028
▁ridic	-7029
▁solaris	-7030
▁harddrives	-7031
▁funky	-7032
▁purch	-7033
▁uuids	-7034
▁unrecogn	-7035
▁exception	-7036
dn	-7037
▁ooh	-7038
cdrom	-7039
▁refuse	-7040
▁diffrent	-7041
▁translate	-7042
mic	-7043
▁beat	-7044
▁dear	-7045
▁avant	-7046
▁handling	-7047
selections	-7048
▁highlighted	-7049
▁fd	-7050
▁xev	-7051
▁ball	-7052
▁chatting	-7053
▁restored	-7054
▁identifier	-7055
aver	-7056
wide	-7057
▁ups	-7058
▁clon	-7059
▁triv	-7060
loaded	-7061
▁projects	-7062
▁bc	-7063
ardon	-7064
ishing	-7065
▁aster	-7066
▁resized	-7067
▁enviroment	-7068
▁explaining	-7069
▁allocate	-7070
▁resulting	-7071
42	-7072
▁tux	-7073
▁zoom	-7074
▁2.6.20	-7075
official	-7076
▁applies	-7077
initramfs	-7078
▁protection	-7079
▁unmounting	-7080
▁il	-7081
▁ddr	-7082
▁duh	-7083
▁kills	-7084
▁manualy	-7085
▁patched	-7086
▁clonezilla	-7087
ndns	-7088
tree	-7089
▁whereis	-7090
▁collection	-7091
▁macs	-7092
▁notepad	-7093
▁precisely	-7094
▁identified	-7095
150	-7096
ami	-7097
war	-7098
▁xx	-7099
augh	-7100
▁converter	-7101
▁sv	-7102
▁1.8	-7103
▁egg	-7104
▁percent	-7105
▁greetings	-7106
▁frustrated	-7107
▁0.1	-7108
blocks	-7109
▁variant	-7110
▁filtering	-7111
iver	-7112
▁bon	-7113
▁managing	-7114
▁cyl	-7115
▁lease	-7116
▁beagle	-7117
maybe	-7118
▁profiles	-7119
▁preinstalled	-7120
bak	-7121
▁sentence	-7122
mmm	-7123
▁anonym	-7124
▁automated	-7125
prot	-7126
▁clust	-7127
rief	-7128
▁alac	-7129
▁hacking	-7130
aking	-7131
▁thankyou	-7132
hang	-7133
▁bench	-7134
▁hahaha	-7135
▁doom	-7136
▁libflashplayer	-7137
8-1	-7138
anch	-7139
▁5.0	-7140
▁urg	-7141
delete	-7142
▁manip	-7143
▁compilation	-7144
ref	-7145
tos	-7146
▁36	-7147
▁173	-7148
▁jus	-7149
▁gpart	-7150
▁presum	-7151
▁spelling	-7152
bus	-7153
tit	-7154
▁tap	-7155
▁cpus	-7156
▁celeron	-7157
▁alert	-7158
▁whatnot	-7159
▁jap	-7160
▁sample	-7161
▁javascript	-7162
hr	-7163
▁gk	-7164
▁dyndns	-7165
security	-7166
▁hes	-7167
▁threads	-7168
une	-7169
vis	-7170
star	-7171
ismet	-7172
▁2.6.17	-7173
password	-7174
▁labeled	-7175
▁hz	-7176
▁kate	-7177
▁price	-7178
36	-7179
86-	-7180
▁eu	-7181
0.8-	-7182
▁bull	-7183
▁demo	-7184
▁batch	-7185
uous	-7186
▁icewm	-7187
▁ofcourse	-7188
▁restoring	-7189
.00	-7190
▁hacked	-7191
▁plugdev	-7192
▁readonly	-7193
burn	-7194
▁abi	-7195
▁fucked	-7196
▁succes	-7197
▁transpare	-7198
▁pardon	-7199
▁55	-7200
▁versa	-7201
folders	-7202
▁homedir	-7203
▁efficient	-7204
▁teamspeak	-7205
ado	-7206
▁swed	-7207
▁charge	-7208
ateg	-7209
mess	-7210
ational	-7211
▁college	-7212
▁offered	-7213
▁disag	-7214
▁nosuid	-7215
▁rfkill	-7216
▁lil	-7217
▁gcon	-7218
▁hehehe	-7219
▁bog	-7220
▁buntu	-7221
▁resetting	-7222
▁profession	-7223
xxxx	-7224
▁las	-7225
▁666	-7226
▁itll	-7227
▁border	-7228
▁concern	-7229
med	-7230
▁tou	-7231
▁trough	-7232
▁occured	-7233
▁postgresql	-7234
num	-7235
emux	-7236
ighb	-7237
class	-7238
▁6600	-7239
▁asse	-7240
▁fidd	-7241
▁intr	-7242
▁evince	-7243
▁netboot	-7244
▁1920	-7245
▁anti	-7246
▁unnec	-7247
▁banned	-7248
▁slider	-7249
▁uk	-7250
rier	-7251
▁massive	-7252
▁shouldn	-7253
▁wikipedia	-7254
ola	-7255
ray	-7256
▁png	-7257
▁elimin	-7258
▁wondered	-7259
▁4.1	-7260
▁aye	-7261
▁megs	-7262
▁msdos	-7263
▁emulate	-7264
32-	-7265
osh	-7266
▁kaff	-7267
▁phil	-7268
▁length	-7269
▁tweaking	-7270
▁monitoring	-7271
ems	-7272
isofs	-7273
▁amule	-7274
▁logic	-7275
▁swear	-7276
▁xampp	-7277
▁analy	-7278
▁templ	-7279
▁alacarte	-7280
▁completly	-7281
▁sais	-7282
▁tends	-7283
preferences	-7284
▁talks	-7285
▁purged	-7286
▁antivirus	-7287
▁confirmed	-7288
▁07	-7289
bang	-7290
perl	-7291
▁rocks	-7292
▁throws	-7293
eter	-7294
want	-7295
▁addon	-7296
▁gigabit	-7297
▁accurate	-7298
▁songbird	-7299
▁recommendation	-7300
▁aa	-7301
2500	-7302
▁builds	-7303
▁kismet	-7304
bound	-7305
▁laggy	-7306
▁trial	-7307
▁depmod	-7308
▁intend	-7309
▁compositing	-7310
▁automounting	-7311
-7	-7312
hup	-7313
▁spread	-7314
▁icmp	-7315
▁cylind	-7316
▁easyubuntu	-7317
▁programmer	-7318
▁autocomplete	-7319
▁la	-7320
▁ecryptfs	-7321
why	-7322
▁cyg	-7323
▁erased	-7324
▁greatly	-7325
▁945	-7326
▁mechan	-7327
▁flawlessly	-7328
uration	-7329
2.0-	-7330
your	-7331
▁cin	-7332
forwarding	-7333
▁providing	-7334
ahah	-7335
▁unique	-7336
▁arm	-7337
sorry	-7338
▁passing	-7339
▁parallel	-7340
▁retarded	-7341
stro	-7342
aunch	-7343
disks	-7344
ftool	-7345
▁japan	-7346
▁ending	-7347
▁frequently	-7348
▁uncommented	-7349
82	-7350
801	-7351
inary	-7352
▁gdeb	-7353
▁tags	-7354
▁timing	-7355
▁dragging	-7356
▁havn	-7357
should	-7358
▁pppoeconf	-7359
▁soo	-7360
▁stdout	-7361
▁dropdown	-7362
▁selector	-7363
xml	-7364
▁biz	-7365
▁pmount	-7366
▁instant	-7367
▁wc	-7368
1000	-7369
ango	-7370
bars	-7371
▁books	-7372
▁uptime	-7373
▁53	-7374
face	-7375
room	-7376
▁holy	-7377
clicking	-7378
▁avidemux	-7379
▁throwing	-7380
▁functioning	-7381
zone	-7382
▁lies	-7383
▁repres	-7384
▁tracks	-7385
▁diction	-7386
▁reflect	-7387
▁winecfg	-7388
nu	-7389
isions	-7390
▁gather	-7391
▁strang	-7392
▁proposed	-7393
▁85	-7394
eper	-7395
▁ohhh	-7396
▁tvtime	-7397
▁connector	-7398
ws	-7399
need	-7400
▁afk	-7401
▁synch	-7402
▁clicks	-7403
▁dnsmasq	-7404
▁gconftool	-7405
94	-7406
rrrr	-7407
vi	-7408
loy	-7409
▁mil	-7410
▁flac	-7411
▁loud	-7412
▁weak	-7413
▁explo	-7414
▁migrate	-7415
▁trivial	-7416
tgz	-7417
rell	-7418
▁2005	-7419
▁2.6.10	-7420
▁2.6.32	-7421
▁refers	-7422
▁respons	-7423
progs	-7424
▁behave	-7425
▁libglib	-7426
965	-7427
eber	-7428
▁fear	-7429
module	-7430
▁scary	-7431
▁christ	-7432
▁spy	-7433
▁tbh	-7434
▁quicktime	-7435
▁beha	-7436
▁jord	-7437
▁pico	-7438
▁zomb	-7439
▁unchecked	-7440
2.4	-7441
▁vp	-7442
agent	-7443
▁became	-7444
▁hyper	-7445
▁instaled	-7446
▁documented	-7447
▁nod	-7448
▁bear	-7449
▁comb	-7450
▁tink	-7451
111	-7452
▁05	-7453
▁aah	-7454
▁wht	-7455
▁categ	-7456
▁gdebi	-7457
▁witch	-7458
▁dmraid	-7459
▁produces	-7460
▁reserved	-7461
▁bud	-7462
▁gib	-7463
▁cygwin	-7464
▁fakeroot	-7465
▁launches	-7466
▁uncompress	-7467
▁rx	-7468
▁rat	-7469
▁administrative	-7470
job	-7471
▁lex	-7472
▁2003	-7473
▁setuid	-7474
▁strict	-7475
▁streams	-7476
▁incorrectly	-7477
123	-7478
▁gibb	-7479
▁intact	-7480
utter	-7481
▁nodev	-7482
▁winscp	-7483
ped	-7484
step	-7485
▁modems	-7486
▁records	-7487
codec	-7488
▁libp	-7489
▁operations	-7490
cot	-7491
eted	-7492
▁screwing	-7493
size	-7494
▁est	-7495
▁til	-7496
▁unf	-7497
▁poke	-7498
▁basis	-7499
▁timest	-7500
▁flashes	-7501
▁replies	-7502
rq	-7503
elt	-7504
▁lap	-7505
▁favour	-7506
▁smbmount	-7507
-15	-7508
onkey	-7509
▁8600	-7510
▁lives	-7511
▁receiving	-7512
▁interactive	-7513
za	-7514
pub	-7515
▁beg	-7516
▁isol	-7517
▁pars	-7518
▁accel	-7519
▁dummy	-7520
▁branch	-7521
▁confusion	-7522
▁regularly	-7523
▁transparency	-7524
▁recommendations	-7525
ament	-7526
button	-7527
prefix	-7528
▁dumped	-7529
▁softwares	-7530
▁advantages	-7531
ja	-7532
▁mutt	-7533
▁presumably	-7534
2.6	-7535
ene	-7536
▁yw	-7537
debs	-7538
ifies	-7539
▁carry	-7540
▁bitchx	-7541
▁sourceforge	-7542
wav	-7543
andy	-7544
hide	-7545
▁077	-7546
enced	-7547
▁mere	-7548
▁streng	-7549
▁overwriting	-7550
blows	-7551
▁john	-7552
essary	-7553
▁schedul	-7554
sf	-7555
▁34	-7556
▁8080	-7557
▁bele	-7558
▁truth	-7559
enabled	-7560
▁2'	-7561
▁3.6	-7562
▁arp	-7563
▁kicks	-7564
▁actualy	-7565
▁creation	-7566
▁workin	-7567
friendly	-7568
▁standalone	-7569
▁ttf	-7570
anyone	-7571
▁girlf	-7572
▁unresp	-7573
▁station	-7574
▁bothered	-7575
211	-7576
gry	-7577
▁hpl	-7578
▁dots	-7579
▁drwx	-7580
▁gvfs	-7581
▁holds	-7582
▁regener	-7583
▁subdirectories	-7584
ldr	-7585
▁gs	-7586
gigs	-7587
sequ	-7588
▁rsa	-7589
▁occasionally	-7590
▁imac	-7591
▁hasnt	-7592
▁bleeding	-7593
lts	-7594
ses	-7595
▁measure	-7596
▁strongly	-7597
▁swapping	-7598
915	-7599
fail	-7600
▁apm	-7601
▁dvb	-7602
detect	-7603
encies	-7604
▁tmpfs	-7605
▁incase	-7606
▁neighb	-7607
▁adapters	-7608
bug	-7609
▁mapped	-7610
▁weather	-7611
▁rare	-7612
▁purging	-7613
effect	-7614
▁simult	-7615
▁ce	-7616
ella	-7617
▁apl	-7618
depth	-7619
etion	-7620
▁deprec	-7621
▁powerpc	-7622
▁seek	-7623
▁boy	-7624
▁diss	-7625
▁narrow	-7626
▁prepare	-7627
▁girlfriend	-7628
▁2.7	-7629
elled	-7630
▁marks	-7631
▁frames	-7632
▁syslinux	-7633
ris	-7634
sense	-7635
▁kicked	-7636
▁xmodmap	-7637
▁implementation	-7638
4'	-7639
etc	-7640
ctrl	-7641
grep	-7642
pted	-7643
allow	-7644
▁redownload	-7645
eman	-7646
▁cup	-7647
ibber	-7648
icaly	-7649
▁cord	-7650
▁fish	-7651
▁demand	-7652
istration	-7653
▁highlighting	-7654
elog	-7655
make	-7656
ubar	-7657
▁gma	-7658
▁lit	-7659
encrypt	-7660
▁jordan	-7661
▁fork	-7662
▁terr	-7663
▁numer	-7664
▁mythbuntu	-7665
▁promising	-7666
▁1.	-7667
▁kern	-7668
▁dlink	-7669
▁filed	-7670
▁calcul	-7671
▁thumbn	-7672
▁separately	-7673
▁unofficial	-7674
serv	-7675
▁reccomend	-7676
installation	-7677
▁responsible	-7678
hy	-7679
jet	-7680
▁mes	-7681
▁partions	-7682
▁continues	-7683
from	-7684
▁anj	-7685
▁ehci	-7686
▁doens	-7687
▁writeable	-7688
mt	-7689
bee	-7690
utf	-7691
▁alto	-7692
▁decre	-7693
.14	-7694
enet	-7695
▁land	-7696
▁quits	-7697
▁agreed	-7698
▁persists	-7699
lt	-7700
▁8139	-7701
▁airc	-7702
▁semi	-7703
▁xinetd	-7704
▁obsolete	-7705
flashplugin	-7706
▁ease	-7707
▁apolog	-7708
▁modeline	-7709
▁instantly	-7710
▁responses	-7711
-11	-7712
vell	-7713
▁177	-7714
gling	-7715
▁messy	-7716
▁extreme	-7717
3.	-7718
dat	-7719
guide	-7720
▁heat	-7721
▁koala	-7722
program	-7723
▁limits	-7724
▁audi	-7725
▁somone	-7726
▁misread	-7727
▁freaking	-7728
▁intensive	-7729
vfat	-7730
▁inks	-7731
▁jail	-7732
▁badger	-7733
▁flight	-7734
▁forgive	-7735
▁pastbin	-7736
▁asterisk	-7737
▁apologies	-7738
▁din	-7739
▁gdb	-7740
▁erus	-7741
▁iced	-7742
▁kaffe	-7743
▁alongside	-7744
syn	-7745
▁wd	-7746
▁dmz	-7747
▁jpeg	-7748
▁regex	-7749
▁compan	-7750
▁probly	-7751
▁soem	-7752
creator	-7753
▁outgoing	-7754
▁preserve	-7755
▁autoclean	-7756
▁ose	-7757
drivers	-7758
assistant	-7759
▁runlevels	-7760
▁overheating	-7761
fx	-7762
▁44	-7763
▁jar	-7764
▁insane	-7765
▁subtit	-7766
▁beautif	-7767
▁dropbox	-7768
▁ordinary	-7769
asp	-7770
▁od	-7771
▁vul	-7772
erate	-7773
▁exits	-7774
▁libre	-7775
▁erusul	-7776
▁shipped	-7777
ald	-7778
▁mr	-7779
▁hds	-7780
▁tro	-7781
▁yer	-7782
▁inch	-7783
▁smartctl	-7784
▁unresponsive	-7785
bc	-7786
tw	-7787
uta	-7788
▁42	-7789
▁na	-7790
lame	-7791
▁dod	-7792
▁lying	-7793
▁bridged	-7794
▁xsession	-7795
51	-7796
ashfs	-7797
▁cleared	-7798
acc	-7799
ott	-7800
-3.0	-7801
▁forb	-7802
▁death	-7803
▁compiles	-7804
▁simplest	-7805
▁sab	-7806
▁logfile	-7807
▁ntpdate	-7808
▁altogether	-7809
mont	-7810
▁geek	-7811
▁gnom	-7812
▁kino	-7813
▁advised	-7814
lar	-7815
met	-7816
▁nd	-7817
▁eft	-7818
▁puzz	-7819
weaver	-7820
▁joined	-7821
▁sticky	-7822
lph	-7823
▁sake	-7824
▁risky	-7825
▁normaly	-7826
▁gz	-7827
▁lie	-7828
abyte	-7829
share	-7830
▁whose	-7831
wrt	-7832
▁alc	-7833
▁living	-7834
▁realise	-7835
▁remeber	-7836
▁hardrive	-7837
dma	-7838
▁thn	-7839
lated	-7840
▁9800	-7841
▁freq	-7842
ements	-7843
▁assig	-7844
▁dependent	-7845
▁deprecated	-7846
vr	-7847
bet	-7848
max	-7849
ilot	-7850
▁192	-7851
▁law	-7852
acher	-7853
▁pacak	-7854
▁casper	-7855
▁exclus	-7856
▁becouse	-7857
▁asoundconf	-7858
▁graphically	-7859
▁3945	-7860
▁gibbon	-7861
▁yellow	-7862
▁flickering	-7863
mem	-7864
oru	-7865
ste	-7866
url	-7867
▁wer	-7868
▁apton	-7869
▁hplip	-7870
▁caching	-7871
▁fakeraid	-7872
sudo	-7873
▁wol	-7874
▁progs	-7875
▁developed	-7876
▁xscreensaver	-7877
sdl	-7878
▁ieee	-7879
▁ubunt	-7880
▁helper	-7881
▁aircrack	-7882
▁investigate	-7883
.1.	-7884
▁bill	-7885
▁rude	-7886
▁cloud	-7887
▁unmute	-7888
▁tunneling	-7889
fers	-7890
istic	-7891
▁stret	-7892
packages	-7893
▁responds	-7894
▁decorator	-7895
▁environments	-7896
2_	-7897
aint	-7898
▁afford	-7899
▁affects	-7900
▁aliases	-7901
▁prevents	-7902
▁returning	-7903
▁unrecognized	-7904
ati	-7905
armor	-7906
▁howdy	-7907
▁invis	-7908
▁xdmcp	-7909
airs	-7910
machine	-7911
unction	-7912
▁replug	-7913
uch	-7914
weak	-7915
▁bzip	-7916
▁coff	-7917
▁incredi	-7918
▁sleeping	-7919
▁difficulty	-7920
▁rightclick	-7921
38	-7922
sta	-7923
icer	-7924
ssss	-7925
chain	-7926
▁10.0	-7927
▁dove	-7928
▁ideal	-7929
▁cupsys	-7930
▁former	-7931
1_	-7932
abber	-7933
▁heads	-7934
▁recre	-7935
▁timer	-7936
▁bluefish	-7937
▁inkscape	-7938
▁anonymous	-7939
▁guarantee	-7940
alsa	-7941
mesa	-7942
▁gold	-7943
▁interm	-7944
▁implemented	-7945
▁mak	-7946
▁2011	-7947
upgrad	-7948
▁gxine	-7949
▁leads	-7950
▁translation	-7951
▁bi	-7952
▁nam	-7953
▁six	-7954
▁tele	-7955
▁https	-7956
aneously	-7957
▁accepting	-7958
▁networked	-7959
see	-7960
▁cul	-7961
atory	-7962
iring	-7963
▁buff	-7964
▁mice	-7965
blaster	-7966
▁appearing	-7967
▁professional	-7968
ey	-7969
▁vfs	-7970
adays	-7971
output	-7972
▁kaffeine	-7973
oser	-7974
atime	-7975
▁vent	-7976
▁commenting	-7977
▁recompiling	-7978
▁hrmm	-7979
▁kids	-7980
▁anjuta	-7981
▁caught	-7982
1.0	-7983
ari	-7984
▁ard	-7985
▁cna	-7986
▁mst	-7987
▁peer	-7988
▁recie	-7989
▁utils	-7990
▁negative	-7991
ula	-7992
nces	-7993
▁002	-7994
▁esound	-7995
▁whoami	-7996
▁synergy	-7997
▁fwcutter	-7998
▁nowadays	-7999
▁refering	-8000
▁associate	-8001
▁menuconfig	-8002
▁educ	-8003
atever	-8004
▁82801	-8005
▁strength	-8006
▁clipboard	-8007
isc	-8008
▁usa	-8009
▁beer	-8010
▁automate	-8011
▁winblows	-8012
▁databases	-8013
▁subfolders	-8014
ogg	-8015
mare	-8016
▁ner	-8017
▁wrt	-8018
▁follows	-8019
▁animation	-8020
▁desperate	-8021
hs	-8022
ina	-8023
▁row	-8024
▁yield	-8025
▁howtos	-8026
▁symbols	-8027
▁ts	-8028
▁skin	-8029
options	-8030
▁linking	-8031
-1.0	-8032
▁naming	-8033
▁wiping	-8034
▁opendns	-8035
▁reproduce	-8036
▁substitute	-8037
-12	-8038
▁9200	-8039
uggish	-8040
▁irrele	-8041
▁builtin	-8042
cn	-8043
ecraft	-8044
▁japanese	-8045
▁wordpress	-8046
▁awful	-8047
▁allways	-8048
▁aptoncd	-8049
land	-8050
effects	-8051
▁bashrc	-8052
▁interact	-8053
▁recovering	-8054
91	-8055
api	-8056
▁1.7	-8057
▁4.2	-8058
▁flv	-8059
▁updater	-8060
▁uploading	-8061
▁servername	-8062
bre	-8063
▁7.1	-8064
▁macos	-8065
▁solving	-8066
▁stating	-8067
▁fallback	-8068
sape	-8069
▁age	-8070
▁distort	-8071
▁centrino	-8072
▁headache	-8073
▁sluggish	-8074
▁keyboards	-8075
▁wirelessly	-8076
ea	-8077
▁tk	-8078
▁mtu	-8079
domain	-8080
▁spits	-8081
▁incompl	-8082
▁ndisgtk	-8083
▁generates	-8084
▁privs	-8085
▁suite	-8086
▁closest	-8087
▁dialogue	-8088
kr	-8089
color	-8090
▁boss	-8091
▁ntldr	-8092
▁health	-8093
▁recieve	-8094
▁screenlets	-8095
js	-8096
emy	-8097
▁pg	-8098
jack	-8099
▁nok	-8100
party	-8101
▁frees	-8102
▁solves	-8103
▁somethign	-8104
▁alternatively	-8105
▁devel	-8106
▁shame	-8107
▁dissape	-8108
▁proberly	-8109
▁pics	-8110
▁wasting	-8111
▁capacity	-8112
▁changelog	-8113
▁transfers	-8114
▁alb	-8115
▁execution	-8116
▁deactivate	-8117
▁incompatible	-8118
▁cn	-8119
iton	-8120
▁gwibber	-8121
▁allright	-8122
▁sticking	-8123
▁communicate	-8124
▁2.	-8125
cient	-8126
▁tftp	-8127
▁wave	-8128
▁disagree	-8129
▁enterprise	-8130
▁preventing	-8131
74	-8132
lm	-8133
hare	-8134
▁mails	-8135
▁urgent	-8136
▁dovecot	-8137
▁enables	-8138
▁differnt	-8139
▁dictionary	-8140
▁pon	-8141
mouse	-8142
▁prox	-8143
▁thor	-8144
▁chall	-8145
▁noacpi	-8146
▁overall	-8147
▁synchron	-8148
▁ridiculous	-8149
264	-8150
gvfs	-8151
▁sal	-8152
ished	-8153
▁memb	-8154
▁whil	-8155
exclude	-8156
▁exaile	-8157
▁2.6.24-1	-8158
▁ubuntustudio	-8159
smp	-8160
bios	-8161
▁blur	-8162
▁reve	-8163
▁scim	-8164
▁woud	-8165
▁beleive	-8166
▁experts	-8167
▁convenient	-8168
▁straightforward	-8169
env	-8170
nce	-8171
▁isa	-8172
rellm	-8173
▁gvim	-8174
center	-8175
▁heart	-8176
▁parti	-8177
▁reopen	-8178
▁bloated	-8179
▁involves	-8180
orse	-8181
▁ltsp	-8182
▁merely	-8183
▁reached	-8184
▁unnecessary	-8185
▁lc	-8186
▁3000	-8187
launch	-8188
▁extent	-8189
▁keybind	-8190
▁nopasswd	-8191
cmd	-8192
▁rtf	-8193
▁1400	-8194
▁isntalled	-8195
▁controlled	-8196
oret	-8197
▁etch	-8198
▁unrelated	-8199
▁pb	-8200
▁pixel	-8201
refresh	-8202
▁occurred	-8203
▁incomplete	-8204
sam	-8205
defined	-8206
▁comprom	-8207
▁defects	-8208
▁domains	-8209
▁prepend	-8210
▁starters	-8211
web	-8212
▁ly	-8213
paste	-8214
▁rewr	-8215
▁routes	-8216
▁shells	-8217
▁unlike	-8218
▁ldconfig	-8219
▁clu	-8220
▁nokia	-8221
▁stere	-8222
▁ubiqu	-8223
itional	-8224
▁market	-8225
▁confuse	-8226
▁accepted	-8227
▁libdvdread	-8228
▁dreamweaver	-8229
'-	-8230
cf	-8231
▁wma	-8232
80211	-8233
gstreamer	-8234
▁constant	-8235
▁autologin	-8236
ract	-8237
▁msi	-8238
▁slim	-8239
▁nohup	-8240
▁sysrq	-8241
▁manger	-8242
▁redund	-8243
swap	-8244
▁775	-8245
▁pir	-8246
bad	-8247
patch	-8248
ribute	-8249
utella	-8250
booting	-8251
▁attitude	-8252
▁developing	-8253
▁gah	-8254
▁latency	-8255
▁student	-8256
▁powernow	-8257
cal	-8258
▁threw	-8259
▁hotkey	-8260
▁bazhang	-8261
▁thumbdrive	-8262
56	-8263
▁ing	-8264
▁protocols	-8265
arr	-8266
▁arts	-8267
▁errr	-8268
thread	-8269
▁brief	-8270
▁swedish	-8271
▁manpages	-8272
▁unistall	-8273
2.2	-8274
▁knwo	-8275
▁initt	-8276
▁shore	-8277
▁exclude	-8278
▁unmuted	-8279
▁contained	-8280
▁invisible	-8281
jit	-8282
▁ape	-8283
apers	-8284
▁mods	-8285
▁wirless	-8286
▁overkill	-8287
▁specifics	-8288
ki	-8289
ober	-8290
▁pun	-8291
▁yeap	-8292
ective	-8293
▁swift	-8294
▁suffer	-8295
▁optional	-8296
▁resolves	-8297
5'	-8298
asy	-8299
oco	-8300
zzy	-8301
▁wx	-8302
bert	-8303
▁cyc	-8304
▁eve	-8305
▁uns	-8306
▁zombie	-8307
▁decoder	-8308
▁insecure	-8309
▁timezone	-8310
▁nightmare	-8311
ana	-8312
▁truly	-8313
▁companies	-8314
▁customized	-8315
▁established	-8316
▁misunderstand	-8317
▁66	-8318
disc	-8319
label	-8320
▁pici	-8321
▁qual	-8322
▁greater	-8323
▁inittab	-8324
▁theoret	-8325
▁diagnost	-8326
anges	-8327
illat	-8328
▁smbd	-8329
▁gkrellm	-8330
kpkg	-8331
▁jer	-8332
radar	-8333
▁fits	-8334
uggling	-8335
▁incons	-8336
01	-8337
-1_	-8338
tea	-8339
ding	-8340
noon	-8341
▁nvu	-8342
▁drup	-8343
compat	-8344
▁cab	-8345
▁atom	-8346
▁trad	-8347
▁postg	-8348
▁strings	-8349
▁irrelevant	-8350
▁psy	-8351
vidia	-8352
▁frank	-8353
▁2.6.12	-8354
▁parano	-8355
▁stress	-8356
▁fucking	-8357
▁directed	-8358
▁terminate	-8359
▁controllers	-8360
818	-8361
dest	-8362
▁ion	-8363
▁ngin	-8364
▁ddrescue	-8365
rep	-8366
▁efi	-8367
▁jan	-8368
▁bitt	-8369
▁xinit	-8370
▁modpro	-8371
▁ideally	-8372
▁wildcard	-8373
▁segfaults	-8374
▁conversion	-8375
▁licens	-8376
▁pieces	-8377
uld	-8378
▁lj	-8379
ened	-8380
oked	-8381
▁sux	-8382
stairs	-8383
▁relay	-8384
initial	-8385
▁assumes	-8386
▁cronjob	-8387
▁touching	-8388
▁lowercase	-8389
▁tring	-8390
▁2.6.24	-8391
▁stereo	-8392
▁ignores	-8393
▁masquer	-8394
▁acceptable	-8395
fps	-8396
▁ww	-8397
▁bee	-8398
▁eps	-8399
▁begins	-8400
▁eggdrop	-8401
▁painful	-8402
▁potential	-8403
.11	-8404
cpp	-8405
2000	-8406
▁manages	-8407
▁afternoon	-8408
▁remembered	-8409
▁2-3	-8410
▁pool	-8411
▁nginx	-8412
▁exited	-8413
▁debconf	-8414
▁unplugging	-8415
esh	-8416
ipher	-8417
abytes	-8418
ference	-8419
▁triple	-8420
▁newline	-8421
▁06	-8422
save	-8423
▁xsane	-8424
▁unders	-8425
▁ancient	-8426
▁insight	-8427
▁netbooks	-8428
▁archlinux	-8429
dem	-8430
hard	-8431
logg	-8432
▁3.3	-8433
▁liking	-8434
▁region	-8435
▁uploaded	-8436
▁allocated	-8437
▁supergrub	-8438
▁effectively	-8439
uck	-8440
▁candy	-8441
▁serving	-8442
▁decision	-8443
▁directive	-8444
▁xt	-8445
oint	-8446
tweak	-8447
ushing	-8448
▁probe	-8449
servers	-8450
▁subdir	-8451
▁tricks	-8452
▁whoops	-8453
▁clueless	-8454
▁reloading	-8455
▁thousands	-8456
▁subprocess	-8457
▁notifications	-8458
▁sip	-8459
▁trail	-8460
romedia	-8461
▁drupal	-8462
▁ordered	-8463
▁outlook	-8464
▁promise	-8465
▁registry	-8466
▁erro	-8467
▁lags	-8468
▁xlib	-8469
▁issued	-8470
▁whoever	-8471
▁2.6.15-2	-8472
250	-8473
too	-8474
▁tz	-8475
▁022	-8476
▁shud	-8477
▁xxxx	-8478
▁dozen	-8479
▁whilst	-8480
▁minecraft	-8481
han	-8482
ntfs	-8483
▁ken	-8484
▁bluez	-8485
▁youve	-8486
▁dow	-8487
icode	-8488
▁central	-8489
▁subsystem	-8490
je	-8491
▁km	-8492
amon	-8493
▁cgi	-8494
▁lif	-8495
▁coffee	-8496
▁messes	-8497
▁october	-8498
▁rss	-8499
lphin	-8500
▁ital	-8501
ync	-8502
▁bg	-8503
▁bal	-8504
▁iron	-8505
▁liek	-8506
roller	-8507
▁hotmail	-8508
▁infront	-8509
▁mainten	-8510
thr	-8511
▁inode	-8512
wireless	-8513
▁cleanly	-8514
81	-8515
▁58	-8516
▁wth	-8517
htool	-8518
▁joking	-8519
▁existed	-8520
▁renderer	-8521
bro	-8522
iki	-8523
crypt	-8524
▁whoa	-8525
ension	-8526
▁queue	-8527
▁silent	-8528
▁horribly	-8529
▁sensible	-8530
icked	-8531
ilion	-8532
▁corp	-8533
▁orin	-8534
▁sans	-8535
▁libsdl	-8536
▁theyre	-8537
▁unit	-8538
▁xset	-8539
▁wasted	-8540
▁cutting	-8541
▁icedtea	-8542
▁somethin	-8543
▁ubiquity	-8544
▁container	-8545
▁copyright	-8546
▁accordingly	-8547
▁dynamically	-8548
agic	-8549
rwxr	-8550
after	-8551
▁thou	-8552
▁ethtool	-8553
▁shortly	-8554
rwxrwxrwx	-8555
▁authenticated	-8556
grp	-8557
▁dosen	-8558
▁laser	-8559
▁involve	-8560
▁newbies	-8561
▁webpages	-8562
▁sty	-8563
▁5200	-8564
▁muck	-8565
▁smth	-8566
▁executes	-8567
▁someting	-8568
▁significant	-8569
▁yourusername	-8570
▁eb	-8571
mble	-8572
oses	-8573
▁king	-8574
-2.6.3	-8575
▁trave	-8576
synaptic	-8577
corefonts	-8578
▁unpacked	-8579
▁shorewall	-8580
clear	-8581
earth	-8582
▁reck	-8583
storage	-8584
ulation	-8585
▁tweaks	-8586
▁vulner	-8587
readable	-8588
▁adaptor	-8589
▁spyware	-8590
▁postgres	-8591
partitioned	-8592
fc	-8593
vir	-8594
mbps	-8595
▁7.0	-8596
▁1080	-8597
▁blink	-8598
▁prove	-8599
▁assemb	-8600
▁fiddling	-8601
bas	-8602
orld	-8603
▁conn	-8604
▁msgs	-8605
▁redu	-8606
▁enclo	-8607
section	-8608
▁devede	-8609
whatever	-8610
▁dolphin	-8611
▁lacking	-8612
▁struggling	-8613
▁filet	-8614
▁fiddle	-8615
mir	-8616
▁ol	-8617
▁nol	-8618
▁foot	-8619
▁porn	-8620
▁creat	-8621
isation	-8622
▁xwindows	-8623
▁overwrote	-8624
orak	-8625
▁abs	-8626
▁fax	-8627
▁pkgs	-8628
▁shor	-8629
▁cleaning	-8630
▁partially	-8631
▁dut	-8632
▁icq	-8633
▁sky	-8634
▁rect	-8635
▁challen	-8636
▁automounted	-8637
▁wen	-8638
quire	-8639
▁cares	-8640
▁grand	-8641
▁lacks	-8642
nothing	-8643
▁requirement	-8644
looks	-8645
▁mime	-8646
▁mstt	-8647
locate	-8648
▁improved	-8649
▁hostnames	-8650
▁individually	-8651
fy	-8652
elo	-8653
▁guis	-8654
▁overl	-8655
▁abiword	-8656
▁consist	-8657
▁maintained	-8658
debian	-8659
▁wonderful	-8660
▁oc	-8661
▁gst	-8662
▁configurable	-8663
mao	-8664
req	-8665
tpd	-8666
▁og	-8667
▁pod	-8668
every	-8669
▁meet	-8670
▁everyday	-8671
▁horizsync	-8672
▁dependancy	-8673
▁konversation	-8674
▁08	-8675
sums	-8676
▁wha	-8677
prober	-8678
▁culpr	-8679
▁grayed	-8680
▁nothin	-8681
▁hearing	-8682
fir	-8683
unt	-8684
phan	-8685
▁123	-8686
▁vcd	-8687
▁stats	-8688
▁scenario	-8689
06	-8690
▁jpg	-8691
▁1200	-8692
▁rich	-8693
▁road	-8694
▁basicly	-8695
▁starter	-8696
▁xconfig	-8697
▁chainload	-8698
▁corrected	-8699
▁partitons	-8700
.12	-8701
rsa	-8702
▁001	-8703
▁dog	-8704
▁pgp	-8705
custom	-8706
▁congr	-8707
▁secret	-8708
▁sshing	-8709
▁lexmark	-8710
▁operate	-8711
▁symptoms	-8712
▁unpacking	-8713
ingly	-8714
▁luks	-8715
▁irrit	-8716
▁lookin	-8717
▁waited	-8718
▁controlling	-8719
bd	-8720
▁bummer	-8721
▁marillat	-8722
▁schedule	-8723
▁ipaddress	-8724
▁responsive	-8725
4.	-8726
ias	-8727
▁oki	-8728
▁pcie	-8729
savers	-8730
▁doable	-8731
▁everyth	-8732
▁soundblaster	-8733
▁xe	-8734
arre	-8735
▁boo	-8736
▁tat	-8737
▁ring	-8738
▁thre	-8739
▁bloody	-8740
▁blackbox	-8741
▁concerning	-8742
▁macromedia	-8743
hhh	-8744
▁tp	-8745
▁zy	-8746
▁8.04.1	-8747
▁filters	-8748
aky	-8749
imit	-8750
▁ann	-8751
status	-8752
▁stuffs	-8753
▁freshly	-8754
▁underne	-8755
▁ntfsprogs	-8756
▁sav	-8757
gines	-8758
▁nuke	-8759
▁obsc	-8760
▁skipping	-8761
▁vertrefresh	-8762
yt	-8763
obar	-8764
▁xkill	-8765
▁hosted	-8766
▁lg	-8767
etype	-8768
▁hows	-8769
▁mang	-8770
through	-8771
▁offhand	-8772
▁disables	-8773
▁magically	-8774
▁installers	-8775
mov	-8776
▁ditch	-8777
▁picks	-8778
▁thers	-8779
orb	-8780
▁gy	-8781
▁cow	-8782
▁euro	-8783
▁okie	-8784
▁palm	-8785
notify	-8786
▁advert	-8787
▁nature	-8788
▁replaces	-8789
▁intention	-8790
▁territory	-8791
▁maintenance	-8792
11-	-8793
▁dom	-8794
▁bast	-8795
▁poll	-8796
▁quer	-8797
▁sbin	-8798
▁agent	-8799
▁egrep	-8800
▁inher	-8801
▁forces	-8802
▁guessed	-8803
▁popping	-8804
▁apologize	-8805
▁independent	-8806
oto	-8807
▁31	-8808
▁flip	-8809
▁autor	-8810
keyring	-8811
▁pixels	-8812
▁setups	-8813
▁sqlite	-8814
▁dislike	-8815
▁overclock	-8816
ussi	-8817
▁factory	-8818
▁largest	-8819
▁latitude	-8820
▁nonsense	-8821
iant	-8822
laod	-8823
enter	-8824
▁6200	-8825
chrome	-8826
depends	-8827
▁issuing	-8828
▁webcams	-8829
▁represent	-8830
▁generating	-8831
▁rs	-8832
▁shred	-8833
▁explore	-8834
▁hu	-8835
ived	-8836
▁oke	-8837
▁wut	-8838
▁enemy	-8839
▁flopp	-8840
▁manufacturers	-8841
ila	-8842
rout	-8843
▁models	-8844
▁bugzilla	-8845
▁terribly	-8846
▁badblocks	-8847
▁msttcorefonts	-8848
len	-8849
son	-8850
▁59	-8851
▁ds	-8852
▁capt	-8853
▁gree	-8854
▁wars	-8855
▁concl	-8856
▁deletes	-8857
▁apparmor	-8858
▁trackpad	-8859
▁timestamp	-8860
▁potentially	-8861
59	-8862
▁sf	-8863
alia	-8864
▁moz	-8865
▁boun	-8866
▁span	-8867
▁phones	-8868
completion	-8869
▁ics	-8870
enmod	-8871
touch	-8872
▁decomp	-8873
▁roughly	-8874
▁consuming	-8875
▁underneath	-8876
▁interpreter	-8877
pd	-8878
▁butt	-8879
▁humm	-8880
icating	-8881
▁encode	-8882
▁bootsplash	-8883
▁capability	-8884
▁37	-8885
▁kl	-8886
hack	-8887
they	-8888
▁addy	-8889
please	-8890
▁autog	-8891
▁circum	-8892
▁clever	-8893
▁repost	-8894
▁sucess	-8895
▁impressed	-8896
lp	-8897
▁sdk	-8898
▁wob	-8899
▁shure	-8900
▁insist	-8901
▁ticked	-8902
▁bizarre	-8903
▁bringing	-8904
▁condition	-8905
▁experiences	-8906
unix	-8907
▁dup	-8908
▁nag	-8909
▁rage	-8910
▁rhel	-8911
▁ships	-8912
▁shrug	-8913
minimal	-8914
eeeeeeee	-8915
▁nonfree	-8916
vin	-8917
▁sould	-8918
▁xhost	-8919
▁orinoco	-8920
▁docky	-8921
▁consum	-8922
▁ubutnu	-8923
▁meantime	-8924
▁relation	-8925
▁trolling	-8926
▁correction	-8927
▁ba	-8928
▁gem	-8929
guard	-8930
input	-8931
▁voip	-8932
ificate	-8933
▁compli	-8934
▁fields	-8935
▁tomboy	-8936
▁becoming	-8937
mk	-8938
▁med	-8939
quest	-8940
▁sold	-8941
▁buffers	-8942
▁covered	-8943
▁culprit	-8944
▁surprising	-8945
kk	-8946
edge	-8947
rant	-8948
▁rap	-8949
▁ebox	-8950
▁pray	-8951
problem	-8952
▁hundreds	-8953
▁overhead	-8954
▁pavilion	-8955
▁precompiled	-8956
abg	-8957
rud	-8958
ikes	-8959
▁0.8	-8960
▁360	-8961
▁lmao	-8962
▁quir	-8963
▁stil	-8964
▁maker	-8965
▁prive	-8966
▁maintainer	-8967
▁52	-8968
▁631	-8969
▁sides	-8970
▁bugger	-8971
▁grabbing	-8972
▁powerbook	-8973
▁downgrading	-8974
▁ubuntuguide	-8975
▁09	-8976
▁emp	-8977
▁doll	-8978
▁fant	-8979
▁ircd	-8980
▁ultra	-8981
▁acrobat	-8982
▁directx	-8983
▁transferring	-8984
▁unpartitioned	-8985
▁ay	-8986
icom	-8987
▁cue	-8988
▁sett	-8989
▁keymap	-8990
▁matlab	-8991
▁exiting	-8992
▁libxine	-8993
▁intellig	-8994
▁interpret	-8995
▁mentioning	-8996
iders	-8997
▁7600	-8998
▁sand	-8999
▁rails	-9000
private	-9001
▁commit	-9002
▁convin	-9003
▁doenst	-9004
▁reckon	-9005
encrypted	-9006
▁eliminate	-9007
▁ack	-9008
▁hald	-9009
▁rtfm	-9010
▁warn	-9011
▁imply	-9012
▁ubunutu	-9013
▁relating	-9014
xf	-9015
eng	-9016
▁yuo	-9017
▁bund	-9018
▁intu	-9019
▁mike	-9020
▁prepared	-9021
▁comparison	-9022
iceauthority	-9023
64.	-9024
ping	-9025
▁ljl	-9026
lying	-9027
▁devil	-9028
▁approx	-9029
▁lagging	-9030
▁suffice	-9031
▁revision	-9032
edy	-9033
query	-9034
▁rofl	-9035
▁rpms	-9036
▁packs	-9037
▁renew	-9038
▁screws	-9039
▁parents	-9040
▁squashfs	-9041
▁modifications	-9042
▁ldd	-9043
thumb	-9044
▁yess	-9045
create	-9046
▁width	-9047
▁introdu	-9048
▁loosing	-9049
▁simultaneously	-9050
▁dpi	-9051
▁stab	-9052
ahorse	-9053
▁orient	-9054
▁accepts	-9055
46	-9056
bg	-9057
guy	-9058
▁cluster	-9059
▁combine	-9060
▁keystro	-9061
▁optimized	-9062
0.	-9063
oxy	-9064
snes	-9065
▁fri	-9066
▁kit	-9067
could	-9068
▁nvida	-9069
library	-9070
▁drawing	-9071
▁realtime	-9072
▁effective	-9073
fic	-9074
▁480	-9075
▁slows	-9076
▁privil	-9077
▁seahorse	-9078
▁launchers	-9079
dll	-9080
dmrc	-9081
hold	-9082
▁gcj	-9083
stray	-9084
▁pavu	-9085
▁zlib	-9086
▁gover	-9087
▁jabber	-9088
▁forbidden	-9089
▁incredibly	-9090
agate	-9091
▁treat	-9092
▁talked	-9093
▁comparing	-9094
▁ignorance	-9095
▁journaling	-9096
oe	-9097
▁pita	-9098
▁seed	-9099
ration	-9100
▁edits	-9101
▁laugh	-9102
▁------	-9103
▁suspicious	-9104
▁443	-9105
▁750	-9106
2-14-	-9107
▁xpress	-9108
▁flashdrive	-9109
▁netinstall	-9110
▁2048	-9111
▁offs	-9112
arching	-9113
▁ripping	-9114
▁strictly	-9115
uk	-9116
ibs	-9117
▁wg	-9118
ashion	-9119
▁costs	-9120
▁stalls	-9121
▁underscore	-9122
aaa	-9123
hal	-9124
▁65	-9125
▁byte	-9126
aliases	-9127
ncurses	-9128
▁teamviewer	-9129
▁reformatted	-9130
▁screensavers	-9131
puter	-9132
▁suid	-9133
▁upto	-9134
▁stdin	-9135
sources	-9136
▁reconfigured	-9137
41	-9138
mat	-9139
nes	-9140
▁lv	-9141
▁dur	-9142
▁spo	-9143
▁dosbox	-9144
▁winmodem	-9145
▁regenerate	-9146
▁reformatting	-9147
yg	-9148
-30	-9149
don	-9150
reh	-9151
▁sou	-9152
▁zsh	-9153
▁edid	-9154
▁hair	-9155
achine	-9156
▁unset	-9157
▁leases	-9158
▁libxml	-9159
▁pavucontrol	-9160
8-	-9161
▁cpan	-9162
▁grrr	-9163
▁tild	-9164
▁knock	-9165
bootable	-9166
▁refusing	-9167
37	-9168
▁39	-9169
▁lfs	-9170
▁passes	-9171
▁clearing	-9172
▁confirmation	-9173
mar	-9174
▁5.2	-9175
▁grr	-9176
mirror	-9177
number	-9178
▁manner	-9179
▁vanish	-9180
▁smplayer	-9181
▁pts	-9182
▁todo	-9183
▁cleaner	-9184
▁formating	-9185
▁touchscreen	-9186
gor	-9187
mmmm	-9188
▁joe	-9189
▁jud	-9190
▁psp	-9191
thats	-9192
▁ethx	-9193
▁sence	-9194
▁foobar	-9195
▁pissed	-9196
mydesktop	-9197
▁similiar	-9198
▁blacklisting	-9199
▁kr	-9200
still	-9201
▁0777	-9202
▁vpnc	-9203
▁yoru	-9204
▁study	-9205
▁lowest	-9206
▁framework	-9207
▁limitation	-9208
ualt	-9209
▁zsnes	-9210
▁elf	-9211
▁sdd	-9212
igned	-9213
▁album	-9214
▁beeps	-9215
▁minus	-9216
▁pulls	-9217
▁gmplayer	-9218
▁fetchmail	-9219
▁ga	-9220
▁4.3	-9221
iated	-9222
▁aoss	-9223
▁layouts	-9224
▁numerous	-9225
▁mt	-9226
stri	-9227
▁kdel	-9228
▁alarm	-9229
▁apper	-9230
▁hates	-9231
▁natur	-9232
▁hiding	-9233
▁loggin	-9234
▁minicom	-9235
▁skipped	-9236
▁kdevelop	-9237
▁consistent	-9238
asm	-9239
oko	-9240
mbit	-9241
▁adn	-9242
▁crtl	-9243
▁courier	-9244
▁mechanism	-9245
▁terminated	-9246
amb	-9247
pix	-9248
▁hc	-9249
ugly	-9250
▁ash	-9251
▁bul	-9252
▁nex	-9253
▁woo	-9254
flags	-9255
▁airport	-9256
▁decrease	-9257
▁commander	-9258
▁sooo	-9259
asters	-9260
disable	-9261
▁autorun	-9262
▁trusted	-9263
▁realised	-9264
-6-	-9265
▁therm	-9266
▁frankly	-9267
▁unicode	-9268
▁rebuilding	-9269
89	-9270
seb	-9271
▁pv	-9272
▁acx	-9273
▁smoot	-9274
▁sytem	-9275
▁dident	-9276
▁nsplugin	-9277
▁recovered	-9278
▁disconnects	-9279
▁succesfully	-9280
65	-9281
▁ey	-9282
▁goin	-9283
▁vary	-9284
▁emerg	-9285
▁pleas	-9286
▁colours	-9287
▁category	-9288
▁contacts	-9289
▁mistakes	-9290
▁destroyed	-9291
▁-0	-9292
iliar	-9293
▁bump	-9294
▁bored	-9295
▁habit	-9296
▁throught	-9297
▁succeeded	-9298
hc	-9299
1.4	-9300
untu	-9301
▁upnp	-9302
▁dumps	-9303
▁freedom	-9304
▁userspace	-9305
▁57	-9306
▁vg	-9307
▁aps	-9308
▁sle	-9309
chars	-9310
▁1.0.2	-9311
▁fujit	-9312
asoundrc	-9313
▁cheaper	-9314
▁supplied	-9315
▁performed	-9316
▁practical	-9317
den	-9318
▁83	-9319
▁fac	-9320
▁rite	-9321
▁dosnt	-9322
function	-9323
rk	-9324
unity	-9325
▁duel	-9326
▁gues	-9327
▁oddly	-9328
▁phrase	-9329
▁consult	-9330
▁ramdisk	-9331
▁majority	-9332
▁paranoid	-9333
▁assumption	-9334
▁reinstallation	-9335
▁ny	-9336
▁9.0	-9337
▁xps	-9338
▁maps	-9339
▁conect	-9340
▁pannel	-9341
▁synapt	-9342
▁disconnecting	-9343
▁hid	-9344
▁ppas	-9345
▁wiht	-9346
▁appdb	-9347
cmdline	-9348
▁hybrid	-9349
▁weekend	-9350
▁spamming	-9351
▁certificate	-9352
128	-9353
▁brute	-9354
▁hfsplus	-9355
▁2.6.28-1	-9356
▁presario	-9357
ni	-9358
irl	-9359
▁wq	-9360
iiii	-9361
▁lpr	-9362
▁sac	-9363
▁leak	-9364
▁poss	-9365
▁shop	-9366
mented	-9367
▁libssl	-9368
▁skills	-9369
▁malware	-9370
▁benefits	-9371
▁checkout	-9372
▁downlaod	-9373
▁joystick	-9374
▁indication	-9375
pcm	-9376
vvv	-9377
diff	-9378
▁react	-9379
▁flicker	-9380
▁template	-9381
xauthority	-9382
▁standards	-9383
hw	-9384
ots	-9385
▁tu	-9386
ldap	-9387
▁abt	-9388
▁wal	-9389
▁maby	-9390
▁wpas	-9391
▁192.168.	-9392
▁strangely	-9393
▁decorations	-9394
ato	-9395
overy	-9396
posed	-9397
switch	-9398
▁deeper	-9399
▁fujitsu	-9400
▁rolling	-9401
▁products	-9402
▁wmp	-9403
brake	-9404
▁train	-9405
▁admins	-9406
▁detach	-9407
▁unreal	-9408
▁warned	-9409
▁cleaned	-9410
▁nolapic	-9411
▁someplace	-9412
▁underlying	-9413
ole	-9414
▁hdx	-9415
▁tied	-9416
▁recommends	-9417
▁theoretically	-9418
bi	-9419
▁dsp	-9420
▁blab	-9421
▁doin	-9422
▁comma	-9423
▁autodet	-9424
▁computing	-9425
▁integrate	-9426
▁presented	-9427
▁internally	-9428
▁chgrp	-9429
▁factor	-9430
▁comming	-9431
▁italian	-9432
▁thingie	-9433
▁offering	-9434
▁81	-9435
▁110	-9436
▁emu	-9437
witch	-9438
▁geany	-9439
▁rmdir	-9440
▁labels	-9441
▁lastest	-9442
▁nickrud	-9443
▁warrant	-9444
▁describes	-9445
_.	-9446
dog	-9447
▁girl	-9448
ussian	-9449
▁gettin	-9450
▁ground	-9451
▁retain	-9452
good	-9453
lang	-9454
▁4.10	-9455
▁libm	-9456
▁tape	-9457
▁ware	-9458
▁curve	-9459
▁ardour	-9460
▁chrooting	-9461
▁fileserver	-9462
▁dwl	-9463
anged	-9464
▁bots	-9465
▁grip	-9466
▁flavor	-9467
▁poorly	-9468
▁expects	-9469
▁regards	-9470
▁51	-9471
▁sg	-9472
▁lad	-9473
appear	-9474
formed	-9475
▁lunch	-9476
▁water	-9477
▁infact	-9478
▁digging	-9479
▁members	-9480
▁convince	-9481
▁undefined	-9482
▁chainloader	-9483
▁403	-9484
▁bac	-9485
▁bmp	-9486
▁ness	-9487
▁regress	-9488
llo	-9489
bish	-9490
ecode	-9491
▁trem	-9492
▁havnt	-9493
▁slart	-9494
▁sniff	-9495
▁crunch	-9496
▁hacker	-9497
▁defualt	-9498
▁kdelibs	-9499
▁autoconf	-9500
▁offending	-9501
▁animations	-9502
306	-9503
64-	-9504
dbus	-9505
life	-9506
shop	-9507
icity	-9508
style	-9509
▁bomb	-9510
▁door	-9511
▁mill	-9512
▁halfway	-9513
▁mkisofs	-9514
▁forgetting	-9515
▁statically	-9516
.2.	-9517
ruc	-9518
ants	-9519
derr	-9520
▁abit	-9521
▁alex	-9522
▁myst	-9523
▁arbit	-9524
▁fmask	-9525
▁semic	-9526
▁flickers	-9527
▁libreoffice	-9528
▁pt	-9529
anet	-9530
jpeg	-9531
▁ubn	-9532
▁crims	-9533
▁slots	-9534
▁encour	-9535
▁serves	-9536
▁element	-9537
▁swapoff	-9538
▁swapped	-9539
mgr	-9540
▁wap	-9541
▁dpms	-9542
▁deriv	-9543
▁wpasupp	-9544
▁failures	-9545
▁proccess	-9546
▁decompress	-9547
▁libncurses	-9548
▁integration	-9549
asa	-9550
lient	-9551
▁resets	-9552
▁apparent	-9553
▁conection	-9554
▁soundcards	-9555
imp	-9556
oof	-9557
▁rv	-9558
▁xy	-9559
▁ned	-9560
▁2.6.27	-9561
▁automake	-9562
▁fighting	-9563
▁sysadmin	-9564
▁transcode	-9565
▁somethings	-9566
ji	-9567
rn	-9568
eps	-9569
main	-9570
▁007	-9571
▁ahci	-9572
▁craw	-9573
▁kdes	-9574
▁hahah	-9575
▁dvorak	-9576
▁altered	-9577
▁obscure	-9578
▁customiz	-9579
▁midnight	-9580
▁handbrake	-9581
▁repeatedly	-9582
ien	-9583
▁tc	-9584
▁ze	-9585
1600	-9586
aled	-9587
pppp	-9588
wiki	-9589
echat	-9590
▁wheres	-9591
▁fashion	-9592
▁bindings	-9593
tag	-9594
▁47	-9595
ecko	-9596
▁fox	-9597
▁iii	-9598
▁sas	-9599
▁vms	-9600
iently	-9601
▁covers	-9602
▁shoutcast	-9603
▁wallpapers	-9604
anta	-9605
▁jvm	-9606
▁apic	-9607
▁hamm	-9608
▁nort	-9609
▁pppd	-9610
ometry	-9611
▁raise	-9612
▁deamon	-9613
▁preser	-9614
▁russian	-9615
▁xaw	-9616
▁argue	-9617
▁donno	-9618
▁priviled	-9619
mu	-9620
rv	-9621
-3.5	-9622
mult	-9623
▁255	-9624
▁dek	-9625
▁stan	-9626
▁sister	-9627
▁sugest	-9628
▁grabbed	-9629
▁manuals	-9630
▁storing	-9631
▁completes	-9632
▁subtitles	-9633
oen	-9634
▁vu	-9635
____	-9636
akes	-9637
▁rez	-9638
▁1.0.1	-9639
▁ipods	-9640
working	-9641
▁deploy	-9642
▁leading	-9643
synaptics	-9644
▁gigabyte	-9645
▁inactive	-9646
▁prompting	-9647
▁situations	-9648
▁googleearth	-9649
▁wpasupplicant	-9650
▁gpm	-9651
▁2200	-9652
▁gufw	-9653
▁genius	-9654
▁thumbnails	-9655
she	-9656
debug	-9657
▁wond	-9658
ulated	-9659
scripts	-9660
▁panics	-9661
▁seagate	-9662
▁begining	-9663
▁configures	-9664
▁nspluginwrapper	-9665
▁ari	-9666
▁goof	-9667
▁pane	-9668
▁slap	-9669
▁hotkeys	-9670
▁reloaded	-9671
▁somefile	-9672
▁describing	-9673
▁possibilities	-9674
▁67	-9675
achi	-9676
▁999	-9677
▁untr	-9678
▁netcat	-9679
▁safest	-9680
▁fixable	-9681
▁students	-9682
▁beautiful	-9683
▁ef	-9684
flux	-9685
▁9.1	-9686
▁abc	-9687
▁jes	-9688
wheel	-9689
▁sink	-9690
filename	-9691
▁adjusting	-9692
▁backlight	-9693
▁htp	-9694
▁sin	-9695
▁ftpd	-9696
filter	-9697
keygen	-9698
▁arrows	-9699
▁comcast	-9700
▁gdmsetup	-9701
abe	-9702
pic	-9703
raw	-9704
utz	-9705
orec	-9706
▁uvc	-9707
exist	-9708
▁dust	-9709
▁fund	-9710
▁prem	-9711
▁beats	-9712
▁pgrep	-9713
▁comman	-9714
▁nameof	-9715
▁hogging	-9716
▁selinux	-9717
▁signals	-9718
▁telinit	-9719
▁spending	-9720
▁tracking	-9721
wmv	-9722
mixer	-9723
▁wher	-9724
▁bloat	-9725
▁dmask	-9726
▁scope	-9727
▁stderr	-9728
▁stretch	-9729
▁affecting	-9730
▁dosn	-9731
▁satisfied	-9732
▁improvement	-9733
oy	-9734
ids	-9735
uri	-9736
▁hwo	-9737
▁jfs	-9738
atest	-9739
eline	-9740
▁2.10	-9741
▁9000	-9742
▁heya	-9743
▁prese	-9744
▁typos	-9745
▁dhcpoff	-9746
▁systray	-9747
▁rejected	-9748
drv	-9749
llll	-9750
▁0.6	-9751
angle	-9752
python	-9753
▁taste	-9754
▁whois	-9755
▁recorded	-9756
▁modification	-9757
addr	-9758
udes	-9759
▁pred	-9760
▁cupsd	-9761
▁modul	-9762
▁confident	-9763
▁activating	-9764
otu	-9765
▁oy	-9766
acod	-9767
▁111	-9768
▁tls	-9769
▁unz	-9770
orbis	-9771
▁gall	-9772
▁vids	-9773
▁xvnc	-9774
serial	-9775
▁epson	-9776
▁libav	-9777
▁shoul	-9778
▁govern	-9779
▁openbsd	-9780
▁staying	-9781
▁applying	-9782
▁superior	-9783
▁emergency	-9784
▁workarounds	-9785
27	-9786
▁dll	-9787
▁hil	-9788
▁kan	-9789
▁bang	-9790
▁pdfs	-9791
▁misty	-9792
▁bothering	-9793
▁paritions	-9794
▁fingerprint	-9795
▁startupmanager	-9796
93	-9797
rox	-9798
▁doz	-9799
▁fet	-9800
▁gps	-9801
elist	-9802
iance	-9803
modes	-9804
▁calm	-9805
▁legit	-9806
▁noted	-9807
▁binding	-9808
▁quickcam	-9809
▁requiring	-9810
▁addressing	-9811
▁increasing	-9812
▁hh	-9813
pair	-9814
▁nub	-9815
▁1500	-9816
▁linus	-9817
▁scans	-9818
▁winet	-9819
▁noexec	-9820
▁signed	-9821
▁winrar	-9822
protected	-9823
▁replying	-9824
▁libasound	-9825
▁lrwxrwxrwx	-9826
ifty	-9827
recv	-9828
▁4.4	-9829
▁ehm	-9830
▁nto	-9831
▁greek	-9832
▁xauth	-9833
▁xming	-9834
▁runnin	-9835
▁clutter	-9836
▁crimsun	-9837
▁reposit	-9838
▁determined	-9839
▁communication	-9840
otion	-9841
▁smile	-9842
history	-9843
▁kindly	-9844
▁swfdec	-9845
▁imported	-9846
▁benchmark	-9847
▁smartmont	-9848
ancy	-9849
iing	-9850
orama	-9851
uable	-9852
▁params	-9853
▁flooding	-9854
▁infected	-9855
▁radeonhd	-9856
▁manipulate	-9857
iy	-9858
lus	-9859
nod	-9860
▁jon	-9861
▁camp	-9862
▁toss	-9863
▁trit	-9864
▁usualy	-9865
▁publish	-9866
▁169	-9867
imate	-9868
▁omit	-9869
▁proof	-9870
▁compet	-9871
▁fortun	-9872
▁exploit	-9873
▁unblock	-9874
▁virtually	-9875
www	-9876
8187	-9877
▁multip	-9878
▁mounter	-9879
▁stripped	-9880
▁combinations	-9881
real	-9882
▁eol	-9883
▁manu	-9884
elling	-9885
▁disapp	-9886
▁elinks	-9887
▁surfing	-9888
▁articles	-9889
▁hardcore	-9890
▁scriptname	-9891
fuse	-9892
▁8.4	-9893
▁ang	-9894
▁city	-9895
▁mout	-9896
-2.6.10	-9897
▁recomm	-9898
▁sidebar	-9899
▁surprise	-9900
▁powernowd	-9901
wap	-9902
▁828	-9903
▁seb	-9904
2.0-0	-9905
▁flow	-9906
▁comps	-9907
▁scanned	-9908
▁unreadable	-9909
▁mh	-9910
oper	-9911
ours	-9912
▁amb	-9913
▁exceed	-9914
▁collect	-9915
▁compreh	-9916
▁peoples	-9917
▁floppies	-9918
▁enclosure	-9919
▁complained	-9920
-16	-9921
169	-9922
▁41	-9923
-10-	-9924
▁aes	-9925
▁wnat	-9926
▁erros	-9927
▁whith	-9928
▁getdeb	-9929
▁jumping	-9930
▁distorted	-9931
▁soemthing	-9932
ica	-9933
▁hl	-9934
▁ftw	-9935
▁nis	-9936
▁angry	-9937
▁lived	-9938
▁counts	-9939
▁hwinfo	-9940
▁weechat	-9941
bt	-9942
ral	-9943
kbps	-9944
loop	-9945
ented	-9946
▁anac	-9947
▁wats	-9948
▁vhost	-9949
▁aspect	-9950
▁blanks	-9951
▁busted	-9952
▁sudoer	-9953
▁suited	-9954
▁subdirectory	-9955
pis	-9956
1300	-9957
addy	-9958
audi	-9959
▁gsp	-9960
▁sha	-9961
▁garbled	-9962
▁chkconfig	-9963
arp	-9964
was	-9965
fast	-9966
gets	-9967
▁bold	-9968
▁netw	-9969
▁srry	-9970
elerra	-9971
▁noobs	-9972
▁somes	-9973
▁displayconfig	-9974
▁smartmontools	-9975
hes	-9976
hun	-9977
▁88	-9978
mins	-9979
▁lau	-9980
▁sor	-9981
▁unc	-9982
▁graf	-9983
padmin	-9984
▁fight	-9985
▁netow	-9986
▁pushed	-9987
▁stoped	-9988
▁aborted	-9989
▁behaves	-9990
▁libgnome	-9991
29	-9992
jf	-9993
1.1	-9994
▁0.	-9995
send	-9996
▁dint	-9997
▁nada	-9998
charset	-9999
frences	-10000
▁reinst	-10001
▁matched	-10002
▁tritium	-10003
▁dependant	-10004
▁favourite	-10005
▁expression	-10006
▁unencrypted	-10007
▁440	-10008
▁svg	-10009
▁unp	-10010
▁cuts	-10011
icates	-10012
▁hurry	-10013
▁novice	-10014
▁philos	-10015
▁exports	-10016
▁shorter	-10017
▁widgets	-10018
▁2.6.32-2	-10019
▁electric	-10020
▁recieved	-10021
▁assigning	-10022
▁cinelerra	-10023
▁knowledgeable	-10024
▁misconfigured	-10025
nv	-10026
rid	-10027
ingo	-10028
tech	-10029
magic	-10030
▁posix	-10031
▁skips	-10032
▁xawtv	-10033
▁pushing	-10034
formatted	-10035
▁interfer	-10036
▁persistant	-10037
▁fuzzy	-10038
▁curses	-10039
▁columns	-10040
▁forcefsck	-10041
▁windowsxp	-10042
▁referenced	-10043
▁unbootable	-10044
▁researching	-10045
ette	-10046
▁atl	-10047
▁pms	-10048
▁spar	-10049
▁acpid	-10050
▁advis	-10051
▁propi	-10052
▁circle	-10053
▁rember	-10054
▁firstly	-10055
keyserver	-10056
▁restrictions	-10057
qdn	-10058
via	-10059
▁defe	-10060
▁exac	-10061
initrd	-10062
▁fubar	-10063
▁portu	-10064
▁amazon	-10065
▁speech	-10066
▁numlock	-10067
▁sliders	-10068
▁smarter	-10069
▁ddclient	-10070
▁nosplash	-10071
▁intermitt	-10072
▁minimized	-10073
▁generation	-10074
▁ultimately	-10075
▁dif	-10076
▁ltd	-10077
itter	-10078
▁asap	-10079
▁pros	-10080
▁hamach	-10081
▁nautil	-10082
▁parsing	-10083
▁privoxy	-10084
▁photorec	-10085
▁interfere	-10086
▁presentation	-10087
jan	-10088
▁3'	-10089
▁fg	-10090
itar	-10091
vida	-10092
▁0.5	-10093
▁tis	-10094
mounted	-10095
▁__	-10096
▁0.2	-10097
▁fixboot	-10098
▁hamachi	-10099
1080	-10100
post	-10101
▁felt	-10102
▁dodgy	-10103
▁princ	-10104
hhhhhhhh	-10105
▁sounded	-10106
▁construct	-10107
▁fantastic	-10108
192	-10109
▁ry	-10110
▁gtx	-10111
▁lean	-10112
▁wusb	-10113
▁escap	-10114
▁2.6.15	-10115
▁resides	-10116
▁guidance	-10117
▁receiver	-10118
▁redundant	-10119
▁transition	-10120
▁libflashsupport	-10121
6'	-10122
vlc	-10123
▁dx	-10124
aked	-10125
ening	-10126
▁lenny	-10127
▁emerge	-10128
▁safety	-10129
▁autogen	-10130
-4.0	-10131
6000	-10132
▁hrs	-10133
▁cmos	-10134
▁codep	-10135
▁jumps	-10136
▁dhcpcd	-10137
▁preced	-10138
▁sensor	-10139
▁thrown	-10140
proposed	-10141
▁cylinder	-10142
▁beginners	-10143
▁recompiled	-10144
svn	-10145
hehe	-10146
temp	-10147
▁185	-10148
▁ehh	-10149
▁ouput	-10150
▁netbios	-10151
▁permisions	-10152
4311	-10153
▁1-2	-10154
lines	-10155
stuff	-10156
▁trim	-10157
▁gecko	-10158
▁instr	-10159
▁xfont	-10160
▁cycles	-10161
▁camorama	-10162
▁limitations	-10163
-03	-10164
cue	-10165
▁hay	-10166
▁mta	-10167
pilot	-10168
▁pelo	-10169
alling	-10170
edgers	-10171
▁occup	-10172
▁pidof	-10173
▁cookies	-10174
▁commonly	-10175
▁operator	-10176
53	-10177
ju	-10178
▁cx	-10179
ffff	-10180
▁127	-10181
▁grad	-10182
▁heheh	-10183
▁nifty	-10184
▁crossed	-10185
▁luckily	-10186
▁happends	-10187
▁programmers	-10188
lim	-10189
▁8.0	-10190
world	-10191
▁whom	-10192
htaccess	-10193
▁healthy	-10194
▁binutils	-10195
▁63	-10196
norm	-10197
▁ont	-10198
▁vdp	-10199
▁skins	-10200
▁mainboard	-10201
▁websearch	-10202
▁importantly	-10203
▁walkthrough	-10204
▁automaticaly	-10205
-5.0	-10206
etly	-10207
ires	-10208
ully	-10209
▁6.0	-10210
▁begg	-10211
▁deals	-10212
▁direc	-10213
▁parit	-10214
archive	-10215
▁multic	-10216
▁myfile	-10217
▁prepar	-10218
▁proxies	-10219
▁queries	-10220
gpg	-10221
actl	-10222
▁mkv	-10223
▁xvf	-10224
▁bttv	-10225
▁nodes	-10226
▁woudl	-10227
▁ranges	-10228
▁deliver	-10229
▁dialout	-10230
▁hotspot	-10231
▁overlay	-10232
▁pacakge	-10233
▁flexible	-10234
▁incident	-10235
▁outbound	-10236
▁accessable	-10237
▁97	-10238
auge	-10239
▁590	-10240
state	-10241
▁fram	-10242
▁coded	-10243
▁hover	-10244
▁mepis	-10245
▁motor	-10246
▁parag	-10247
▁south	-10248
▁vdpau	-10249
▁cloned	-10250
▁podcast	-10251
▁replied	-10252
▁increment	-10253
▁modelines	-10254
▁reasonably	-10255
ilo	-10256
pts	-10257
▁deg	-10258
▁iec	-10259
iously	-10260
▁6.06.1	-10261
▁slowing	-10262
▁intalled	-10263
▁signatures	-10264
obu	-10265
▁mks	-10266
▁6800	-10267
▁army	-10268
▁uhmm	-10269
▁austr	-10270
▁javac	-10271
▁refit	-10272
▁energy	-10273
▁lovely	-10274
▁wouldn	-10275
▁separated	-10276
▁irritating	-10277
▁prefrences	-10278
▁distributed	-10279
▁unfortunatly	-10280
0-	-10281
tray	-10282
▁jam	-10283
▁defa	-10284
utable	-10285
▁llutz	-10286
▁damnit	-10287
▁merged	-10288
▁wether	-10289
▁yields	-10290
▁scrolls	-10291
-2.6.24-1	-10292
▁combined	-10293
▁propriet	-10294
▁responded	-10295
ico	-10296
pers	-10297
▁bam	-10298
▁wod	-10299
extra	-10300
▁2004	-10301
▁unop	-10302
▁probl	-10303
▁disape	-10304
▁shitty	-10305
▁filling	-10306
▁foreign	-10307
▁sockets	-10308
▁deinstall	-10309
thunderbird	-10310
upg	-10311
gard	-10312
▁cnt	-10313
decor	-10314
layout	-10315
▁cooler	-10316
▁programme	-10317
▁beforehand	-10318
▁redirected	-10319
▁vin	-10320
▁wom	-10321
marks	-10322
worth	-10323
▁donw	-10324
ffmpeg	-10325
▁dozens	-10326
▁annoyed	-10327
▁teacher	-10328
▁usernames	-10329
configuration	-10330
▁experimenting	-10331
nig	-10332
▁ber	-10333
▁zer	-10334
▁dmix	-10335
▁unsu	-10336
strike	-10337
▁areas	-10338
▁artif	-10339
▁infin	-10340
▁mater	-10341
▁wobbly	-10342
▁doesent	-10343
▁routine	-10344
▁spelled	-10345
▁filetype	-10346
▁powertop	-10347
2.5	-10348
meg	-10349
pal	-10350
▁ck	-10351
works	-10352
▁frig	-10353
▁shed	-10354
▁boring	-10355
▁offset	-10356
▁ntfsfix	-10357
▁unclear	-10358
▁philosop	-10359
▁maximized	-10360
▁dhcpoffers	-10361
960	-10362
hog	-10363
iced	-10364
▁02.0	-10365
▁alth	-10366
▁ntpd	-10367
▁scre	-10368
really	-10369
▁eterm	-10370
▁gspca	-10371
builder	-10372
▁europe	-10373
▁picasa	-10374
▁closely	-10375
▁happily	-10376
▁heavily	-10377
▁alrighty	-10378
▁american	-10379
▁codepage	-10380
▁convinced	-10381
84	-10382
▁mii	-10383
▁cann	-10384
▁glade	-10385
▁thermal	-10386
▁aborting	-10387
▁improper	-10388
▁purchase	-10389
▁complaint	-10390
uen	-10391
586.	-10392
hood	-10393
▁kms	-10394
▁lis	-10395
▁bitl	-10396
▁ubutu	-10397
▁pluged	-10398
software	-10399
wa	-10400
▁cure	-10401
▁outta	-10402
▁assure	-10403
▁beeing	-10404
▁norton	-10405
▁blaster	-10406
▁2.6.31-1	-10407
▁swiftfox	-10408
▁cylinders	-10409
-09	-10410
cky	-10411
guin	-10412
▁acid	-10413
regard	-10414
▁demon	-10415
▁depen	-10416
▁jackd	-10417
▁mirro	-10418
▁rapid	-10419
agement	-10420
▁weight	-10421
▁joining	-10422
▁listens	-10423
▁marvell	-10424
▁property	-10425
▁arbitrary	-10426
▁specially	-10427
▁decoration	-10428
▁ddc	-10429
▁hon	-10430
pgart	-10431
▁eval	-10432
▁isps	-10433
▁motd	-10434
encing	-10435
ulator	-10436
▁algor	-10437
▁began	-10438
▁announ	-10439
▁convention	-10440
▁cryptsetup	-10441
▁inconsistent	-10442
seq	-10443
▁3.	-10444
unte	-10445
▁350	-10446
▁difer	-10447
▁maxed	-10448
▁inject	-10449
▁stayed	-10450
▁hackers	-10451
▁initiate	-10452
▁reliably	-10453
▁soundray	-10454
▁intuitive	-10455
▁outputting	-10456
▁overwrites	-10457
▁initializing	-10458
▁49	-10459
flow	-10460
▁gro	-10461
▁gts	-10462
▁zfs	-10463
tuner	-10464
▁5000	-10465
▁args	-10466
▁dare	-10467
▁hunt	-10468
iguous	-10469
▁colon	-10470
▁pocket	-10471
▁cloning	-10472
▁lighttpd	-10473
▁thousand	-10474
▁challenge	-10475
▁communications	-10476
ugh	-10477
▁ak	-10478
otic	-10479
▁bab	-10480
▁tad	-10481
▁hoped	-10482
▁libmp	-10483
▁nicks	-10484
▁carefull	-10485
▁recreated	-10486
utu	-10487
iret	-10488
▁mim	-10489
inder	-10490
▁rcconf	-10491
▁shipit	-10492
▁pinning	-10493
▁thorough	-10494
▁tinkering	-10495
yp	-10496
ipe	-10497
sup	-10498
2004	-10499
libc	-10500
▁rox	-10501
▁boat	-10502
▁smeg	-10503
▁youd	-10504
string	-10505
▁david	-10506
itivity	-10507
▁distur	-10508
▁wester	-10509
▁clearer	-10510
▁encoder	-10511
▁kom	-10512
▁rgb	-10513
pulse	-10514
▁4000	-10515
▁8400	-10516
▁cdrw	-10517
istics	-10518
▁calib	-10519
▁motion	-10520
▁attribut	-10521
▁prefered	-10522
▁authority	-10523
▁iocharset	-10524
▁somehting	-10525
▁translated	-10526
▁accelerator	-10527
rg	-10528
▁dn	-10529
▁slo	-10530
eller	-10531
▁5-10	-10532
▁sioc	-10533
▁wrap	-10534
ething	-10535
▁brack	-10536
▁digit	-10537
▁waits	-10538
▁sanity	-10539
▁sysctl	-10540
astersys	-10541
graphics	-10542
▁rubbish	-10543
▁remaster	-10544
▁malicious	-10545
859	-10546
mac	-10547
msg	-10548
atin	-10549
▁cpp	-10550
▁thi	-10551
about	-10552
elect	-10553
eread	-10554
monad	-10555
------	-10556
▁xbind	-10557
▁excess	-10558
▁juicer	-10559
▁checker	-10560
▁reality	-10561
▁circumst	-10562
▁primarily	-10563
▁practically	-10564
▁nw	-10565
even	-10566
iger	-10567
xtor	-10568
▁dwm	-10569
asted	-10570
▁eats	-10571
▁aterm	-10572
▁unfam	-10573
sparrow	-10574
▁suport	-10575
▁posible	-10576
▁termino	-10577
▁opinions	-10578
▁fundament	-10579
▁crunchbang	-10580
▁remastersys	-10581
04	-10582
cups	-10583
rilo	-10584
grees	-10585
▁woops	-10586
authent	-10587
▁caches	-10588
▁inputs	-10589
▁istall	-10590
▁implies	-10591
▁algorith	-10592
▁informative	-10593
2.3	-10594
agp	-10595
ike	-10596
mpg	-10597
▁acl	-10598
adata	-10599
codes	-10600
emode	-10601
ostro	-10602
▁deli	-10603
▁fart	-10604
▁fqdn	-10605
▁mich	-10606
▁vuze	-10607
▁scare	-10608
▁slocate	-10609
▁customer	-10610
▁greatest	-10611
▁keywords	-10612
▁reverted	-10613
ubuntulinux	-10614
▁performing	-10615
▁backgrounds	-10616
05	-10617
▁fv	-10618
-200	-10619
beta	-10620
▁cud	-10621
scape	-10622
think	-10623
▁phase	-10624
decorator	-10625
▁remounted	-10626
▁seemingly	-10627
▁maintainers	-10628
▁respectively	-10629
39	-10630
wx	-10631
▁3-4	-10632
▁ted	-10633
rence	-10634
▁hero	-10635
▁agian	-10636
▁gurus	-10637
▁signs	-10638
▁shiret	-10639
▁xmonad	-10640
▁offical	-10641
▁confuses	-10642
▁percentage	-10643
▁exclusively	-10644
administration	-10645
hol	-10646
dist	-10647
igns	-10648
▁dch	-10649
▁wok	-10650
▁hist	-10651
bridge	-10652
idence	-10653
▁ahhhh	-10654
▁blows	-10655
▁enlar	-10656
▁guard	-10657
▁spawn	-10658
▁analyzer	-10659
▁ventrilo	-10660
cer	-10661
▁-2	-10662
-11-	-10663
flag	-10664
▁jim	-10665
▁sep	-10666
onfig	-10667
▁trun	-10668
▁screwy	-10669
▁portage	-10670
▁headaches	-10671
▁administer	-10672
▁terminology	-10673
char	-10674
yyyy	-10675
▁btr	-10676
▁nls	-10677
navig	-10678
ornado	-10679
report	-10680
▁dealt	-10681
▁sabay	-10682
-2.6.17	-10683
▁duplex	-10684
▁blindly	-10685
▁targets	-10686
▁forwards	-10687
connection	-10688
freak	-10689
▁finn	-10690
▁udma	-10691
▁bucks	-10692
▁gunzip	-10693
▁jumper	-10694
▁ported	-10695
▁purchased	-10696
-5.1	-10697
atll	-10698
▁3200	-10699
▁htpc	-10700
▁kewl	-10701
▁oooh	-10702
▁ryth	-10703
visual	-10704
▁multit	-10705
▁agpgart	-10706
▁lpadmin	-10707
▁gimpshop	-10708
▁availible	-10709
▁extention	-10710
▁propietary	-10711
also	-10712
▁cpio	-10713
▁rein	-10714
▁rose	-10715
▁wols	-10716
reload	-10717
ructure	-10718
▁interv	-10719
▁unison	-10720
▁counting	-10721
▁bub	-10722
▁sem	-10723
asswd	-10724
▁lite	-10725
▁supr	-10726
resize	-10727
▁autop	-10728
▁scramb	-10729
stations	-10730
▁amounts	-10731
▁pretend	-10732
▁signing	-10733
▁unresol	-10734
▁overlook	-10735
ille	-10736
omla	-10737
entry	-10738
index	-10739
reset	-10740
▁icec	-10741
▁helix	-10742
▁nivida	-10743
▁versus	-10744
▁congrats	-10745
▁fetching	-10746
▁mirrored	-10747
▁warranty	-10748
▁intelligent	-10749
eb	-10750
▁mke	-10751
▁mur	-10752
▁uri	-10753
▁6000	-10754
▁cripp	-10755
▁mines	-10756
▁tower	-10757
▁greeter	-10758
▁noticing	-10759
▁chatzilla	-10760
▁shiretoko	-10761
▁compromised	-10762
08	-10763
dom	-10764
gib	-10765
▁aac	-10766
▁brill	-10767
▁wodim	-10768
virtual	-10769
▁inodes	-10770
▁pinged	-10771
▁strike	-10772
▁adblock	-10773
▁bitlbee	-10774
▁colored	-10775
▁preseed	-10776
▁sourced	-10777
▁unclean	-10778
▁helpfull	-10779
▁ignorant	-10780
▁disregard	-10781
▁keybindings	-10782
▁sensitivity	-10783
fd	-10784
che	-10785
acts	-10786
asma	-10787
duct	-10788
▁dsa	-10789
speed	-10790
▁chek	-10791
▁decl	-10792
▁hiya	-10793
▁pcsp	-10794
demand	-10795
needed	-10796
▁anten	-10797
▁india	-10798
loading	-10799
startup	-10800
▁analys	-10801
▁borrow	-10802
▁slides	-10803
▁dselect	-10804
▁examine	-10805
▁kicking	-10806
▁smoother	-10807
▁foldername	-10808
2-9	-10809
▁aj	-10810
utes	-10811
▁wys	-10812
ander	-10813
found	-10814
▁10.1	-10815
▁bass	-10816
▁prere	-10817
▁shiny	-10818
▁bugging	-10819
▁recheck	-10820
-2.6.15-2	-10821
▁untrusted	-10822
▁traditional	-10823
ght	-10824
amps	-10825
game	-10826
left	-10827
▁8.1	-10828
▁pse	-10829
▁grap	-10830
▁trac	-10831
▁btrfs	-10832
▁stead	-10833
▁decides	-10834
▁libcurl	-10835
▁smbtree	-10836
uninstall	-10837
▁poweroff	-10838
▁obsoleted	-10839
▁subsection	-10840
▁apr	-10841
black	-10842
conky	-10843
compiz	-10844
helper	-10845
hunter	-10846
▁0.0'.	-10847
▁catal	-10848
▁dutch	-10849
foo	-10850
itz	-10851
▁arc	-10852
▁tsc	-10853
runner	-10854
▁flaky	-10855
▁alsactl	-10856
▁consequ	-10857
▁wmaster	-10858
eh	-10859
pu	-10860
▁kv	-10861
itable	-10862
▁burns	-10863
▁upset	-10864
▁consol	-10865
▁joomla	-10866
▁anacron	-10867
▁charset	-10868
▁texlive	-10869
▁vboxusers	-10870
▁periodically	-10871
det	-10872
rog	-10873
tex	-10874
▁rk	-10875
sted	-10876
▁450	-10877
links	-10878
▁baby	-10879
▁hier	-10880
▁ruin	-10881
▁glass	-10882
▁smoke	-10883
▁damned	-10884
▁mkswap	-10885
▁degrees	-10886
▁tearing	-10887
▁compilers	-10888
▁freespace	-10889
▁bittornado	-10890
▁diagnostic	-10891
▁hibernating	-10892
62	-10893
gar	-10894
▁-3	-10895
uuuu	-10896
▁140	-10897
aully	-10898
advant	-10899
▁picky	-10900
netbook	-10901
▁toward	-10902
▁zenity	-10903
discover	-10904
▁convers	-10905
▁western	-10906
navigator	-10907
▁anythign	-10908
▁programname	-10909
▁broadcasting	-10910
show	-10911
▁jet	-10912
gress	-10913
icons	-10914
▁gale	-10915
▁rows	-10916
▁soul	-10917
purple	-10918
▁shape	-10919
▁utter	-10920
▁fourth	-10921
▁portug	-10922
▁optimal	-10923
▁qualified	-10924
▁conclusion	-10925
▁documentroot	-10926
958	-10927
lix	-10928
▁vn	-10929
jpkg	-10930
▁doe	-10931
▁lba	-10932
▁arri	-10933
▁ques	-10934
▁surv	-10935
scribe	-10936
▁hacks	-10937
▁temps	-10938
▁attacks	-10939
▁similer	-10940
▁movement	-10941
▁scrolled	-10942
▁advisable	-10943
▁recomended	-10944
bec	-10945
pae	-10946
4312	-10947
▁17'	-10948
▁xul	-10949
▁kiba	-10950
▁stef	-10951
ointed	-10952
▁cheat	-10953
▁homes	-10954
▁wysiw	-10955
▁sooner	-10956
▁encoded	-10957
▁volunte	-10958
▁downgraded	-10959
▁compatability	-10960
▁couse	-10961
▁grace	-10962
▁token	-10963
▁anyting	-10964
▁cmdline	-10965
▁germany	-10966
-01	-10967
-04	-10968
andon	-10969
▁virt	-10970
▁abstr	-10971
▁galeon	-10972
▁revers	-10973
▁tweaked	-10974
▁metadata	-10975
▁meanwhile	-10976
oin	-10977
sed	-10978
expl	-10979
▁aol	-10980
▁cus	-10981
▁evo	-10982
▁spd	-10983
▁labs	-10984
▁sole	-10985
▁wolf	-10986
▁jesus	-10987
▁rooms	-10988
▁roots	-10989
▁asleep	-10990
▁canada	-10991
▁figures	-10992
▁sabayon	-10993
accessible	-10994
▁backported	-10995
▁statements	-10996
▁registering	-10997
▁workstations	-10998
iu	-10999
gts	-11000
pin	-11001
▁0.7	-11002
▁jun	-11003
▁psu	-11004
▁xyz	-11005
▁slick	-11006
▁piping	-11007
▁portmap	-11008
▁relogin	-11009
interface	-11010
▁capslock	-11011
aux	-11012
aws	-11013
isy	-11014
sub	-11015
▁bak	-11016
▁dab	-11017
▁enh	-11018
▁gthumb	-11019
▁shuttle	-11020
4318	-11021
iles	-11022
nest	-11023
▁30-	-11024
▁fry	-11025
▁getty	-11026
▁reall	-11027
▁robot	-11028
▁pcspkr	-11029
▁savage	-11030
▁erasing	-11031
▁electron	-11032
▁patching	-11033
▁titlebar	-11034
▁disadvant	-11035
▁platforms	-11036
▁attributes	-11037
-07	-11038
zvf	-11039
arus	-11040
ival	-11041
▁una	-11042
▁wre	-11043
ember	-11044
▁bsod	-11045
▁fvwm	-11046
▁slax	-11047
▁tack	-11048
▁ratio	-11049
▁synap	-11050
▁virtu	-11051
▁blinks	-11052
▁namely	-11053
▁10.04.1	-11054
▁winbind	-11055
▁flawless	-11056
▁0.4	-11057
▁hve	-11058
▁mib	-11059
mitted	-11060
turing	-11061
▁thier	-11062
▁matrix	-11063
▁severe	-11064
▁heading	-11065
▁floating	-11066
▁propably	-11067
▁transmit	-11068
▁involving	-11069
▁xbindkeys	-11070
▁masquerade	-11071
▁respective	-11072
▁unfamiliar	-11073
▁difficulties	-11074
47	-11075
ran	-11076
▁ja	-11077
.04-	-11078
ller	-11079
▁22'	-11080
▁fer	-11081
▁ids	-11082
▁moo	-11083
▁pnp	-11084
▁yab	-11085
recurs	-11086
▁esata	-11087
▁libusb	-11088
▁lockup	-11089
▁macosx	-11090
▁offense	-11091
▁summary	-11092
▁suspected	-11093
iel	-11094
▁gh	-11095
atter	-11096
maker	-11097
times	-11098
▁semp	-11099
▁shif	-11100
▁unch	-11101
▁dates	-11102
▁loses	-11103
▁miles	-11104
▁reform	-11105
▁rebuilt	-11106
▁malformed	-11107
▁overnight	-11108
▁complaints	-11109
ecd	-11110
erk	-11111
aing	-11112
aved	-11113
▁pig	-11114
leges	-11115
▁reis	-11116
▁adhoc	-11117
▁yikes	-11118
getting	-11119
▁gforce	-11120
gnutella	-11121
▁inbound	-11122
▁moments	-11123
▁wysiwyg	-11124
▁highlights	-11125
.13	-11126
dav	-11127
egg	-11128
nox	-11129
zed	-11130
-180	-11131
eeze	-11132
▁crow	-11133
▁xlibs	-11134
▁seeking	-11135
▁replicate	-11136
des	-11137
fts	-11138
asel	-11139
▁5.3	-11140
▁ssb	-11141
videa	-11142
▁ebay	-11143
▁equip	-11144
▁holes	-11145
▁ipsec	-11146
▁bugged	-11147
hostname	-11148
▁acquire	-11149
▁rootkit	-11150
▁actively	-11151
▁immediate	-11152
▁mirroring	-11153
▁preparing	-11154
▁privilege	-11155
▁reverting	-11156
▁0.3	-11157
trace	-11158
▁blan	-11159
▁nerd	-11160
▁fewer	-11161
▁kitch	-11162
▁staff	-11163
▁steal	-11164
▁chooser	-11165
▁freakin	-11166
▁satisfy	-11167
▁shebang	-11168
▁afterward	-11169
▁growisofs	-11170
▁fragmentation	-11171
vb	-11172
-06	-11173
ees	-11174
rot	-11175
aten	-11176
cash	-11177
itool	-11178
▁beast	-11179
▁kdesu	-11180
▁spdif	-11181
▁distin	-11182
▁faults	-11183
▁priviledges	-11184
▁8-	-11185
apps	-11186
▁iot	-11187
hibit	-11188
▁missp	-11189
▁myster	-11190
▁poking	-11191
aaaaaaaa	-11192
▁inspect	-11193
▁secured	-11194
▁textfile	-11195
▁tremulous	-11196
▁unfortunate	-11197
blu	-11198
enu	-11199
▁mn	-11200
agre	-11201
bian	-11202
▁sox	-11203
▁zyk	-11204
▁cute	-11205
▁diag	-11206
▁kppp	-11207
author	-11208
▁evdev	-11209
▁promt	-11210
▁monode	-11211
▁nvidea	-11212
▁puzzled	-11213
▁tarballs	-11214
▁specifies	-11215
▁verification	-11216
▁significantly	-11217
▁understandable	-11218
hp	-11219
aus	-11220
etic	-11221
▁pst	-11222
▁reps	-11223
▁trys	-11224
▁bogus	-11225
▁maild	-11226
▁mature	-11227
▁purely	-11228
▁thrott	-11229
▁bridging	-11230
▁globally	-11231
▁blackdown	-11232
▁customers	-11233
▁registers	-11234
▁subfolder	-11235
▁calculator	-11236
▁essentials	-11237
▁transfering	-11238
ito	-11239
azil	-11240
kest	-11241
ubun	-11242
▁rpc	-11243
▁bond	-11244
▁lord	-11245
fiable	-11246
▁falls	-11247
▁rhyth	-11248
timeout	-11249
▁cdroms	-11250
▁bootmgr	-11251
▁hardisk	-11252
▁selling	-11253
▁elements	-11254
▁homework	-11255
▁notifier	-11256
▁simulate	-11257
▁guaranteed	-11258
87	-11259
321	-11260
abl	-11261
wait	-11262
▁aaa	-11263
▁tet	-11264
eness	-11265
▁kden	-11266
▁quic	-11267
▁snow	-11268
▁sore	-11269
▁wasn	-11270
▁gamer	-11271
▁sized	-11272
▁tilda	-11273
warning	-11274
▁continu	-11275
▁handler	-11276
▁useable	-11277
▁oriented	-11278
▁corporate	-11279
▁redirection	-11280
mx	-11281
▁vc	-11282
ship	-11283
▁2.9	-11284
▁kbd	-11285
owing	-11286
▁7200	-11287
▁frid	-11288
▁chart	-11289
▁radar	-11290
▁planet	-11291
platform	-11292
▁familar	-11293
▁tempted	-11294
recursive	-11295
squ	-11296
rete	-11297
▁650	-11298
exper	-11299
howto	-11300
▁ming	-11301
▁warm	-11302
wanted	-11303
message	-11304
▁battle	-11305
▁pastie	-11306
▁permit	-11307
▁optimus	-11308
▁youruser	-11309
▁encrypting	-11310
osd	-11311
▁76	-11312
▁ng	-11313
▁wu	-11314
docs	-11315
ianl	-11316
▁ipp	-11317
▁mcp	-11318
antic	-11319
▁foss	-11320
▁mart	-11321
▁rush	-11322
▁scal	-11323
▁weir	-11324
▁arrays	-11325
▁geting	-11326
▁impact	-11327
▁playon	-11328
▁xfonts	-11329
▁noobish	-11330
▁pertain	-11331
▁adminstr	-11332
▁infinite	-11333
▁someones	-11334
▁expertise	-11335
▁mountable	-11336
▁applicable	-11337
1.2-	-11338
cond	-11339
▁720	-11340
▁xcom	-11341
▁degree	-11342
▁father	-11343
▁lesson	-11344
▁maxtor	-11345
▁rockbox	-11346
▁frontends	-11347
▁seperately	-11348
▁filemanager	-11349
▁monodevelop	-11350
anb	-11351
ook	-11352
rick	-11353
stal	-11354
▁5.5	-11355
▁tks	-11356
dport	-11357
exant	-11358
▁dase	-11359
▁keyb	-11360
▁recur	-11361
▁nagios	-11362
▁ulimit	-11363
firmware	-11364
▁postinst	-11365
▁downstairs	-11366
▁regression	-11367
▁remounting	-11368
.'.	-11369
psk	-11370
▁68	-11371
5200	-11372
asse	-11373
same	-11374
▁tnt	-11375
▁wot	-11376
vable	-11377
▁0222	-11378
▁7000	-11379
▁beac	-11380
▁cake	-11381
▁syst	-11382
▁becas	-11383
▁swith	-11384
▁plasma	-11385
▁yaboot	-11386
▁psmouse	-11387
▁reminds	-11388
▁behaving	-11389
▁breakage	-11390
▁converts	-11391
▁filtered	-11392
▁invoking	-11393
▁safemode	-11394
▁eachother	-11395
▁redirects	-11396
▁scheduled	-11397
▁assignment	-11398
▁frustration	-11399
6.	-11400
cad	-11401
sun	-11402
oker	-11403
okes	-11404
uting	-11405
▁aaah	-11406
▁eleg	-11407
▁wana	-11408
▁hides	-11409
▁tftpd	-11410
acodecs	-11411
▁2.6.11	-11412
▁boards	-11413
▁clears	-11414
▁proces	-11415
▁scream	-11416
▁gnucash	-11417
▁growing	-11418
▁objects	-11419
▁utilize	-11420
▁diferent	-11421
7'	-11422
1.3	-11423
lig	-11424
▁iost	-11425
▁moon	-11426
▁boxee	-11427
▁byobu	-11428
▁slide	-11429
guardian	-11430
▁actuall	-11431
▁dumping	-11432
▁idleone	-11433
▁livecds	-11434
▁blahblah	-11435
▁deselect	-11436
▁intranet	-11437
▁distribute	-11438
▁dualbooting	-11439
▁mountpoints	-11440
▁tgz	-11441
-8859	-11442
▁2222	-11443
▁bank	-11444
▁synp	-11445
hidden	-11446
ledges	-11447
weasel	-11448
▁chick	-11449
▁fills	-11450
▁flame	-11451
▁haveing	-11452
▁noatime	-11453
▁subnets	-11454
▁appropri	-11455
▁ubuntuone	-11456
duo	-11457
esd	-11458
ained	-11459
ereal	-11460
erman	-11461
slash	-11462
▁-2.0	-11463
▁kopt	-11464
▁uber	-11465
▁woot	-11466
broken	-11467
▁paint	-11468
▁bullet	-11469
▁relies	-11470
▁ruined	-11471
▁settle	-11472
launcher	-11473
▁engines	-11474
▁modinfo	-11475
▁proprit	-11476
▁produced	-11477
▁resuming	-11478
49	-11479
into	-11480
▁shm	-11481
boost	-11482
uffle	-11483
▁coin	-11484
▁recy	-11485
▁dammit	-11486
computer	-11487
▁dragged	-11488
▁passive	-11489
▁somesuch	-11490
▁fluxbuntu	-11491
gd	-11492
sv	-11493
spl	-11494
uts	-11495
▁bb	-11496
rint	-11497
spie	-11498
▁19'	-11499
▁xdg	-11500
▁xkb	-11501
would	-11502
▁gona	-11503
parted	-11504
▁china	-11505
▁giant	-11506
▁laying	-11507
▁sfdisk	-11508
▁vorbis	-11509
▁sorting	-11510
▁cellphone	-11511
▁classpath	-11512
▁emulators	-11513
▁seamonkey	-11514
▁compatable	-11515
▁downloader	-11516
ih	-11517
120	-11518
ther	-11519
▁avg	-11520
▁nar	-11521
shome	-11522
▁evms	-11523
▁helo	-11524
▁vood	-11525
▁edges	-11526
▁peeps	-11527
▁sysfs	-11528
▁filing	-11529
▁sucked	-11530
▁realvnc	-11531
▁mousepad	-11532
▁shooting	-11533
▁differnet	-11534
▁customization	-11535
▁international	-11536
ov	-11537
eto	-11538
grx	-11539
▁zd	-11540
azor	-11541
raph	-11542
▁8.2	-11543
lined	-11544
never	-11545
86_64.	-11546
▁autos	-11547
▁faced	-11548
▁unsuc	-11549
▁vsync	-11550
▁desire	-11551
▁ripped	-11552
▁abandon	-11553
▁bitrate	-11554
▁falling	-11555
▁preffer	-11556
▁indexing	-11557
▁kdenlive	-11558
▁brilliant	-11559
▁everthing	-11560
▁finishing	-11561
▁managment	-11562
▁descriptive	-11563
▁satisfiable	-11564
flo	-11565
iest	-11566
▁ads	-11567
▁cit	-11568
▁pvt	-11569
▁aren	-11570
▁qwer	-11571
orphan	-11572
▁spoke	-11573
▁winff	-11574
▁udisks	-11575
▁director	-11576
▁pleasure	-11577
▁relatime	-11578
▁exclusive	-11579
▁reachable	-11580
▁scrambled	-11581
▁automounts	-11582
▁keystrokes	-11583
▁requesting	-11584
▁suspending	-11585
▁identifying	-11586
bie	-11587
uit	-11588
ulu	-11589
▁ctr	-11590
▁mgr	-11591
▁nit	-11592
▁pec	-11593
otick	-11594
table	-11595
▁rain	-11596
▁excel	-11597
▁halts	-11598
▁hedge	-11599
▁urban	-11600
ception	-11601
▁refres	-11602
▁mystery	-11603
▁texture	-11604
▁projector	-11605
▁symlinked	-11606
sr	-11607
'97	-11608
.1-	-11609
equ	-11610
mand	-11611
▁ray	-11612
eroot	-11613
river	-11614
umber	-11615
▁zope	-11616
▁dasei	-11617
▁plugs	-11618
▁quota	-11619
▁tehre	-11620
-2.6.12	-11621
▁libata	-11622
▁reside	-11623
▁subsequ	-11624
alsamixer	-11625
▁dependec	-11626
▁exported	-11627
▁unneeded	-11628
▁worrying	-11629
extracodecs	-11630
▁recommending	-11631
▁circumstances	-11632
▁72	-11633
▁wp	-11634
ades	-11635
▁mum	-11636
▁pys	-11637
▁tul	-11638
▁whe	-11639
etime	-11640
▁hdtv	-11641
▁uhhh	-11642
trying	-11643
▁-----	-11644
▁jason	-11645
▁icecast	-11646
▁sunbird	-11647
▁untouch	-11648
▁geometry	-11649
▁performs	-11650
▁messaging	-11651
▁playonlinux	-11652
ards	-11653
camp	-11654
remo	-11655
▁hai	-11656
▁igp	-11657
beros	-11658
gable	-11659
▁7300	-11660
▁gett	-11661
▁mood	-11662
▁viol	-11663
graded	-11664
▁effic	-11665
▁snort	-11666
▁expose	-11667
▁guests	-11668
▁silver	-11669
atically	-11670
▁sempron	-11671
▁libmysql	-11672
▁harddisks	-11673
▁instructed	-11674
▁understands	-11675
0.9	-11676
aft	-11677
bon	-11678
lty	-11679
▁77	-11680
3100	-11681
▁ears	-11682
▁eror	-11683
▁rack	-11684
▁pygtk	-11685
▁soooo	-11686
▁remedy	-11687
▁granted	-11688
▁toolkit	-11689
▁glitches	-11690
▁listings	-11691
▁naturally	-11692
▁portugues	-11693
▁subdomain	-11694
101	-11695
ael	-11696
cor	-11697
uiz	-11698
▁ew	-11699
ures	-11700
▁791	-11701
▁dex	-11702
▁thu	-11703
▁adam	-11704
▁cash	-11705
▁pink	-11706
▁rear	-11707
channel	-11708
▁probel	-11709
▁outcome	-11710
▁unzipped	-11711
▁migrating	-11712
▁recognises	-11713
-05	-11714
orig	-11715
▁gmt	-11716
▁jst	-11717
▁mit	-11718
▁rum	-11719
▁hire	-11720
▁hpfs	-11721
▁mmmm	-11722
▁peek	-11723
▁piii	-11724
▁trip	-11725
▁scrib	-11726
devices	-11727
▁magnet	-11728
▁reveal	-11729
▁traces	-11730
▁becasue	-11731
bluetooth	-11732
▁vanished	-11733
▁zykotick	-11734
▁discussing	-11735
▁terminator	-11736
▁motherboards	-11737
4306	-11738
8169	-11739
abet	-11740
▁4.7	-11741
▁evry	-11742
▁void	-11743
garden	-11744
▁blabla	-11745
▁briefly	-11746
▁discour	-11747
▁iptable	-11748
▁jumpers	-11749
▁trashed	-11750
▁verison	-11751
▁undelete	-11752
▁recordmydesktop	-11753
mie	-11754
▁nmb	-11755
samba	-11756
▁8500	-11757
▁odds	-11758
▁opps	-11759
▁sory	-11760
▁spaw	-11761
▁allot	-11762
▁appar	-11763
▁bingo	-11764
▁spoof	-11765
▁whack	-11766
▁credit	-11767
▁runnign	-11768
▁kerberos	-11769
▁triggers	-11770
▁aparently	-11771
▁philosophy	-11772
aj	-11773
away	-11774
▁ith	-11775
▁sue	-11776
▁dkpg	-11777
▁hose	-11778
provid	-11779
▁conen	-11780
▁decode	-11781
▁killer	-11782
▁pakage	-11783
▁unsafe	-11784
▁delayed	-11785
▁equally	-11786
▁iceroot	-11787
▁mission	-11788
▁vendors	-11789
▁neighbor	-11790
▁ondemand	-11791
▁defragment	-11792
▁propritary	-11793
83	-11794
oz	-11795
chm	-11796
▁scd	-11797
coded	-11798
xfree	-11799
▁ampl	-11800
▁eyec	-11801
efault	-11802
intosh	-11803
radeon	-11804
▁flgrx	-11805
▁packe	-11806
missing	-11807
▁loging	-11808
▁voodoo	-11809
▁mailbox	-11810
▁menubar	-11811
▁userdir	-11812
▁vinagre	-11813
▁securely	-11814
▁parallels	-11815
▁transferred	-11816
▁troublesome	-11817
cgi	-11818
upt	-11819
▁ai	-11820
-16-	-11821
brew	-11822
find	-11823
jour	-11824
perm	-11825
redy	-11826
udge	-11827
▁saa	-11828
▁arab	-11829
▁thog	-11830
▁woah	-11831
verify	-11832
▁camer	-11833
▁contr	-11834
▁gears	-11835
▁infos	-11836
▁vsftp	-11837
conkyrc	-11838
extract	-11839
ichrome	-11840
▁brazil	-11841
activate	-11842
▁permision	-11843
▁verifying	-11844
▁dhcpdiscover	-11845
713	-11846
dam	-11847
sty	-11848
▁.1	-11849
▁5'	-11850
▁vob	-11851
▁5500	-11852
▁bleh	-11853
▁awake	-11854
▁intergr	-11855
▁moniter	-11856
▁adresses	-11857
▁automagic	-11858
▁paragraph	-11859
▁fragmented	-11860
▁indicating	-11861
▁aplications	-11862
sg	-11863
ema	-11864
ppa	-11865
sdk	-11866
won	-11867
1400	-11868
lite	-11869
naut	-11870
pent	-11871
wing	-11872
▁ric	-11873
itary	-11874
▁stuf	-11875
▁usin	-11876
▁xfix	-11877
▁sheet	-11878
▁woody	-11879
▁cookie	-11880
▁halted	-11881
▁america	-11882
▁knetwork	-11883
▁usability	-11884
sim	-11885
desk	-11886
omer	-11887
▁mtr	-11888
▁oce	-11889
▁ven	-11890
emens	-11891
▁emes	-11892
▁gear	-11893
▁snmp	-11894
appers	-11895
▁nexuiz	-11896
▁retrie	-11897
▁strugg	-11898
▁compact	-11899
▁survive	-11900
▁claiming	-11901
▁ethereal	-11902
▁indirect	-11903
▁informed	-11904
▁addressed	-11905
▁increased	-11906
▁resolvconf	-11907
▁streamtuner	-11908
flv	-11909
vous	-11910
wlan	-11911
▁mdf	-11912
▁nik	-11913
archy	-11914
▁2600	-11915
▁exha	-11916
▁grabs	-11917
▁guitar	-11918
▁monkey	-11919
▁relate	-11920
▁vector	-11921
▁adjusted	-11922
▁conexant	-11923
mtp	-11924
sus	-11925
▁wt	-11926
-100	-11927
▁770	-11928
▁amp	-11929
▁gay	-11930
actly	-11931
games	-11932
obile	-11933
▁7500	-11934
▁dans	-11935
▁plans	-11936
▁respa	-11937
▁sourc	-11938
▁concur	-11939
▁defines	-11940
▁reaches	-11941
▁releasing	-11942
▁firewalled	-11943
▁unexpectedly	-11944
nr	-11945
mmv	-11946
ttf	-11947
-1.9	-11948
pmgr	-11949
▁eek	-11950
▁toy	-11951
▁vag	-11952
▁cart	-11953
▁libv	-11954
▁mast	-11955
aneous	-11956
ignore	-11957
▁persp	-11958
▁somed	-11959
▁confir	-11960
▁unhide	-11961
▁ushare	-11962
▁yessir	-11963
izations	-11964
▁accross	-11965
▁myspace	-11966
▁subdirs	-11967
▁chatroom	-11968
▁methinks	-11969
▁equipment	-11970
▁screenlet	-11971
▁untouched	-11972
▁manufacture	-11973
02	-11974
ends	-11975
▁10.	-11976
▁aqu	-11977
▁cru	-11978
▁ffs	-11979
▁lyx	-11980
▁wed	-11981
alloc	-11982
engine	-11983
normal	-11984
▁infer	-11985
▁whirl	-11986
▁awsome	-11987
▁matrox	-11988
▁owners	-11989
▁perfer	-11990
▁appname	-11991
▁imaging	-11992
▁privacy	-11993
▁mistyped	-11994
▁bootstrap	-11995
▁christmas	-11996
▁nomachine	-11997
▁contribute	-11998
▁initscript	-11999
▁appropriately	-12000
▁tightvncserver	-12001
▁-4	-12002
ilty	-12003
logd	-12004
▁003	-12005
▁oyu	-12006
▁unk	-12007
emacs	-12008
▁2002	-12009
▁cour	-12010
▁halp	-12011
▁ymmv	-12012
adress	-12013
▁meter	-12014
▁puter	-12015
rectory	-12016
▁metric	-12017
▁quanta	-12018
▁concent	-12019
▁himself	-12020
▁bandwith	-12021
▁disaster	-12022
▁diskspace	-12023
▁externally	-12024
who	-12025
empt	-12026
paul	-12027
shit	-12028
▁950	-12029
▁ink	-12030
▁pda	-12031
opard	-12032
▁blew	-12033
▁prec	-12034
master	-12035
option	-12036
▁10-15	-12037
▁forms	-12038
▁grate	-12039
▁seven	-12040
service	-12041
▁mshome	-12042
defaults	-12043
▁eyecandy	-12044
▁gnutella	-12045
▁peripher	-12046
astructure	-12047
▁australia	-12048
▁aplication	-12049
▁remembering	-12050
▁improvements	-12051
▁authorization	-12052
▁tg	-12053
▁cdr	-12054
▁dia	-12055
▁flu	-12056
berry	-12057
▁6150	-12058
▁texas	-12059
▁acknow	-12060
▁crypto	-12061
▁qwerty	-12062
▁totaly	-12063
▁dollars	-12064
▁phpinfo	-12065
▁reverts	-12066
▁segment	-12067
▁stutter	-12068
▁acceller	-12069
▁material	-12070
▁presently	-12071
▁unichrome	-12072
▁mysqladmin	-12073
▁rosegarden	-12074
▁accessibility	-12075
zb	-12076
▁ws	-12077
izon	-12078
▁aww	-12079
▁blob	-12080
▁gift	-12081
▁uhci	-12082
▁busid	-12083
▁genii	-12084
▁zeros	-12085
account	-12086
formats	-12087
however	-12088
▁bootcamp	-12089
javaplugin	-12090
▁printscreen	-12091
▁ux	-12092
poll	-12093
▁glo	-12094
▁hug	-12095
▁isc	-12096
▁swt	-12097
proof	-12098
xchat	-12099
▁9250	-12100
▁devic	-12101
▁fried	-12102
▁loged	-12103
▁proble	-12104
▁gallery	-12105
▁readers	-12106
▁brackets	-12107
▁synpatic	-12108
▁toolbars	-12109
▁unwanted	-12110
▁upstairs	-12111
▁megabytes	-12112
▁scheduler	-12113
▁selections	-12114
nk	-12115
mart	-12116
verb	-12117
zzzz	-12118
▁cel	-12119
▁cro	-12120
▁dip	-12121
▁dnt	-12122
▁2400	-12123
▁cafe	-12124
▁feas	-12125
haring	-12126
vision	-12127
▁loops	-12128
applets	-12129
▁height	-12130
▁invite	-12131
▁talkin	-12132
▁antenna	-12133
▁kcontrol	-12134
▁importing	-12135
▁destroying	-12136
▁impressive	-12137
▁specifications	-12138
-08	-12139
lat	-12140
▁ea	-12141
▁ov	-12142
edid	-12143
gggg	-12144
▁aval	-12145
▁etho	-12146
▁kwin	-12147
▁aight	-12148
▁aprop	-12149
▁ocean	-12150
▁remap	-12151
▁turion	-12152
▁deskbar	-12153
▁elegant	-12154
▁emesene	-12155
▁someway	-12156
▁expanded	-12157
▁interval	-12158
▁suprised	-12159
everything	-12160
▁calculate	-12161
▁refreshing	-12162
▁perspective	-12163
3.1	-12164
bel	-12165
gam	-12166
hrs	-12167
fing	-12168
qemu	-12169
▁ufs	-12170
▁ints	-12171
▁scun	-12172
▁volt	-12173
▁lauch	-12174
▁loved	-12175
chooser	-12176
scanner	-12177
▁dinner	-12178
keyboard	-12179
▁inbuilt	-12180
▁stalled	-12181
▁tedious	-12182
evolution	-12183
▁floodbot	-12184
▁grepping	-12185
▁quickest	-12186
▁rollback	-12187
▁tsclient	-12188
▁xcompmgr	-12189
▁backslash	-12190
▁indicated	-12191
▁speedstep	-12192
xv	-12193
-21	-12194
lad	-12195
sto	-12196
▁dp	-12197
anth	-12198
▁190	-12199
▁771	-12200
▁aug	-12201
▁ave	-12202
▁gri	-12203
▁han	-12204
▁nad	-12205
▁1001	-12206
▁nfts	-12207
▁zxvf	-12208
omatic	-12209
▁fellow	-12210
▁novell	-12211
▁octave	-12212
▁social	-12213
▁cooling	-12214
▁squeeze	-12215
▁hedgehog	-12216
▁trailing	-12217
▁navigator	-12218
58	-12219
izi	-12220
▁cg	-12221
elly	-12222
▁dav	-12223
86-64	-12224
aimed	-12225
trans	-12226
▁geez	-12227
▁thks	-12228
splash	-12229
▁brick	-12230
▁okies	-12231
▁suits	-12232
console	-12233
▁hammer	-12234
▁libpng	-12235
▁ripper	-12236
▁drastic	-12237
▁excited	-12238
▁limiting	-12239
▁synaptec	-12240
compatible	-12241
▁licensing	-12242
environment	-12243
rif	-12244
gzoo	-12245
ilar	-12246
▁240	-12247
▁4.5	-12248
▁sno	-12249
▁yrs	-12250
cious	-12251
might	-12252
import	-12253
nvidia	-12254
▁chris	-12255
▁hurts	-12256
▁thoug	-12257
▁tulip	-12258
▁2.6.22	-12259
▁blurry	-12260
▁jumped	-12261
▁reread	-12262
▁dekstop	-12263
▁nothign	-12264
▁science	-12265
▁verizon	-12266
▁probable	-12267
▁productive	-12268
▁consumption	-12269
dot	-12270
rub	-12271
rus	-12272
dont	-12273
long	-12274
▁aur	-12275
▁tax	-12276
cairo	-12277
▁5901	-12278
▁dive	-12279
▁pand	-12280
▁rant	-12281
associ	-12282
▁avast	-12283
▁coudl	-12284
▁heaps	-12285
▁seams	-12286
▁spins	-12287
▁2.6.38	-12288
▁campus	-12289
▁pastes	-12290
▁nightly	-12291
▁penguin	-12292
▁migrated	-12293
▁repairing	-12294
▁duplicates	-12295
▁foreground	-12296
▁redirecting	-12297
▁autodetected	-12298
utal	-12299
▁bite	-12300
▁feet	-12301
▁grup	-12302
▁inot	-12303
▁xeon	-12304
▁rubyg	-12305
▁hcitool	-12306
▁maildir	-12307
▁reenable	-12308
▁resulted	-12309
▁deborphan	-12310
▁toolchain	-12311
▁hyperthread	-12312
▁inaccessible	-12313
67	-12314
yl	-12315
ipv	-12316
kar	-12317
raf	-12318
tom	-12319
abel	-12320
akey	-12321
▁040	-12322
▁arn	-12323
▁caf	-12324
▁csh	-12325
▁jee	-12326
▁rly	-12327
▁tah	-12328
iving	-12329
sting	-12330
▁boom	-12331
▁elev	-12332
▁fade	-12333
▁pear	-12334
▁feeds	-12335
▁fired	-12336
▁timid	-12337
▁vmnet	-12338
▁noting	-12339
▁werent	-12340
▁chkroot	-12341
▁differs	-12342
▁nvidias	-12343
▁underst	-12344
▁secondly	-12345
▁discussed	-12346
bra	-12347
▁hs	-12348
days	-12349
yeah	-12350
▁ale	-12351
▁roy	-12352
odate	-12353
▁worm	-12354
▁exept	-12355
▁metal	-12356
▁peace	-12357
▁stdio	-12358
▁autofs	-12359
▁bundled	-12360
▁frogzoo	-12361
▁invoked	-12362
▁downside	-12363
▁emulated	-12364
▁mkinitrd	-12365
▁optimize	-12366
▁rkhunter	-12367
▁groupname	-12368
buildpackage	-12369
▁passwordless	-12370
ori	-12371
ique	-12372
▁chm	-12373
▁sdx	-12374
▁gosh	-12375
▁gprs	-12376
▁hola	-12377
applic	-12378
▁belie	-12379
▁relax	-12380
▁stale	-12381
▁wreck	-12382
meeting	-12383
▁exclud	-12384
▁loving	-12385
▁bottlen	-12386
▁indexes	-12387
▁keycode	-12388
▁restate	-12389
▁avoiding	-12390
▁overview	-12391
▁artifacts	-12392
▁wildcards	-12393
▁comprehensive	-12394
▁repartitioning	-12395
gbs	-12396
▁ez	-12397
sert	-12398
▁ava	-12399
▁kay	-12400
▁nov	-12401
▁zim	-12402
alias	-12403
break	-12404
otate	-12405
storm	-12406
▁succ	-12407
▁zend	-12408
▁grave	-12409
▁hopes	-12410
▁risks	-12411
▁thnks	-12412
▁vostro	-12413
nautilus	-12414
▁friggin	-12415
▁goodness	-12416
▁policies	-12417
▁rendered	-12418
▁devilspie	-12419
▁thumbnail	-12420
▁curiousity	-12421
▁priveleges	-12422
▁webbrowser	-12423
▁corresponds	-12424
▁filesharing	-12425
5_0	-12426
bcd	-12427
▁hv	-12428
9999	-12429
ondu	-12430
ston	-12431
▁cfg	-12432
▁coo	-12433
▁baff	-12434
▁chun	-12435
▁june	-12436
▁tony	-12437
juicer	-12438
▁indus	-12439
▁meerk	-12440
compile	-12441
▁noises	-12442
▁placing	-12443
▁planned	-12444
▁scunizi	-12445
▁watched	-12446
▁2.6.35-2	-12447
▁isolinux	-12448
multiverse	-12449
▁definitions	-12450
▁unformatted	-12451
3_	-12452
57	-12453
hot	-12454
oon	-12455
opy	-12456
deny	-12457
edev	-12458
▁knw	-12459
▁mun	-12460
▁nbr	-12461
cards	-12462
▁guyz	-12463
▁outs	-12464
▁chunk	-12465
▁stefg	-12466
ackages	-12467
▁beeping	-12468
▁leopard	-12469
▁xulrunner	-12470
▁2.6.22-14-	-12471
▁identifies	-12472
▁navigating	-12473
▁postscript	-12474
▁interaction	-12475
69	-12476
320	-12477
wrap	-12478
▁feh	-12479
▁gad	-12480
virus	-12481
▁9550	-12482
elines	-12483
struct	-12484
▁10000	-12485
▁moron	-12486
▁meerkat	-12487
▁smallest	-12488
▁uvcvideo	-12489
▁semicondu	-12490
fsg	-12491
2.4-	-12492
▁855	-12493
▁ano	-12494
▁lug	-12495
▁pet	-12496
amond	-12497
chunk	-12498
▁1152	-12499
apshot	-12500
▁abuse	-12501
▁aptit	-12502
▁gtalk	-12503
▁kqemu	-12504
ldonkey	-12505
ulating	-12506
▁chattr	-12507
▁jackal	-12508
▁robust	-12509
▁scanners	-12510
▁instaling	-12511
▁multicast	-12512
▁allocation	-12513
▁preferable	-12514
▁statistics	-12515
▁association	-12516
▁recognition	-12517
▁initialization	-12518
▁2-	-12519
▁86	-12520
ablo	-12521
▁eric	-12522
▁vast	-12523
▁chill	-12524
issions	-12525
▁gnomes	-12526
▁logoff	-12527
▁remake	-12528
▁served	-12529
▁equivil	-12530
▁sounding	-12531
▁termianl	-12532
▁capturing	-12533
▁programms	-12534
▁spreadshe	-12535
▁clearlooks	-12536
▁mailserver	-12537
▁diagnostics	-12538
▁descriptions	-12539
8'	-12540
dle	-12541
idi	-12542
iff	-12543
▁7'	-12544
▁nf	-12545
▁rd	-12546
ader	-12547
▁sof	-12548
▁sse	-12549
quiet	-12550
▁3306	-12551
▁logr	-12552
dering	-12553
▁miser	-12554
▁artist	-12555
▁dvdrom	-12556
ificates	-12557
▁dialogs	-12558
▁insatll	-12559
▁cracking	-12560
passphrase	-12561
ua	-12562
aed	-12563
made	-12564
rink	-12565
▁965	-12566
▁aid	-12567
▁wud	-12568
ricks	-12569
▁9999	-12570
▁kool	-12571
▁miro	-12572
▁spat	-12573
▁zcat	-12574
-1_5_0	-12575
▁appli	-12576
▁instl	-12577
▁peers	-12578
▁trunc	-12579
aliable	-12580
▁polish	-12581
▁tinker	-12582
upgraded	-12583
▁bothers	-12584
▁webmail	-12585
▁remembers	-12586
▁modulename	-12587
architecture	-12588
▁sucessfully	-12589
360	-12590
850	-12591
elf	-12592
hdd	-12593
▁ud	-12594
▁yr	-12595
fuly	-12596
inet	-12597
late	-12598
pcap	-12599
▁ies	-12600
▁unh	-12601
daily	-12602
matic	-12603
▁4200	-12604
▁acct	-12605
▁evey	-12606
▁magn	-12607
▁pine	-12608
▁plac	-12609
attach	-12610
▁gnupg	-12611
▁updat	-12612
▁winex	-12613
convert	-12614
▁debain	-12615
▁viewed	-12616
▁endless	-12617
▁numeric	-12618
▁charging	-12619
▁motorola	-12620
▁assistant	-12621
▁extensive	-12622
▁determines	-12623
dbg	-12624
gie	-12625
hmm	-12626
▁sex	-12627
▁tia	-12628
▁food	-12629
▁lend	-12630
▁wack	-12631
▁daugh	-12632
▁slice	-12633
cessary	-12634
▁varies	-12635
▁hwclock	-12636
▁insists	-12637
▁silicon	-12638
▁surface	-12639
▁variety	-12640
▁worthless	-12641
▁192.168.1.	-12642
hk	-12643
aud	-12644
ando	-12645
▁4-5	-12646
oward	-12647
▁canc	-12648
▁genu	-12649
▁herd	-12650
▁moot	-12651
asking	-12652
burner	-12653
▁amazed	-12654
▁noobie	-12655
▁theirs	-12656
missions	-12657
▁guesses	-12658
▁nervous	-12659
▁animated	-12660
▁rubygems	-12661
▁starcraft	-12662
▁whitelist	-12663
▁deactivated	-12664
▁semiconductor	-12665
4_	-12666
ij	-12667
nm	-12668
010	-12669
▁79	-12670
iler	-12671
logo	-12672
▁acr	-12673
▁gal	-12674
▁konq	-12675
▁sarc	-12676
monkey	-12677
▁cmake	-12678
▁slown	-12679
verbose	-12680
▁alredy	-12681
▁glance	-12682
▁pseudo	-12683
▁stanza	-12684
▁untick	-12685
▁appeare	-12686
▁vboxdrv	-12687
▁192.168.1	-12688
▁portuguese	-12689
hg	-12690
-02	-12691
▁jb	-12692
▁ka	-12693
tttt	-12694
▁130	-12695
▁cad	-12696
▁exs	-12697
▁gbs	-12698
▁hae	-12699
▁tft	-12700
-----	-12701
apter	-12702
chart	-12703
▁alas	-12704
▁mond	-12705
▁adven	-12706
▁alike	-12707
▁ipmasq	-12708
▁mathem	-12709
snapshot	-12710
▁buddies	-12711
▁caution	-12712
▁kdebase	-12713
▁confirms	-12714
▁hardwire	-12715
▁valuable	-12716
▁dimension	-12717
azz	-12718
▁6.1	-12719
▁mtp	-12720
▁uss	-12721
frame	-12722
▁gunt	-12723
▁hulu	-12724
▁netf	-12725
▁paul	-12726
▁rend	-12727
verter	-12728
▁elses	-12729
▁macro	-12730
▁memor	-12731
▁summer	-12732
▁easytag	-12733
▁lookups	-12734
▁assembly	-12735
▁variants	-12736
▁exporting	-12737
▁logrotate	-12738
▁unsuccess	-12739
▁virtualhost	-12740
311	-12741
irq	-12742
uer	-12743
gian	-12744
orent	-12745
vimrc	-12746
▁fest	-12747
▁gnea	-12748
▁multis	-12749
▁takers	-12750
▁widely	-12751
▁xinput	-12752
▁artwork	-12753
▁netowrk	-12754
▁pending	-12755
▁stations	-12756
▁dissapeared	-12757
440	-12758
lemm	-12759
uego	-12760
▁bod	-12761
stack	-12762
▁subs	-12763
▁tour	-12764
▁west	-12765
▁atapi	-12766
▁iotop	-12767
▁mknod	-12768
▁rigth	-12769
▁scand	-12770
▁beware	-12771
▁edbian	-12772
▁helpme	-12773
▁insult	-12774
▁nessus	-12775
▁suspic	-12776
▁chooses	-12777
▁classes	-12778
▁lockups	-12779
▁probing	-12780
modaliases	-12781
▁interpreted	-12782
▁savedefault	-12783
▁informations	-12784
.22	-12785
gid	-12786
had	-12787
▁jp	-12788
iable	-12789
rules	-12790
▁6.04	-12791
▁fwiw	-12792
▁nali	-12793
▁tmux	-12794
berish	-12795
ptions	-12796
▁1.0.7	-12797
▁hated	-12798
▁toast	-12799
▁voila	-12800
▁instll	-12801
▁lasted	-12802
▁pendri	-12803
▁treated	-12804
▁rotating	-12805
▁textmode	-12806
▁libnotify	-12807
▁chkrootkit	-12808
▁extraction	-12809
▁customizable	-12810
iva	-12811
walk	-12812
▁cms	-12813
▁wig	-12814
field	-12815
ional	-12816
ertain	-12817
intern	-12818
▁afric	-12819
▁hellow	-12820
▁respos	-12821
▁tzdata	-12822
appiness	-12823
▁reserve	-12824
▁usbcore	-12825
▁wrongly	-12826
▁laserjet	-12827
▁generator	-12828
▁masquerading	-12829
blk	-12830
kind	-12831
▁104	-12832
▁dit	-12833
usive	-12834
▁fond	-12835
▁mous	-12836
▁grasp	-12837
▁sparc	-12838
▁connet	-12839
▁idiots	-12840
▁suffix	-12841
▁webdav	-12842
▁freedos	-12843
▁operand	-12844
▁selects	-12845
▁grateful	-12846
▁millions	-12847
▁makefiles	-12848
▁frequencies	-12849
-2.4	-12850
cifs	-12851
illo	-12852
ivel	-12853
stype	-12854
▁misc	-12855
▁nail	-12856
▁cyber	-12857
▁girls	-12858
claimed	-12859
▁userid	-12860
aldomain	-12861
▁enlarge	-12862
▁continuous	-12863
▁windowmanager	-12864
.19	-12865
ota	-12866
▁.2	-12867
gold	-12868
iong	-12869
▁hab	-12870
▁tan	-12871
oured	-12872
▁0.0'	-12873
▁epic	-12874
▁insu	-12875
▁recc	-12876
▁chuck	-12877
▁devfs	-12878
▁drunk	-12879
▁errno	-12880
▁jedit	-12881
▁hungry	-12882
▁ompaul	-12883
▁reffer	-12884
▁assigns	-12885
▁botched	-12886
▁claimed	-12887
▁freezed	-12888
▁someday	-12889
▁erroring	-12890
▁slowdown	-12891
▁slowness	-12892
▁defaulted	-12893
▁templates	-12894
▁triggered	-12895
▁descriptor	-12896
▁expressions	-12897
▁initialized	-12898
63	-12899
-96	-12900
.0_	-12901
432	-12902
ney	-12903
gate	-12904
▁nav	-12905
▁nin	-12906
▁rww	-12907
▁ure	-12908
oding	-12909
words	-12910
▁cact	-12911
▁repa	-12912
curses	-12913
outing	-12914
▁arena	-12915
▁drink	-12916
▁dudes	-12917
▁heats	-12918
▁hitch	-12919
▁ioctl	-12920
▁thick	-12921
▁whant	-12922
▁young	-12923
request	-12924
▁gmount	-12925
▁awkward	-12926
▁cameras	-12927
▁gamepad	-12928
▁siemens	-12929
▁ddcprobe	-12930
▁oldconfig	-12931
▁pavillion	-12932
▁powerfull	-12933
▁reinstalls	-12934
▁downloadable	-12935
▁infrastructure	-12936
▁ej	-12937
uage	-12938
▁kar	-12939
▁oic	-12940
▁ppd	-12941
▁ttl	-12942
▁wes	-12943
▁yast	-12944
logger	-12945
▁crawl	-12946
▁evalu	-12947
▁pipes	-12948
▁sight	-12949
▁unatt	-12950
▁vital	-12951
artwork	-12952
because	-12953
looking	-12954
xserver	-12955
▁budget	-12956
▁chanel	-12957
▁trojan	-12958
▁unreli	-12959
existing	-12960
▁nalioth	-12961
▁serpent	-12962
▁guntbert	-12963
▁propriat	-12964
▁timidity	-12965
▁improperly	-12966
▁vulnerable	-12967
▁intermittent	-12968
wt	-12969
520	-12970
▁ml	-12971
flac	-12972
lest	-12973
▁bag	-12974
▁ger	-12975
uenig	-12976
▁6667	-12977
▁righ	-12978
▁skel	-12979
▁woke	-12980
rently	-12981
▁frets	-12982
▁inbox	-12983
▁hanged	-12984
▁soreau	-12985
▁bruenig	-12986
▁doesnot	-12987
▁shipping	-12988
▁principle	-12989
md	-12990
hoo	-12991
arly	-12992
oded	-12993
oder	-12994
unct	-12995
▁7.4	-12996
▁hol	-12997
▁lou	-12998
▁mmc	-12999
▁sne	-13000
▁town	-13001
cacher	-13002
reader	-13003
▁datac	-13004
▁retype	-13005
▁terror	-13006
▁flashed	-13007
▁irqpoll	-13008
▁alphabet	-13009
▁children	-13010
▁definitly	-13011
▁snapshots	-13012
▁xorgconfig	-13013
-'	-13014
▁3-	-13015
▁hg	-13016
▁pp	-13017
ptic	-13018
▁101	-13019
▁inn	-13020
shift	-13021
▁8000	-13022
▁blown	-13023
▁doest	-13024
▁freec	-13025
▁monit	-13026
▁rausb	-13027
limited	-13028
▁freely	-13029
▁gyachi	-13030
▁insall	-13031
▁monday	-13032
▁marking	-13033
▁shuffle	-13034
▁mldonkey	-13035
▁somwhere	-13036
-2.6.22-14-	-13037
▁referencing	-13038
pw	-13039
xs	-13040
sis	-13041
▁62	-13042
▁71	-13043
▁74	-13044
▁rp	-13045
antu	-13046
icky	-13047
rite	-13048
uter	-13049
▁doo	-13050
▁gif	-13051
ology	-13052
▁11.4	-13053
▁4965	-13054
▁cast	-13055
▁cruc	-13056
▁ides	-13057
▁tyvm	-13058
▁align	-13059
▁mingw	-13060
▁poker	-13061
▁relog	-13062
▁arabic	-13063
▁bchunk	-13064
▁ticket	-13065
faulting	-13066
▁altough	-13067
▁captive	-13068
▁coincid	-13069
▁engineer	-13070
▁vmplayer	-13071
▁windowed	-13072
▁avaliable	-13073
▁migration	-13074
▁blackberry	-13075
▁persistence	-13076
▁registration	-13077
79	-13078
3.0	-13079
bob	-13080
ivi	-13081
okay	-13082
uuid	-13083
▁-15	-13084
▁444	-13085
▁cub	-13086
▁feb	-13087
cmail	-13088
icted	-13089
▁9500	-13090
▁xpdf	-13091
▁1.0.4	-13092
▁dated	-13093
▁impat	-13094
▁django	-13095
▁indust	-13096
▁2.6.27-	-13097
▁probelm	-13098
▁concerns	-13099
▁installl	-13100
▁likewise	-13101
▁plaintext	-13102
▁simplicity	-13103
▁splashscreen	-13104
thx	-13105
▁ios	-13106
▁nes	-13107
oster	-13108
▁4318	-13109
▁rhyt	-13110
▁spir	-13111
▁inapp	-13112
▁north	-13113
▁norwe	-13114
▁overs	-13115
▁stone	-13116
▁stylus	-13117
▁recycle	-13118
▁mountall	-13119
▁organize	-13120
▁painless	-13121
▁notebooks	-13122
▁organized	-13123
▁transform	-13124
▁everythign	-13125
▁introduced	-13126
▁interfering	-13127
▁pastebinned	-13128
▁libmysqlclient	-13129
3.4	-13130
350	-13131
6.2	-13132
ctu	-13133
▁wn	-13134
-4.1	-13135
gged	-13136
vesa	-13137
▁tid	-13138
menus	-13139
▁spca	-13140
reboot	-13141
▁chess	-13142
▁ooooo	-13143
▁squir	-13144
▁8.04.2	-13145
▁debate	-13146
▁dvdrip	-13147
▁sebseb	-13148
▁billion	-13149
▁cryptic	-13150
▁deciding	-13151
▁powering	-13152
▁connectors	-13153
▁fontconfig	-13154
▁overclocking	-13155
uy	-13156
860	-13157
wma	-13158
▁84	-13159
▁xc	-13160
-686-	-13161
▁1234	-13162
▁anon	-13163
▁film	-13164
racted	-13165
▁loves	-13166
▁progr	-13167
engines	-13168
printer	-13169
▁synced	-13170
ulations	-13171
▁analyze	-13172
▁arround	-13173
▁shadows	-13174
▁frequent	-13175
▁checkboxes	-13176
▁continuing	-13177
▁systemwide	-13178
▁synchronize	-13179
kl	-13180
oob	-13181
▁94	-13182
lags	-13183
orad	-13184
▁mud	-13185
ashed	-13186
atalk	-13187
itate	-13188
spire	-13189
▁ency	-13190
▁enum	-13191
▁ibus	-13192
▁mailx	-13193
▁witht	-13194
▁expans	-13195
▁overly	-13196
▁tought	-13197
▁wicked	-13198
activity	-13199
checking	-13200
▁crucial	-13201
▁defunct	-13202
▁folding	-13203
▁walking	-13204
alternate	-13205
▁doubtful	-13206
▁quitting	-13207
▁transport	-13208
▁defoptions	-13209
-1.	-13210
obo	-13211
-1.2	-13212
-177	-13213
.0-0	-13214
pref	-13215
▁384	-13216
▁cah	-13217
▁neo	-13218
▁sde	-13219
anbul	-13220
versa	-13221
▁savv	-13222
opengl	-13223
▁crank	-13224
▁divid	-13225
▁sansa	-13226
▁breeze	-13227
▁corect	-13228
▁hmmmmm	-13229
▁intent	-13230
▁league	-13231
▁vesafb	-13232
▁amongst	-13233
▁cafuego	-13234
blacklist	-13235
▁algorithm	-13236
▁evidently	-13237
aku	-13238
bes	-13239
lds	-13240
lyp	-13241
wed	-13242
▁1-	-13243
▁eq	-13244
-1.1	-13245
fill	-13246
lank	-13247
rock	-13248
▁9.4	-13249
▁901	-13250
▁frm	-13251
▁ima	-13252
▁kal	-13253
▁phy	-13254
▁cree	-13255
▁grid	-13256
▁roms	-13257
ensors	-13258
umbers	-13259
▁cacti	-13260
▁geeks	-13261
▁shots	-13262
-------	-13263
modeset	-13264
▁bzflag	-13265
▁hostap	-13266
▁remark	-13267
▁runnig	-13268
▁unkown	-13269
▁anythin	-13270
▁knowled	-13271
▁liblame	-13272
▁newuser	-13273
▁seamless	-13274
▁umounted	-13275
▁similarly	-13276
▁gsynaptics	-13277
▁unreliable	-13278
▁segfaulting	-13279
-17	-13280
240	-13281
oft	-13282
▁sud	-13283
tions	-13284
▁dban	-13285
▁phen	-13286
▁tone	-13287
ission	-13288
▁canad	-13289
▁dvdrw	-13290
▁proto	-13291
-2.6.20	-13292
clients	-13293
▁diablo	-13294
▁patrick	-13295
▁reviews	-13296
▁sarcasm	-13297
▁gateways	-13298
▁pipeline	-13299
▁bottleneck	-13300
▁derivative	-13301
▁imageshack	-13302
-.	-13303
-22	-13304
gle	-13305
gon	-13306
has	-13307
uct	-13308
▁.0	-13309
▁mms	-13310
owned	-13311
whats	-13312
▁acqu	-13313
▁albe	-13314
▁matt	-13315
▁mile	-13316
▁thnk	-13317
▁grubs	-13318
▁flakey	-13319
▁gentle	-13320
▁pauses	-13321
▁rating	-13322
▁svideo	-13323
▁circles	-13324
▁envelop	-13325
▁hahahah	-13326
▁netflix	-13327
▁accesses	-13328
▁debugger	-13329
▁logfiles	-13330
▁attribute	-13331
▁usershare	-13332
▁metapackages	-13333
efi	-13334
ige	-13335
lime	-13336
note	-13337
rxvt	-13338
ssid	-13339
tiny	-13340
▁222	-13341
▁550	-13342
▁asm	-13343
▁bra	-13344
▁twm	-13345
thank	-13346
▁misle	-13347
▁sharp	-13348
initely	-13349
▁insted	-13350
▁learnt	-13351
▁rolled	-13352
▁blueman	-13353
▁libgpod	-13354
▁crippled	-13355
▁netatalk	-13356
▁teaching	-13357
▁jackalope	-13358
▁mediawiki	-13359
▁norwegian	-13360
▁whereever	-13361
▁comparable	-13362
▁maintaining	-13363
▁reccomended	-13364
▁specification	-13365
-2.	-13366
5.1	-13367
tux	-13368
wos	-13369
▁ky	-13370
1211	-13371
2100	-13372
rdao	-13373
▁486	-13374
▁fot	-13375
▁gap	-13376
▁ham	-13377
▁mne	-13378
▁eyou	-13379
▁josh	-13380
▁lapp	-13381
▁shap	-13382
▁ubub	-13383
▁unde	-13384
header	-13385
▁fspot	-13386
▁ihave	-13387
▁noisy	-13388
▁steve	-13389
▁tetex	-13390
▁ubntu	-13391
▁wires	-13392
▁beauty	-13393
▁tryied	-13394
▁apropos	-13395
▁dirname	-13396
▁scribus	-13397
▁internets	-13398
▁suffering	-13399
▁suspended	-13400
▁unlimited	-13401
bby	-13402
were	-13403
▁cha	-13404
▁club	-13405
▁leds	-13406
▁pade	-13407
▁rxvt	-13408
▁sexy	-13409
▁bless	-13410
▁reass	-13411
▁shuld	-13412
▁connec	-13413
▁opport	-13414
▁proftp	-13415
▁routed	-13416
▁diamond	-13417
▁yourfile	-13418
▁guarantees	-13419
▁winetricks	-13420
▁beautifully	-13421
▁installtion	-13422
▁disappearing	-13423
▁intentionally	-13424
▁knetworkmanager	-13425
xd	-13426
fin	-13427
▁ae	-13428
amer	-13429
▁chn	-13430
▁prt	-13431
arena	-13432
esity	-13433
known	-13434
▁amen	-13435
sector	-13436
▁balls	-13437
▁hallo	-13438
▁piped	-13439
▁digits	-13440
▁friday	-13441
▁hijack	-13442
▁polite	-13443
▁usenet	-13444
▁xvideo	-13445
noverify	-13446
▁cracked	-13447
▁noscript	-13448
▁sebsebseb	-13449
▁foundation	-13450
▁represents	-13451
▁unresolved	-13452
▁spreadsheet	-13453
▁hyperthreading	-13454
▁cv	-13455
▁105	-13456
▁agn	-13457
▁smc	-13458
▁sms	-13459
▁1300	-13460
▁mbps	-13461
-5-386	-13462
▁12345	-13463
fluxbox	-13464
stalled	-13465
▁2.6.28	-13466
▁annoys	-13467
▁apears	-13468
▁linuxm	-13469
▁pirate	-13470
▁rocket	-13471
▁cleanup	-13472
▁direcot	-13473
▁easybcd	-13474
▁readout	-13475
▁assemble	-13476
▁contrast	-13477
▁linspire	-13478
▁gibberish	-13479
▁slideshow	-13480
▁directorys	-13481
▁reccommend	-13482
▁serpentine	-13483
▁throttling	-13484
▁rootnoverify	-13485
256	-13486
4.1	-13487
▁nr	-13488
plow	-13489
▁lun	-13490
reezy	-13491
▁crit	-13492
▁lscp	-13493
▁pile	-13494
▁reso	-13495
▁whay	-13496
▁woul	-13497
coming	-13498
floppy	-13499
terror	-13500
writer	-13501
▁ooops	-13502
▁pysdm	-13503
▁shold	-13504
▁turbo	-13505
ulously	-13506
▁firegl	-13507
▁freind	-13508
▁regret	-13509
▁whould	-13510
▁equivel	-13511
▁blanking	-13512
▁usbstick	-13513
▁benchmarks	-13514
▁certificates	-13515
uls	-13516
-2.2	-13517
768'	-13518
laim	-13519
▁bzr	-13520
▁ine	-13521
▁loo	-13522
▁naw	-13523
▁une	-13524
▁wpc	-13525
▁alco	-13526
▁mena	-13527
▁ogle	-13528
▁notor	-13529
▁usser	-13530
▁cdrdao	-13531
▁legend	-13532
▁mediat	-13533
▁moblin	-13534
▁packed	-13535
▁vhosts	-13536
▁weekly	-13537
▁inotify	-13538
▁repeats	-13539
▁disappointed	-13540
-64	-13541
xkb	-13542
2870	-13543
attr	-13544
▁giz	-13545
▁jig	-13546
▁mbs	-13547
▁mfc	-13548
▁ths	-13549
first	-13550
▁1100	-13551
▁libe	-13552
▁xwin	-13553
▁1.4.2	-13554
▁haupp	-13555
▁pilot	-13556
▁rusty	-13557
▁scite	-13558
▁sweat	-13559
▁2.6.31	-13560
▁linode	-13561
▁partly	-13562
▁hilight	-13563
▁hunting	-13564
▁squares	-13565
▁unaware	-13566
▁interpid	-13567
▁simplify	-13568
▁trashcan	-13569
▁bittorent	-13570
▁lightning	-13571
_1	-13572
2.7	-13573
cnf	-13574
lss	-13575
▁pf	-13576
2.2-	-13577
ians	-13578
iges	-13579
ogle	-13580
zing	-13581
▁crw	-13582
▁mik	-13583
▁tam	-13584
▁pins	-13585
▁yepp	-13586
▁aimed	-13587
▁slapd	-13588
▁views	-13589
▁aptget	-13590
▁roller	-13591
▁expired	-13592
▁linuxes	-13593
▁spotify	-13594
▁uploads	-13595
▁reaching	-13596
▁keybinding	-13597
kt	-13598
moz	-13599
wan	-13600
▁-16	-13601
▁004	-13602
▁8.5	-13603
▁-386	-13604
▁bulk	-13605
▁haev	-13606
▁stro	-13607
▁thom	-13608
▁thro	-13609
export	-13610
shrink	-13611
▁toler	-13612
▁xxxxx	-13613
artment	-13614
ensions	-13615
running	-13616
▁whites	-13617
▁relates	-13618
▁twitter	-13619
▁visually	-13620
▁mediatomb	-13621
▁unclaimed	-13622
▁appearances	-13623
▁unconfigured	-13624
▁inappropriate	-13625
tot	-13626
eded	-13627
▁bli	-13628
▁dub	-13629
▁emm	-13630
▁hci	-13631
bably	-13632
brand	-13633
hough	-13634
range	-13635
unset	-13636
watch	-13637
▁dchp	-13638
▁fist	-13639
▁gram	-13640
▁kore	-13641
▁laid	-13642
▁publ	-13643
▁trml	-13644
▁clips	-13645
▁padev	-13646
▁usbfs	-13647
▁privel	-13648
ssssssss	-13649
▁alltray	-13650
▁burners	-13651
▁fscking	-13652
▁makedev	-13653
▁mucking	-13654
▁overlap	-13655
▁staring	-13656
▁administ	-13657
▁viewable	-13658
▁hierarchy	-13659
▁macintosh	-13660
▁playlists	-13661
▁scrollback	-13662
▁subjective	-13663
610	-13664
gif	-13665
▁qc	-13666
▁rj	-13667
aded	-13668
ingu	-13669
peak	-13670
▁hoc	-13671
▁ske	-13672
arter	-13673
otine	-13674
▁fuss	-13675
▁konw	-13676
▁lied	-13677
byname	-13678
▁boxen	-13679
▁grade	-13680
▁tiger	-13681
▁bugfix	-13682
▁numpad	-13683
▁retail	-13684
▁tester	-13685
▁topics	-13686
▁persons	-13687
▁anyother	-13688
▁approxim	-13689
▁envelope	-13690
▁procmail	-13691
▁responsi	-13692
localdomain	-13693
▁associations	-13694
▁reconnecting	-13695
die	-13696
▁gx	-13697
cted	-13698
pple	-13699
▁10'	-13700
▁mpc	-13701
▁brit	-13702
▁crop	-13703
▁dled	-13704
▁drum	-13705
▁snes	-13706
▁gwget	-13707
proftpd	-13708
removal	-13709
▁commad	-13710
▁printf	-13711
packaged	-13712
▁reduced	-13713
▁reprodu	-13714
▁stuffed	-13715
▁sucking	-13716
▁labelled	-13717
▁partners	-13718
▁silently	-13719
▁appending	-13720
▁continued	-13721
▁intermedi	-13722
▁netfilter	-13723
▁publickey	-13724
▁noticeable	-13725
▁instruments	-13726
ock	-13727
pls	-13728
▁61	-13729
-173	-13730
aven	-13731
fall	-13732
▁hyp	-13733
▁shu	-13734
oenix	-13735
racer	-13736
stein	-13737
▁10.2	-13738
contin	-13739
▁havin	-13740
▁urxvt	-13741
bernate	-13742
without	-13743
▁driven	-13744
▁quadro	-13745
▁telnetd	-13746
▁utterly	-13747
▁wastrel	-13748
▁amaranth	-13749
▁installe	-13750
▁overcome	-13751
▁checksums	-13752
▁compliant	-13753
▁bookmarked	-13754
▁experiance	-13755
▁virtualized	-13756
510	-13757
dpi	-13758
ece	-13759
fro	-13760
gdm	-13761
gtx	-13762
igo	-13763
aser	-13764
byte	-13765
clam	-13766
oted	-13767
otes	-13768
▁.10	-13769
▁24'	-13770
▁gno	-13771
▁tue	-13772
stats	-13773
tings	-13774
▁cust	-13775
remote	-13776
▁pager	-13777
▁xnest	-13778
▁brands	-13779
▁graphs	-13780
▁hashes	-13781
▁iwlagn	-13782
▁orphan	-13783
▁pubkey	-13784
▁redraw	-13785
▁compose	-13786
▁environ	-13787
▁analysis	-13788
▁evidence	-13789
▁extracts	-13790
▁istanbul	-13791
▁rotation	-13792
▁subtitle	-13793
▁excessive	-13794
▁categories	-13795
▁defaulting	-13796
▁inactivity	-13797
▁fglrxconfig	-13798
▁additionally	-13799
▁dansguardian	-13800
-13	-13801
▁fm	-13802
bles	-13803
ioned	-13804
▁2500	-13805
▁abou	-13806
▁anot	-13807
audios	-13808
static	-13809
▁blues	-13810
▁prett	-13811
▁employ	-13812
▁phenom	-13813
▁runned	-13814
emanager	-13815
▁nividia	-13816
▁pissing	-13817
▁eeebuntu	-13818
▁feasible	-13819
▁pacakges	-13820
▁amplifier	-13821
▁sentences	-13822
▁firewalling	-13823
▁specialized	-13824
▁consistently	-13825
▁padevchooser	-13826
1950	-13827
cube	-13828
oken	-13829
quis	-13830
zero	-13831
▁ark	-13832
▁eog	-13833
lucid	-13834
▁burg	-13835
▁cous	-13836
▁kios	-13837
▁achie	-13838
▁brave	-13839
▁gunna	-13840
▁ubunu	-13841
▁addres	-13842
▁fesity	-13843
▁makers	-13844
▁reburn	-13845
▁virgin	-13846
▁efforts	-13847
▁finnish	-13848
▁silence	-13849
▁clamscan	-13850
▁editting	-13851
▁unlocked	-13852
▁splitting	-13853
▁unattended	-13854
▁distupgrade	-13855
▁accelleration	-13856
▁conversations	-13857
ady	-13858
zxvf	-13859
▁270	-13860
▁wih	-13861
▁inad	-13862
▁maya	-13863
▁meen	-13864
▁sums	-13865
▁jacks	-13866
▁kvirc	-13867
▁disown	-13868
▁flying	-13869
▁linker	-13870
▁quirks	-13871
▁alcohol	-13872
▁consume	-13873
▁inherit	-13874
▁pclinux	-13875
▁nicotine	-13876
▁repaired	-13877
▁rhytmbox	-13878
▁stupidly	-13879
▁hardcoded	-13880
▁impatient	-13881
▁unchanged	-13882
▁apparantly	-13883
ipt	-13884
phy	-13885
▁nb	-13886
anda	-13887
▁260	-13888
ahead	-13889
ample	-13890
cccle	-13891
▁acet	-13892
▁dcop	-13893
▁ddos	-13894
▁exer	-13895
▁lolz	-13896
▁apear	-13897
▁backt	-13898
▁harsh	-13899
▁joins	-13900
▁progg	-13901
▁units	-13902
▁wonky	-13903
routing	-13904
▁breath	-13905
▁destop	-13906
▁viable	-13907
▁drapper	-13908
▁propose	-13909
▁teminal	-13910
▁decoding	-13911
▁designer	-13912
▁foomatic	-13913
▁bootchart	-13914
▁coreutils	-13915
▁producing	-13916
▁shrinking	-13917
▁throughout	-13918
▁desperately	-13919
-24	-13920
tih	-13921
▁69	-13922
▁jk	-13923
▁ude	-13924
▁vit	-13925
blems	-13926
essid	-13927
orted	-13928
uster	-13929
▁6100	-13930
▁7800	-13931
andros	-13932
▁cough	-13933
▁initi	-13934
▁scrap	-13935
▁trade	-13936
▁aspell	-13937
▁oldest	-13938
▁punctu	-13939
▁notices	-13940
▁wonders	-13941
▁deletion	-13942
▁abilities	-13943
▁defective	-13944
▁definatly	-13945
▁meaningful	-13946
▁overlooked	-13947
▁insufficient	-13948
▁libjavaplugin	-13949
1.9	-13950
gcc	-13951
ils	-13952
lah	-13953
sch	-13954
uxe	-13955
▁oi	-13956
argb	-13957
ppet	-13958
wwww	-13959
▁125	-13960
▁sdf	-13961
▁acls	-13962
▁coul	-13963
▁grin	-13964
▁thee	-13965
▁yall	-13966
▁guten	-13967
▁impor	-13968
▁insan	-13969
▁nonex	-13970
▁sshed	-13971
▁thore	-13972
▁wikis	-13973
-10-386	-13974
-2.6.32	-13975
iterate	-13976
location	-13977
▁diagram	-13978
▁isolate	-13979
▁licence	-13980
▁michael	-13981
▁trident	-13982
▁destruct	-13983
▁facility	-13984
▁batteries	-13985
▁tracepath	-13986
▁mainstream	-13987
▁doubleclick	-13988
▁adminstration	-13989
lh	-13990
px	-13991
aes	-13992
jav	-13993
▁bbc	-13994
▁crc	-13995
▁dry	-13996
▁gat	-13997
▁wxp	-13998
▁empt	-13999
▁gods	-14000
▁meas	-14001
▁pdft	-14002
▁vars	-14003
▁xfwm	-14004
▁deser	-14005
▁grief	-14006
▁raids	-14007
▁satur	-14008
▁nearby	-14009
▁sooooo	-14010
▁catalog	-14011
▁fuseblk	-14012
▁gethost	-14013
▁syslogd	-14014
▁tracert	-14015
▁userdel	-14016
▁brothers	-14017
▁guarddog	-14018
▁runnning	-14019
▁countries	-14020
▁guidelines	-14021
▁libavcodec	-14022
▁incompatibility	-14023
mes	-14024
▁73	-14025
lers	-14026
ride	-14027
▁80'	-14028
▁ell	-14029
▁rul	-14030
front	-14031
▁acut	-14032
▁evol	-14033
▁htat	-14034
▁ntsc	-14035
▁whos	-14036
router	-14037
▁acron	-14038
▁sayin	-14039
idecode	-14040
▁banner	-14041
▁danish	-14042
▁grafic	-14043
▁newegg	-14044
-1_5_0_0	-14045
▁cardbus	-14046
▁pasword	-14047
▁autohide	-14048
▁defining	-14049
▁keypress	-14050
▁untarred	-14051
▁xstartup	-14052
▁equalizer	-14053
▁existence	-14054
▁inconsist	-14055
▁2.6.24-19-	-14056
▁appearence	-14057
▁conditions	-14058
▁makeactive	-14059
▁privilages	-14060
▁determining	-14061
▁intergrated	-14062
242	-14063
4.2	-14064
640	-14065
arg	-14066
lio	-14067
oma	-14068
pes	-14069
rok	-14070
▁ao	-14071
geek	-14072
▁lok	-14073
▁mos	-14074
▁hyph	-14075
▁keen	-14076
▁ohci	-14077
▁rent	-14078
coding	-14079
▁cdemu	-14080
▁wound	-14081
secured	-14082
▁chunks	-14083
▁kitche	-14084
▁renice	-14085
selector	-14086
▁whining	-14087
graphical	-14088
▁governor	-14089
▁dmidecode	-14090
▁expansion	-14091
▁keystroke	-14092
▁correcting	-14093
▁malfunction	-14094
▁disadvantages	-14095
cv	-14096
wy	-14097
110	-14098
dig	-14099
wei	-14100
bear	-14101
than	-14102
▁dpg	-14103
▁hyd	-14104
▁4311	-14105
▁fift	-14106
binary	-14107
▁iscsi	-14108
▁woman	-14109
▁libpam	-14110
▁margin	-14111
▁10.04.3	-14112
▁arguing	-14113
▁libpcap	-14114
▁meeting	-14115
▁renders	-14116
▁windwos	-14117
▁editable	-14118
▁festival	-14119
▁identity	-14120
▁keychain	-14121
▁netscape	-14122
▁openldap	-14123
▁presents	-14124
▁scandisk	-14125
▁spitting	-14126
▁throughput	-14127
▁customizing	-14128
mn	-14129
rdp	-14130
xel	-14131
▁4'	-14132
amba	-14133
clip	-14134
oudn	-14135
site	-14136
▁8.3	-14137
▁ore	-14138
▁phr	-14139
▁jeez	-14140
▁ntop	-14141
▁rsys	-14142
▁vagu	-14143
▁yout	-14144
akuake	-14145
having	-14146
poison	-14147
verted	-14148
▁adequ	-14149
▁messe	-14150
▁padsp	-14151
burning	-14152
▁iptraf	-14153
▁popups	-14154
register	-14155
▁chicken	-14156
▁tapping	-14157
▁myscript	-14158
▁numbered	-14159
▁training	-14160
downloader	-14161
▁diffrence	-14162
▁seperated	-14163
▁shmconfig	-14164
▁subsequent	-14165
▁postrouting	-14166
▁defaultdepth	-14167
▁communicating	-14168
1394	-14169
iner	-14170
vdia	-14171
▁139	-14172
▁ina	-14173
▁oot	-14174
gamma	-14175
otehr	-14176
▁2.12	-14177
▁argu	-14178
▁buzz	-14179
▁libn	-14180
▁wear	-14181
▁cntrl	-14182
▁prone	-14183
visuals	-14184
▁bubble	-14185
▁enters	-14186
▁golden	-14187
▁hebrew	-14188
▁indent	-14189
▁pitivi	-14190
▁travel	-14191
▁waking	-14192
▁enought	-14193
▁libopen	-14194
▁wording	-14195
▁yakuake	-14196
▁2.6.24-2	-14197
▁userland	-14198
▁uppercase	-14199
▁recreating	-14200
133	-14201
220	-14202
ife	-14203
jam	-14204
zap	-14205
▁dt	-14206
bler	-14207
ivly	-14208
misc	-14209
usic	-14210
▁wii	-14211
empty	-14212
▁2001	-14213
▁airo	-14214
▁lapt	-14215
before	-14216
▁billy	-14217
▁blast	-14218
▁convo	-14219
▁draws	-14220
▁lampp	-14221
▁nodma	-14222
▁xmame	-14223
between	-14224
▁albeit	-14225
messages	-14226
mounting	-14227
▁acronis	-14228
▁hooking	-14229
▁termina	-14230
▁bullshit	-14231
▁daughter	-14232
▁freeware	-14233
▁contribut	-14234
▁myusername	-14235
▁privileged	-14236
▁dependecies	-14237
▁windowmaker	-14238
▁gethostbyname	-14239
1.8	-14240
boo	-14241
▁15'	-14242
▁7.2	-14243
▁fle	-14244
▁gos	-14245
▁tea	-14246
freed	-14247
pozer	-14248
▁gest	-14249
memory	-14250
pubkey	-14251
▁dells	-14252
▁negot	-14253
develop	-14254
latency	-14255
▁arrive	-14256
▁bundle	-14257
▁passow	-14258
▁tuning	-14259
▁predict	-14260
▁preface	-14261
▁degraded	-14262
▁standing	-14263
▁annoyance	-14264
▁increases	-14265
▁intervals	-14266
▁unsecured	-14267
▁timestamps	-14268
▁pastebinning	-14269
▁architectures	-14270
aer	-14271
een	-14272
fly	-14273
isa	-14274
mkv	-14275
seg	-14276
6600	-14277
8859	-14278
alib	-14279
noth	-14280
▁ish	-14281
▁nay	-14282
▁rea	-14283
▁uml	-14284
▁wis	-14285
▁alre	-14286
▁kbps	-14287
▁pron	-14288
▁tomm	-14289
sample	-14290
▁exten	-14291
▁punch	-14292
▁webkit	-14293
▁willis	-14294
hardware	-14295
▁nopaste	-14296
▁spamass	-14297
▁vaguely	-14298
▁inclined	-14299
▁incorpor	-14300
▁spacebar	-14301
▁unloaded	-14302
▁googleing	-14303
▁kickstart	-14304
▁variations	-14305
▁abstraction	-14306
▁incremental	-14307
▁punctuation	-14308
sb	-14309
xi	-14310
.15	-14311
888	-14312
ntu	-14313
oph	-14314
sdt	-14315
▁das	-14316
▁eof	-14317
▁req	-14318
▁tec	-14319
child	-14320
▁andy	-14321
▁crud	-14322
▁oooo	-14323
▁role	-14324
images	-14325
▁2.6.8	-14326
▁misbe	-14327
▁mnept	-14328
▁stubb	-14329
▁apples	-14330
▁regexp	-14331
▁tether	-14332
▁dowload	-14333
▁looping	-14334
▁kompozer	-14335
▁mainline	-14336
▁notation	-14337
▁reattach	-14338
▁everyting	-14339
▁providers	-14340
▁rectangle	-14341
▁shuttleworth	-14342
804	-14343
bye	-14344
ibly	-14345
orow	-14346
▁asc	-14347
▁jul	-14348
▁les	-14349
▁pvr	-14350
▁1050	-14351
▁5100	-14352
▁caut	-14353
▁debf	-14354
▁fron	-14355
▁kmix	-14356
▁ress	-14357
▁wood	-14358
ifiers	-14359
▁dread	-14360
▁nuked	-14361
▁savvy	-14362
▁scree	-14363
theless	-14364
▁2.6.30	-14365
▁kindof	-14366
▁layers	-14367
▁rootfs	-14368
▁tiling	-14369
▁chowned	-14370
▁judging	-14371
▁modular	-14372
▁philips	-14373
▁wirelss	-14374
▁appended	-14375
▁bootload	-14376
▁clusters	-14377
▁exploits	-14378
▁ifupdown	-14379
▁overheat	-14380
▁playable	-14381
▁squirrel	-14382
▁debfoster	-14383
▁electronics	-14384
▁torrentflux	-14385
▁continuously	-14386
gx	-14387
3.5	-14388
hid	-14389
bber	-14390
ircd	-14391
luck	-14392
them	-14393
▁ful	-14394
▁goo	-14395
▁iis	-14396
▁kam	-14397
▁noo	-14398
▁sic	-14399
route	-14400
▁dire	-14401
▁dram	-14402
ancing	-14403
bility	-14404
chance	-14405
umeric	-14406
▁gates	-14407
▁kmail	-14408
▁cpanel	-14409
▁upside	-14410
▁choosed	-14411
▁conserv	-14412
▁farther	-14413
▁genuine	-14414
▁magical	-14415
▁submenu	-14416
▁wrapped	-14417
▁isolated	-14418
▁libcairo	-14419
▁obtained	-14420
▁agreement	-14421
▁demanding	-14422
▁discovery	-14423
▁framerate	-14424
▁distracted	-14425
▁gnomefreak	-14426
▁transfered	-14427
▁fortunately	-14428
▁inputdevice	-14429
▁instability	-14430
pf	-14431
420	-14432
0106	-14433
2570	-14434
okie	-14435
prom	-14436
▁655	-14437
▁csv	-14438
▁gsm	-14439
▁sco	-14440
▁ses	-14441
▁vac	-14442
latex	-14443
pixel	-14444
▁9700	-14445
▁firs	-14446
reinst	-14447
▁1.5.0	-14448
▁andre	-14449
▁libfa	-14450
▁wifes	-14451
▁fixres	-14452
▁getent	-14453
▁identd	-14454
▁spring	-14455
▁acidrip	-14456
▁crystal	-14457
▁phoenix	-14458
▁unhappy	-14459
▁wireles	-14460
▁xandros	-14461
▁2.6.12-9	-14462
▁contract	-14463
▁disallow	-14464
▁distinct	-14465
▁theadmin	-14466
▁backtrace	-14467
▁gigabytes	-14468
▁installin	-14469
▁fundamental	-14470
▁restriction	-14471
oooooooooooooooo	-14472
alf	-14473
los	-14474
door	-14475
once	-14476
▁6.5	-14477
▁bay	-14478
▁lms	-14479
▁sau	-14480
putic	-14481
socks	-14482
▁mbit	-14483
manger	-14484
oution	-14485
▁etter	-14486
▁trend	-14487
▁acount	-14488
▁antial	-14489
▁citrix	-14490
▁ndiswr	-14491
▁outage	-14492
▁parsed	-14493
upgrades	-14494
▁legally	-14495
▁tunnels	-14496
▁codename	-14497
▁distingu	-14498
▁patition	-14499
▁disklabel	-14500
▁scratched	-14501
▁stretched	-14502
▁diagnosing	-14503
▁opportunity	-14504
▁propriatary	-14505
8.4	-14506
arn	-14507
awk	-14508
heh	-14509
sda	-14510
3000	-14511
chip	-14512
megs	-14513
ores	-14514
uild	-14515
▁aix	-14516
▁bks	-14517
▁gph	-14518
▁hen	-14519
conds	-14520
uliar	-14521
▁hood	-14522
▁ling	-14523
▁ride	-14524
artion	-14525
gconfd	-14526
shared	-14527
tables	-14528
▁3.0.0	-14529
▁excut	-14530
▁throt	-14531
actions	-14532
backend	-14533
▁alread	-14534
▁comptu	-14535
▁dashes	-14536
▁discon	-14537
▁mapper	-14538
▁midori	-14539
▁resist	-14540
anything	-14541
notifier	-14542
▁flagged	-14543
▁shifted	-14544
xdefaults	-14545
▁filesize	-14546
▁presence	-14547
▁ratpoison	-14548
▁speedtouch	-14549
▁accesspoint	-14550
▁convenience	-14551
▁alsamixergui	-14552
▁surprisingly	-14553
recordmydesktop	-14554
▁gc	-14555
lson	-14556
▁hee	-14557
▁laz	-14558
ategy	-14559
atile	-14560
▁epis	-14561
▁knoe	-14562
▁mame	-14563
always	-14564
breezy	-14565
groups	-14566
keeper	-14567
▁jerky	-14568
▁magaz	-14569
▁unint	-14570
▁biggie	-14571
▁solely	-14572
rrrrrrrr	-14573
▁periods	-14574
▁rectify	-14575
▁drawback	-14576
▁foremost	-14577
▁polished	-14578
▁workable	-14579
associated	-14580
▁multiboot	-14581
▁numbering	-14582
▁primaries	-14583
▁winetools	-14584
▁drwxrwxrwx	-14585
▁neccessary	-14586
▁redundancy	-14587
▁everythings	-14588
▁nevertheless	-14589
▁temperatures	-14590
▁uncompressed	-14591
km	-14592
928	-14593
386'	-14594
tran	-14595
yone	-14596
▁113	-14597
▁bir	-14598
▁grp	-14599
▁vmx	-14600
brain	-14601
▁0.97	-14602
▁batt	-14603
▁fran	-14604
▁pric	-14605
▁yelp	-14606
▁asume	-14607
▁bcast	-14608
▁chats	-14609
▁paket	-14610
▁bounce	-14611
▁sketch	-14612
▁summar	-14613
▁titles	-14614
▁ttyusb	-14615
▁acetone	-14616
▁changer	-14617
▁declare	-14618
▁semicol	-14619
▁sticker	-14620
▁voltage	-14621
▁backward	-14622
▁graveman	-14623
▁pressure	-14624
▁stealing	-14625
▁footprint	-14626
▁refreshed	-14627
▁cabextract	-14628
▁disturbing	-14629
▁occasional	-14630
▁overlapping	-14631
▁knowledgable	-14632
770	-14633
eek	-14634
ivo	-14635
low	-14636
▁_'	-14637
mate	-14638
▁cya	-14639
▁hoe	-14640
▁lur	-14641
▁spm	-14642
omerc	-14643
▁merc	-14644
▁shou	-14645
▁boinc	-14646
▁dillo	-14647
▁gamin	-14648
▁gamma	-14649
▁goign	-14650
▁hsync	-14651
▁rearr	-14652
▁synat	-14653
-8859-1	-14654
▁setgid	-14655
▁defeats	-14656
▁altering	-14657
▁canadian	-14658
▁onscreen	-14659
▁realplay	-14660
▁thingies	-14661
▁countdown	-14662
▁keylogger	-14663
▁mandatory	-14664
▁miserably	-14665
▁presuming	-14666
▁titlebars	-14667
▁exceptions	-14668
▁portforwarding	-14669
7.	-14670
-25	-14671
666	-14672
iosn	-14673
▁zon	-14674
gmail	-14675
ialog	-14676
remix	-14677
▁clik	-14678
▁thos	-14679
▁humor	-14680
▁pcman	-14681
▁randr	-14682
▁tying	-14683
gnomerc	-14684
mounter	-14685
▁famous	-14686
▁myuser	-14687
▁setxkb	-14688
▁thatll	-14689
▁threat	-14690
▁browsed	-14691
▁compute	-14692
▁gettext	-14693
▁libdbus	-14694
▁archived	-14695
▁strategy	-14696
▁advertise	-14697
▁introduce	-14698
▁weirdness	-14699
▁192.168.0.	-14700
▁engineering	-14701
▁restrictive	-14702
jk	-14703
bey	-14704
cow	-14705
eds	-14706
gfx	-14707
hen	-14708
oky	-14709
▁78	-14710
-0.9	-14711
_1.0	-14712
ccsm	-14713
demo	-14714
▁ust	-14715
bytes	-14716
inate	-14717
▁8192	-14718
▁deaf	-14719
▁vote	-14720
icator	-14721
▁alway	-14722
▁enuff	-14723
▁inthe	-14724
▁sacar	-14725
▁storm	-14726
auputic	-14727
privile	-14728
▁patent	-14729
▁screem	-14730
▁windos	-14731
recovery	-14732
▁debsums	-14733
▁easycam	-14734
▁exaclty	-14735
▁focused	-14736
reinstreq	-14737
▁enhanced	-14738
▁uncommon	-14739
▁expanding	-14740
▁injection	-14741
▁lmsensors	-14742
▁suspicion	-14743
▁overloaded	-14744
cb	-14745
zo	-14746
ams	-14747
tut	-14748
▁8.	-14749
imax	-14750
inch	-14751
motu	-14752
perf	-14753
▁6.8	-14754
▁geo	-14755
▁hua	-14756
▁mee	-14757
▁poo	-14758
▁soz	-14759
split	-14760
▁2100	-14761
▁pump	-14762
ommand	-14763
socket	-14764
▁parad	-14765
▁smell	-14766
▁xconf	-14767
▁linear	-14768
▁resoul	-14769
▁anoying	-14770
▁bastard	-14771
▁imwheel	-14772
▁sbackup	-14773
▁travelm	-14774
▁visited	-14775
▁wesnoth	-14776
▁inconven	-14777
▁stepping	-14778
▁partation	-14779
▁published	-14780
alternative	-14781
.18	-14782
vey	-14783
osis	-14784
▁dok	-14785
▁fru	-14786
▁pff	-14787
▁poff	-14788
▁sale	-14789
000000	-14790
▁10-20	-14791
▁dling	-14792
▁monos	-14793
▁pango	-14794
▁errror	-14795
▁paypal	-14796
overable	-14797
▁balance	-14798
▁mneptok	-14799
▁premium	-14800
▁chmodded	-14801
▁donwload	-14802
▁ettercap	-14803
▁throttle	-14804
appearance	-14805
▁travelmate	-14806
▁recoverable	-14807
▁shellscript	-14808
▁authenticating	-14809
xb	-14810
fan	-14811
▁bf	-14812
▁cz	-14813
▁wb	-14814
atim	-14815
endo	-14816
gles	-14817
obab	-14818
webs	-14819
▁ast	-14820
▁eht	-14821
▁fgl	-14822
▁2.14	-14823
▁arse	-14824
▁driv	-14825
▁tint	-14826
▁yest	-14827
nament	-14828
school	-14829
▁conce	-14830
▁defer	-14831
▁flock	-14832
▁hummm	-14833
▁peter	-14834
▁swaps	-14835
▁2.6.35	-14836
▁appric	-14837
▁baobab	-14838
▁gadmin	-14839
▁awfully	-14840
▁blowing	-14841
▁comands	-14842
▁errored	-14843
▁qparted	-14844
▁reveals	-14845
connected	-14846
converter	-14847
▁overflow	-14848
▁reversed	-14849
▁swapfile	-14850
▁trackerd	-14851
▁bypassing	-14852
▁sharename	-14853
▁completing	-14854
▁encountering	-14855
511	-14856
___	-14857
msc	-14858
olf	-14859
damn	-14860
maps	-14861
▁230	-14862
▁430	-14863
▁940	-14864
▁fur	-14865
▁mah	-14866
▁sce	-14867
▁usu	-14868
issue	-14869
▁1360	-14870
▁hidd	-14871
▁iter	-14872
cesary	-14873
iation	-14874
▁anyon	-14875
▁eight	-14876
▁roomm	-14877
▁spect	-14878
▁aurora	-14879
▁portal	-14880
▁shield	-14881
▁ununtu	-14882
--------	-14883
reciated	-14884
▁alittle	-14885
▁congrat	-14886
▁fetched	-14887
▁hinting	-14888
▁schemes	-14889
▁christian	-14890
▁clickable	-14891
▁neighbors	-14892
▁misleading	-14893
▁configurator	-14894
-18	-14895
eer	-14896
ham	-14897
htm	-14898
kay	-14899
rim	-14900
▁sq	-14901
-15-	-14902
join	-14903
▁195	-14904
▁eep	-14905
▁fem	-14906
▁iow	-14907
▁psk	-14908
count	-14909
eling	-14910
ursor	-14911
▁linx	-14912
▁lisp	-14913
▁sasl	-14914
▁thet	-14915
▁drain	-14916
▁faith	-14917
▁fbset	-14918
▁metam	-14919
▁polit	-14920
▁resid	-14921
▁union	-14922
▁comple	-14923
▁geared	-14924
▁sistem	-14925
▁depress	-14926
▁splashy	-14927
extension	-14928
▁locating	-14929
▁modifies	-14930
▁prebuilt	-14931
▁prefixed	-14932
▁standart	-14933
▁bugreport	-14934
▁department	-14935
▁xauthority	-14936
▁continually	-14937
▁educational	-14938
▁gconfaudios	-14939
▁reconstruct	-14940
▁autodetection	-14941
rh	-14942
1-6	-14943
acl	-14944
nds	-14945
rat	-14946
▁4.	-14947
done	-14948
entu	-14949
imap	-14950
medi	-14951
rain	-14952
rked	-14953
▁3.7	-14954
▁chr	-14955
▁ird	-14956
▁itd	-14957
▁wms	-14958
▁yor	-14959
assin	-14960
store	-14961
▁8200	-14962
▁ican	-14963
▁nono	-14964
▁tkip	-14965
castic	-14966
▁james	-14967
checked	-14968
scanbus	-14969
▁apport	-14970
▁aptana	-14971
▁gimmie	-14972
▁pluggin	-14973
▁preempt	-14974
▁sniffer	-14975
▁workign	-14976
upgrading	-14977
▁abnormal	-14978
▁conected	-14979
▁notified	-14980
▁passport	-14981
▁peculiar	-14982
▁stubborn	-14983
▁succeeds	-14984
▁unsecure	-14985
▁setxkbmap	-14986
▁overriding	-14987
▁intermediate	-14988
▁thoreauputic	-14989
.0-	-14990
.30	-14991
cih	-14992
mnt	-14993
uce	-14994
▁iz	-14995
keep	-14996
last	-14997
▁1-6	-14998
[...]
