<pad>	0
<unk>	0
<sos>	0
<eos>	0
▁__url__	0
▁__path__	0
▁__ip__	0
▁__eot__	0
▁__user__	0
▁i	-0
▁t	-1
▁a	-2
▁th	-3
▁s	-4
▁w	-5
in	-6
er	-7
ou	-8
▁the	-9
▁d	-10
on	-11
▁c	-12
re	-13
▁m	-14
at	-15
▁n	-16
▁h	-17
or	-18
▁f	-19
▁b	-20
▁to	-21
▁.	-22
st	-23
▁y	-24
an	-25
ll	-26
ing	-27
▁p	-28
▁it	-29
ot	-30
▁u	-31
▁you	-32
▁an	-33
▁in	-34
es	-35
ed	-36
▁is	-37
▁l	-38
en	-39
▁g	-40
ow	-41
et	-42
om	-43
it	-44
ve	-45
▁wh	-46
▁do	-47
▁o	-48
▁ha	-49
▁and	-50
le	-51
▁not	-52
▁that	-53
ut	-54
all	-55
▁on	-56
ar	-57
▁re	-58
un	-59
se	-60
ion	-61
▁have	-62
ic	-63
ver	-64
▁can	-65
▁r	-66
ld	-67
▁e	-68
ac	-69
stall	-70
is	-71
▁for	-72
tu	-73
▁be	-74
ay	-75
▁of	-76
id	-77
▁k	-78
ere	-79
ro	-80
▁what	-81
▁install	-82
ith	-83
▁su	-84
▁but	-85
▁fi	-86
as	-87
ad	-88
▁with	-89
▁tr	-90
ould	-91
▁my	-92
ec	-93
pt	-94
al	-95
el	-96
▁us	-97
am	-98
ill	-99
bun	-100
ig	-101
buntu	-102
▁j	-103
ork	-104
ble	-105
▁-	-106
▁if	-107
out	-108
▁any	-109
▁me	-110
▁ne	-111
ke	-112
▁pro	-113
▁lo	-114
ust	-115
ly	-116
▁ubuntu	-117
▁how	-118
▁li	-119
ri	-120
▁com	-121
▁sh	-122
ag	-123
▁st	-124
▁so	-125
▁are	-126
ind	-127
▁just	-128
▁or	-129
▁se	-130
art	-131
▁ch	-132
▁am	-133
▁work	-134
▁up	-135
ome	-136
▁as	-137
oun	-138
pp	-139
▁try	-140
ent	-141
▁there	-142
▁your	-143
ess	-144
od	-145
em	-146
▁will	-147
oot	-148
▁this	-149
▁get	-150
ack	-151
rom	-152
▁con	-153
▁does	-154
op	-155
hing	-156
ter	-157
▁no	-158
▁use	-159
▁v	-160
▁from	-161
▁then	-162
▁kn	-163
▁al	-164
ht	-165
ch	-166
▁know	-167
▁de	-168
do	-169
one	-170
▁go	-171
ant	-172
▁ex	-173
▁run	-174
▁dri	-175
▁need	-176
▁lin	-177
ell	-178
▁x	-179
and	-180
▁all	-181
▁did	-182
▁un	-183
▁at	-184
▁sudo	-185
im	-186
ally	-187
▁ma	-188
ate	-189
▁when	-190
ight	-191
her	-192
ce	-193
il	-194
ore	-195
▁some	-196
ame	-197
ct	-198
▁want	-199
▁di	-200
▁like	-201
▁1	-202
age	-203
▁would	-204
▁one	-205
ows	-206
▁sy	-207
ect	-208
▁should	-209
▁file	-210
▁comp	-211
ks	-212
▁out	-213
blem	-214
▁ad	-215
▁problem	-216
ul	-217
▁see	-218
ine	-219
▁was	-220
▁now	-221
ount	-222
▁wind	-223
▁sc	-224
ort	-225
elp	-226
ard	-227
▁part	-228
▁help	-229
▁using	-230
de	-231
▁apt	-232
other	-233
lo	-234
gr	-235
▁set	-236
ions	-237
vers	-238
ab	-239
▁than	-240
▁comm	-241
▁boot	-242
ink	-243
ur	-244
own	-245
ound	-246
ang	-247
ff	-248
os	-249
est	-250
are	-251
▁ac	-252
so	-253
oug	-254
▁installed	-255
▁ab	-256
ast	-257
ok	-258
▁ok	-259
▁make	-260
qu	-261
▁pack	-262
stem	-263
pen	-264
▁windows	-265
▁think	-266
▁its	-267
▁gr	-268
erm	-269
les	-270
▁man	-271
get	-272
▁ser	-273
able	-274
▁command	-275
▁pl	-276
very	-277
ux	-278
not	-279
▁find	-280
ation	-281
▁er	-282
nt	-283
▁partit	-284
▁cannot	-285
fig	-286
▁say	-287
ont	-288
us	-289
▁about	-290
ain	-291
ror	-292
▁mount	-293
con	-294
▁im	-295
▁dis	-296
ir	-297
▁only	-298
▁som	-299
▁yes	-300
▁rem	-301
▁system	-302
▁gu	-303
pl	-304
ach	-305
▁int	-306
▁2	-307
pe	-308
rect	-309
▁somet	-310
▁error	-311
▁cd	-312
ning	-313
ting	-314
▁app	-315
▁could	-316
▁add	-317
▁sure	-318
um	-319
▁linux	-320
ich	-321
ough	-322
▁en	-323
▁right	-324
ox	-325
ase	-326
▁which	-327
ers	-328
▁way	-329
ap	-330
ied	-331
▁has	-332
thing	-333
▁files	-334
▁net	-335
ia	-336
nel	-337
▁why	-338
▁other	-339
eck	-340
our	-341
▁look	-342
▁anyone	-343
ub	-344
▁chang	-345
▁we	-346
▁something	-347
li	-348
▁he	-349
nect	-350
▁by	-351
res	-352
▁new	-353
▁qu	-354
▁mod	-355
▁back	-356
ice	-357
▁partition	-358
ult	-359
ick	-360
▁check	-361
▁trying	-362
▁open	-363
der	-364
00	-365
▁log	-366
▁them	-367
▁server	-368
▁mean	-369
reen	-370
▁connect	-371
▁more	-372
▁where	-373
ol	-374
rd	-375
▁start	-376
▁may	-377
▁thing	-378
ost	-379
ive	-380
ure	-381
▁well	-382
▁down	-383
inal	-384
ide	-385
apt	-386
▁tim	-387
▁got	-388
▁ty	-389
▁upd	-390
au	-391
ry	-392
▁tried	-393
cess	-394
▁af	-395
ash	-396
▁running	-397
▁they	-398
▁term	-399
if	-400
▁hard	-401
▁same	-402
▁still	-403
up	-404
▁user	-405
▁card	-406
▁drive	-407
▁screen	-408
▁here	-409
▁package	-410
ug	-411
work	-412
▁sp	-413
top	-414
ail	-415
ware	-416
▁ag	-417
ck	-418
▁gn	-419
esk	-420
▁root	-421
▁ke	-422
▁network	-423
▁fo	-424
.0	-425
ory	-426
sh	-427
load	-428
be	-429
iz	-430
ite	-431
▁terminal	-432
▁sa	-433
▁after	-434
ire	-435
ist	-436
▁ker	-437
esktop	-438
▁thanks	-439
▁every	-440
ace	-441
ause	-442
.1	-443
▁wr	-444
ade	-445
▁3	-446
▁ye	-447
▁vers	-448
▁kernel	-449
ue	-450
ong	-451
▁gnome	-452
ove	-453
▁into	-454
▁time	-455
▁grub	-456
▁dont	-457
▁tell	-458
▁rec	-459
▁read	-460
▁def	-461
▁driver	-462
▁rep	-463
▁direct	-464
per	-465
▁pre	-466
ile	-467
lease	-468
ose	-469
▁config	-470
▁sound	-471
▁also	-472
▁et	-473
▁fir	-474
sw	-475
▁ev	-476
install	-477
▁working	-478
▁works	-479
tern	-480
▁supp	-481
▁bec	-482
▁past	-483
vid	-484
ord	-485
▁anything	-486
▁good	-487
▁ed	-488
less	-489
ages	-490
▁version	-491
▁type	-492
▁change	-493
way	-494
ated	-495
▁ide	-496
▁seem	-497
▁rest	-498
▁first	-499
▁had	-500
▁opt	-501
end	-502
▁le	-503
▁says	-504
▁ip	-505
▁really	-506
ving	-507
▁desktop	-508
▁--	-509
▁cl	-510
ault	-511
▁stu	-512
gram	-513
▁comput	-514
▁download	-515
ft	-516
ies	-517
▁program	-518
▁because	-519
▁live	-520
ah	-521
▁update	-522
▁again	-523
▁fire	-524
▁line	-525
▁diff	-526
ree	-527
int	-528
▁too	-529
▁even	-530
fs	-531
read	-532
▁sour	-533
act	-534
▁used	-535
▁fix	-536
▁bet	-537
▁res	-538
vice	-539
▁drivers	-540
ity	-541
▁might	-542
▁iss	-543
fore	-544
▁paste	-545
ress	-546
▁nvid	-547
▁pas	-548
▁ask	-549
▁under	-550
▁list	-551
▁upgr	-552
▁mach	-553
▁nvidia	-554
▁off	-555
▁6	-556
▁default	-557
▁please	-558
▁aut	-559
▁before	-560
▁usb	-561
iss	-562
▁quest	-563
▁put	-564
▁sw	-565
▁fl	-566
orm	-567
og	-568
orry	-569
▁computer	-570
config	-571
▁let	-572
put	-573
▁sec	-574
ager	-575
▁ext	-576
.10	-577
ep	-578
mm	-579
▁hi	-580
.04	-581
▁fe	-582
▁play	-583
▁ar	-584
▁edit	-585
▁differ	-586
▁though	-587
▁maybe	-588
ready	-589
▁ssh	-590
▁hd	-591
▁remove	-592
▁fine	-593
▁prob	-594
▁cor	-595
▁8	-596
ip	-597
boot	-598
▁wire	-599
▁support	-600
▁already	-601
▁access	-602
xt	-603
▁key	-604
▁bl	-605
▁mess	-606
▁sorry	-607
lder	-608
▁inst	-609
si	-610
▁cre	-611
▁give	-612
▁cont	-613
▁mu	-614
▁br	-615
▁happ	-616
▁load	-617
▁machine	-618
▁gre	-619
▁question	-620
▁show	-621
ty	-622
th	-623
org	-624
ak	-625
ves	-626
▁10	-627
ript	-628
▁setting	-629
▁directory	-630
▁much	-631
▁nothing	-632
▁passw	-633
▁men	-634
aptop	-635
ary	-636
app	-637
▁someone	-638
ely	-639
▁another	-640
▁without	-641
▁bot	-642
▁able	-643
ces	-644
▁disk	-645
bo	-646
▁laptop	-647
ably	-648
▁packages	-649
▁ent	-650
▁loc	-651
▁syn	-652
▁stuff	-653
▁0	-654
▁been	-655
play	-656
▁output	-657
▁yeah	-658
▁name	-659
▁rout	-660
▁ls	-661
▁cant	-662
▁thr	-663
av	-664
▁happen	-665
itor	-666
▁wireless	-667
▁found	-668
▁bu	-669
▁po	-670
ber	-671
fox	-672
bin	-673
▁over	-674
▁cr	-675
▁going	-676
▁4	-677
lic	-678
▁password	-679
▁script	-680
▁probably	-681
▁bit	-682
▁menu	-683
ys	-684
▁deb	-685
▁installing	-686
▁actu	-687
▁restart	-688
▁firefox	-689
▁reboot	-690
▁5	-691
▁folder	-692
▁click	-693
▁web	-694
ution	-695
▁seems	-696
▁device	-697
▁thats	-698
▁eas	-699
▁9	-700
ake	-701
▁issue	-702
▁pos	-703
▁source	-704
▁very	-705
dis	-706
▁vide	-707
ever	-708
▁spec	-709
▁tw	-710
▁7	-711
ple	-712
pend	-713
ull	-714
▁option	-715
ually	-716
ial	-717
conf	-718
▁manager	-719
▁idea	-720
▁lib	-721
▁repos	-722
fer	-723
▁upgrade	-724
▁done	-725
▁different	-726
▁pc	-727
▁cop	-728
▁box	-729
▁perm	-730
▁correct	-731
▁xorg	-732
▁those	-733
▁per	-734
▁doing	-735
▁having	-736
ser	-737
▁said	-738
aptic	-739
▁never	-740
▁sim	-741
▁guess	-742
kg	-743
rent	-744
ically	-745
di	-746
▁wrong	-747
▁possi	-748
▁synaptic	-749
▁getting	-750
ous	-751
lf	-752
▁intern	-753
▁port	-754
▁things	-755
ata	-756
▁everything	-757
▁through	-758
sol	-759
▁pr	-760
▁sear	-761
ond	-762
▁fail	-763
urn	-764
ie	-765
▁who	-766
▁inf	-767
ead	-768
▁flash	-769
▁video	-770
▁el	-771
▁reinstall	-772
▁del	-773
let	-774
▁login	-775
▁better	-776
▁plug	-777
ubuntu	-778
ix	-779
▁link	-780
pkg	-781
▁pastebin	-782
▁soft	-783
gg	-784
ache	-785
▁both	-786
▁oh	-787
▁os	-788
ual	-789
ince	-790
▁actually	-791
led	-792
min	-793
▁dpkg	-794
▁copy	-795
mod	-796
▁router	-797
mb	-798
▁looking	-799
▁point	-800
▁hell	-801
▁since	-802
▁software	-803
▁old	-804
▁nt	-805
▁acc	-806
▁etc	-807
ize	-808
▁exact	-809
▁te	-810
ither	-811
▁cur	-812
▁problems	-813
▁cli	-814
▁else	-815
▁search	-816
ence	-817
▁permiss	-818
▁depend	-819
▁gi	-820
ge	-821
▁home	-822
▁sl	-823
wh	-824
apper	-825
▁mon	-826
▁lot	-827
▁goog	-828
▁av	-829
name	-830
▁em	-831
▁resol	-832
▁ph	-833
▁two	-834
gl	-835
▁possible	-836
▁gui	-837
▁settings	-838
ought	-839
aph	-840
self	-841
▁specif	-842
▁dist	-843
▁free	-844
ways	-845
▁chan	-846
▁grep	-847
ody	-848
lect	-849
▁process	-850
▁min	-851
▁delet	-852
▁connection	-853
rl	-854
▁form	-855
ved	-856
ild	-857
▁most	-858
▁own	-859
▁hey	-860
▁ap	-861
▁via	-862
▁while	-863
▁take	-864
▁applic	-865
cd	-866
▁internet	-867
▁graph	-868
▁lol	-869
▁window	-870
▁keep	-871
▁create	-872
▁inter	-873
▁call	-874
▁pe	-875
▁sugg	-876
▁hardware	-877
ude	-878
oks	-879
▁suggest	-880
▁ntfs	-881
ish	-882
▁norm	-883
▁mode	-884
▁hello	-885
server	-886
body	-887
▁worked	-888
▁autom	-889
ci	-890
▁setup	-891
▁instead	-892
▁graphic	-893
▁pat	-894
▁either	-895
▁sol	-896
▁monitor	-897
▁mo	-898
▁bad	-899
▁doesnt	-900
▁64	-901
▁test	-902
▁hmm	-903
▁configure	-904
ave	-905
▁ho	-906
▁bro	-907
ian	-908
itt	-909
▁long	-910
▁eth	-911
▁wine	-912
▁kind	-913
▁ah	-914
▁guys	-915
▁last	-916
▁second	-917
vd	-918
▁select	-919
▁address	-920
▁looks	-921
box	-922
▁det	-923
▁xp	-924
▁bas	-925
dio	-926
stand	-927
itch	-928
▁being	-929
▁ass	-930
▁partitions	-931
▁were	-932
▁such	-933
ations	-934
▁kde	-935
ason	-936
▁peop	-937
king	-938
▁current	-939
▁vir	-940
board	-941
▁always	-942
▁cho	-943
▁top	-944
▁google	-945
ars	-946
▁inc	-947
ener	-948
▁foll	-949
ope	-950
▁people	-951
sa	-952
ment	-953
▁str	-954
▁share	-955
▁mounted	-956
▁bug	-957
▁reason	-958
▁write	-959
dm	-960
▁yet	-961
ates	-962
▁follow	-963
▁compiz	-964
▁thought	-965
ious	-966
▁admin	-967
▁shows	-968
▁format	-969
ule	-970
ted	-971
▁understand	-972
▁space	-973
▁ati	-974
▁proper	-975
▁kill	-976
▁cp	-977
▁sd	-978
▁gp	-979
▁exactly	-980
▁sm	-981
▁errors	-982
▁data	-983
cp	-984
ume	-985
▁display	-986
rc	-987
▁tool	-988
▁few	-989
disk	-990
▁wa	-991
bit	-992
port	-993
gb	-994
ating	-995
▁message	-996
▁installation	-997
ava	-998
ower	-999
▁options	-1000
ns	-1001
oup	-1002
nc	-1003
▁client	-1004
▁channel	-1005
wr	-1006
▁build	-1007
oo	-1008
aut	-1009
▁lu	-1010
▁switch	-1011
▁host	-1012
abled	-1013
▁full	-1014
aun	-1015
▁remo	-1016
▁co	-1017
▁debian	-1018
▁cod	-1019
▁manually	-1020
▁clo	-1021
pro	-1022
▁cle	-1023
▁prefer	-1024
▁contro	-1025
▁best	-1026
▁dvd	-1027
▁fig	-1028
▁pret	-1029
▁pan	-1030
▁post	-1031
▁swap	-1032
▁page	-1033
▁au	-1034
where	-1035
ru	-1036
▁automat	-1037
tual	-1038
▁local	-1039
▁once	-1040
ues	-1041
▁ram	-1042
▁iso	-1043
▁avail	-1044
▁dh	-1045
▁pretty	-1046
▁win	-1047
▁wait	-1048
▁many	-1049
to	-1050
▁ct	-1051
ba	-1052
▁text	-1053
▁interf	-1054
▁okay	-1055
ouse	-1056
▁around	-1057
omm	-1058
ird	-1059
▁exist	-1060
▁virtual	-1061
▁stop	-1062
▁enter	-1063
▁users	-1064
▁mat	-1065
▁alt	-1066
▁real	-1067
aid	-1068
86	-1069
net	-1070
▁whats	-1071
▁pri	-1072
▁easy	-1073
▁ping	-1074
▁icon	-1075
▁conf	-1076
we	-1077
▁end	-1078
▁miss	-1079
▁sam	-1080
▁info	-1081
ystem	-1082
▁ideas	-1083
▁spe	-1084
▁anyway	-1085
▁easi	-1086
▁permissions	-1087
▁turn	-1088
▁figure	-1089
ote	-1090
▁ctrl	-1091
sp	-1092
▁typ	-1093
▁group	-1094
▁sounds	-1095
sole	-1096
▁normal	-1097
▁requ	-1098
ames	-1099
▁id	-1100
.6	-1101
▁exec	-1102
▁happens	-1103
▁livecd	-1104
▁called	-1105
vel	-1106
ifi	-1107
▁remem	-1108
▁delete	-1109
ios	-1110
▁module	-1111
ged	-1112
▁complet	-1113
▁resolution	-1114
▁available	-1115
tp	-1116
▁11	-1117
▁vm	-1118
set	-1119
▁answ	-1120
▁configur	-1121
▁reg	-1122
▁sources	-1123
▁java	-1124
▁remember	-1125
enc	-1126
ign	-1127
▁gener	-1128
til	-1129
▁come	-1130
▁upgrad	-1131
▁appe	-1132
▁thank	-1133
▁dm	-1134
no	-1135
ittle	-1136
▁console	-1137
▁tal	-1138
▁reco	-1139
itude	-1140
list	-1141
▁hand	-1142
▁little	-1143
▁gdm	-1144
▁their	-1145
▁means	-1146
▁act	-1147
configure	-1148
arted	-1149
▁apache	-1150
ouble	-1151
ical	-1152
player	-1153
▁shell	-1154
▁case	-1155
▁mem	-1156
▁enable	-1157
▁must	-1158
sy	-1159
gin	-1160
ric	-1161
stab	-1162
▁compile	-1163
▁naut	-1164
▁gives	-1165
▁dev	-1166
▁tab	-1167
▁mult	-1168
▁made	-1169
▁filesystem	-1170
▁bios	-1171
▁panel	-1172
▁day	-1173
▁wont	-1174
▁samba	-1175
▁these	-1176
▁backup	-1177
▁mouse	-1178
▁num	-1179
.2	-1180
ffect	-1181
ilus	-1182
▁uses	-1183
ession	-1184
▁next	-1185
ton	-1186
na	-1187
iew	-1188
▁press	-1189
▁aptitude	-1190
▁stat	-1191
▁whatever	-1192
zy	-1193
▁32	-1194
▁graphics	-1195
▁execut	-1196
'.	-1197
▁won	-1198
▁late	-1199
ob	-1200
▁issues	-1201
▁path	-1202
resh	-1203
▁image	-1204
▁nautilus	-1205
ices	-1206
ful	-1207
man	-1208
▁mac	-1209
▁programs	-1210
ance	-1211
ward	-1212
aps	-1213
▁head	-1214
▁gparted	-1215
▁answer	-1216
fe	-1217
▁beli	-1218
▁compil	-1219
▁uninstall	-1220
▁exper	-1221
▁dhcp	-1222
▁audio	-1223
ules	-1224
▁exam	-1225
▁site	-1226
▁fr	-1227
▁intel	-1228
▁tar	-1229
tem	-1230
▁dual	-1231
▁expl	-1232
▁wi	-1233
▁didnt	-1234
▁dir	-1235
ans	-1236
▁fstab	-1237
side	-1238
eve	-1239
▁fun	-1240
▁changed	-1241
▁plugin	-1242
▁specific	-1243
▁black	-1244
iv	-1245
gy	-1246
▁installer	-1247
mount	-1248
▁far	-1249
ences	-1250
▁connected	-1251
cept	-1252
▁button	-1253
▁hdd	-1254
▁prom	-1255
▁power	-1256
▁usually	-1257
▁met	-1258
▁choose	-1259
▁commands	-1260
▁big	-1261
▁sort	-1262
cc	-1263
▁saying	-1264
▁fdisk	-1265
▁enough	-1266
▁extern	-1267
▁drives	-1268
▁wonder	-1269
▁interface	-1270
▁apps	-1271
desktop	-1272
▁kubuntu	-1273
▁chmod	-1274
▁dapper	-1275
ween	-1276
ents	-1277
dd	-1278
▁move	-1279
ular	-1280
kes	-1281
▁auto	-1282
▁brows	-1283
▁extr	-1284
▁external	-1285
verse	-1286
▁fast	-1287
▁believe	-1288
inter	-1289
▁hit	-1290
▁alsa	-1291
▁keyboard	-1292
▁booting	-1293
▁between	-1294
▁cat	-1295
▁init	-1296
▁wifi	-1297
▁least	-1298
lock	-1299
▁automatically	-1300
ken	-1301
▁account	-1302
ommend	-1303
▁slow	-1304
▁anybody	-1305
▁asking	-1306
▁altern	-1307
ise	-1308
ens	-1309
▁allow	-1310
▁distro	-1311
▁cause	-1312
aces	-1313
ange	-1314
▁nice	-1315
▁unless	-1316
▁burn	-1317
▁place	-1318
ql	-1319
▁example	-1320
▁whole	-1321
▁bash	-1322
▁however	-1323
▁needs	-1324
▁downloaded	-1325
▁recommend	-1326
▁doc	-1327
▁tak	-1328
--	-1329
▁enc	-1330
▁main	-1331
▁each	-1332
yth	-1333
▁save	-1334
▁10.04	-1335
ative	-1336
ss	-1337
▁ifconfig	-1338
▁ndis	-1339
ricted	-1340
▁cpu	-1341
▁fs	-1342
▁latest	-1343
32	-1344
▁failed	-1345
▁great	-1346
▁enabled	-1347
▁application	-1348
▁told	-1349
▁luck	-1350
tur	-1351
▁broken	-1352
line	-1353
▁less	-1354
rypt	-1355
▁remote	-1356
day	-1357
pa	-1358
ify	-1359
▁ref	-1360
ather	-1361
▁z	-1362
▁env	-1363
▁med	-1364
▁lines	-1365
▁sub	-1366
▁laun	-1367
▁goes	-1368
▁detect	-1369
▁repl	-1370
▁times	-1371
▁php	-1372
▁configuration	-1373
-1	-1374
▁dr	-1375
file	-1376
▁dns	-1377
▁ever	-1378
▁prompt	-1379
manager	-1380
▁updates	-1381
▁incl	-1382
▁comes	-1383
▁perf	-1384
pci	-1385
wrapper	-1386
▁applications	-1387
com	-1388
osed	-1389
▁vol	-1390
rop	-1391
▁simple	-1392
▁send	-1393
▁makes	-1394
ime	-1395
haps	-1396
▁session	-1397
▁pers	-1398
▁star	-1399
▁ro	-1400
esg	-1401
igh	-1402
▁raid	-1403
ables	-1404
▁ive	-1405
▁minut	-1406
book	-1407
▁dmesg	-1408
▁perhaps	-1409
iverse	-1410
▁missing	-1411
▁100	-1412
▁mb	-1413
▁lear	-1414
▁bin	-1415
▁depends	-1416
▁control	-1417
ert	-1418
▁ndiswrapper	-1419
▁des	-1420
▁disable	-1421
tk	-1422
64	-1423
▁crash	-1424
▁step	-1425
▁ill	-1426
▁launch	-1427
▁player	-1428
▁effect	-1429
▁weird	-1430
▁exp	-1431
▁shut	-1432
▁left	-1433
vious	-1434
▁stand	-1435
wall	-1436
▁xserver	-1437
▁mys	-1438
▁isnt	-1439
ching	-1440
plug	-1441
▁memory	-1442
▁rel	-1443
tup	-1444
edit	-1445
▁recovery	-1446
▁ran	-1447
▁lspci	-1448
▁quite	-1449
me	-1450
ream	-1451
▁ago	-1452
▁wanted	-1453
deb	-1454
ud	-1455
▁gave	-1456
▁quick	-1457
▁result	-1458
pid	-1459
▁webs	-1460
▁checked	-1461
riend	-1462
▁supported	-1463
▁ones	-1464
▁disc	-1465
▁startup	-1466
▁somewhere	-1467
▁matter	-1468
▁8.04	-1469
▁preferences	-1470
▁hang	-1471
▁started	-1472
▁clean	-1473
▁code	-1474
ee	-1475
▁sk	-1476
▁properly	-1477
▁gl	-1478
▁hardy	-1479
▁rather	-1480
▁es	-1481
▁solution	-1482
ruct	-1483
sc	-1484
▁needed	-1485
▁suc	-1486
ogn	-1487
lan	-1488
▁browser	-1489
▁added	-1490
▁mplayer	-1491
itory	-1492
▁dec	-1493
.4	-1494
ition	-1495
root	-1496
▁mp	-1497
▁retur	-1498
▁12	-1499
▁talking	-1500
▁mine	-1501
ask	-1502
▁sda	-1503
▁vnc	-1504
ts	-1505
▁inform	-1506
uring	-1507
itories	-1508
▁stick	-1509
▁firewall	-1510
▁explain	-1511
▁printer	-1512
▁release	-1513
▁number	-1514
▁non	-1515
80	-1516
▁mysql	-1517
▁wor	-1518
xx	-1519
▁nope	-1520
▁hope	-1521
▁trans	-1522
ouch	-1523
▁bree	-1524
gn	-1525
▁username	-1526
▁cool	-1527
▁chip	-1528
▁gets	-1529
▁repositories	-1530
ging	-1531
▁gedit	-1532
▁irc	-1533
▁ps	-1534
ista	-1535
▁forum	-1536
▁recogn	-1537
▁oper	-1538
dev	-1539
down	-1540
▁changes	-1541
▁fat	-1542
▁trouble	-1543
▁lat	-1544
▁currently	-1545
▁went	-1546
▁vista	-1547
▁vmware	-1548
▁9.10	-1549
▁cert	-1550
▁breezy	-1551
lc	-1552
▁instruct	-1553
▁sect	-1554
ourse	-1555
▁removed	-1556
arm	-1557
10	-1558
▁until	-1559
▁service	-1560
dri	-1561
▁report	-1562
▁heh	-1563
full	-1564
ml	-1565
imes	-1566
for	-1567
▁permission	-1568
istr	-1569
ention	-1570
ari	-1571
oc	-1572
▁experi	-1573
▁correctly	-1574
▁hold	-1575
▁friend	-1576
how	-1577
▁repo	-1578
ling	-1579
▁itself	-1580
▁lock	-1581
▁close	-1582
▁view	-1583
▁arch	-1584
▁wlan	-1585
▁resp	-1586
▁volume	-1587
ible	-1588
▁2.6	-1589
ph	-1590
ank	-1591
▁sit	-1592
▁simil	-1593
cli	-1594
used	-1595
▁difference	-1596
grade	-1597
▁9.04	-1598
-2	-1599
ense	-1600
▁fresh	-1601
▁updated	-1602
▁sometimes	-1603
▁vlc	-1604
▁runs	-1605
but	-1606
▁easier	-1607
▁modem	-1608
▁everyone	-1609
▁restricted	-1610
▁myself	-1611
▁information	-1612
▁xf	-1613
isty	-1614
▁mom	-1615
.5	-1616
▁website	-1617
▁ob	-1618
▁pur	-1619
log	-1620
▁_	-1621
▁listed	-1622
▁administr	-1623
▁seen	-1624
▁edgy	-1625
▁repository	-1626
▁iw	-1627
▁course	-1628
more	-1629
oub	-1630
▁small	-1631
ator	-1632
ently	-1633
idd	-1634
cho	-1635
atch	-1636
▁size	-1637
▁xubuntu	-1638
▁supposed	-1639
▁lik	-1640
▁starting	-1641
▁ca	-1642
▁dependenc	-1643
▁gut	-1644
▁person	-1645
▁media	-1646
▁bo	-1647
▁similar	-1648
ex	-1649
▁created	-1650
pped	-1651
ines	-1652
▁guide	-1653
▁bt	-1654
rx	-1655
▁feisty	-1656
ga	-1657
▁entry	-1658
▁fin	-1659
▁par	-1660
host	-1661
plash	-1662
reconfigure	-1663
▁following	-1664
11	-1665
▁asked	-1666
▁certain	-1667
▁anymore	-1668
▁short	-1669
▁fil	-1670
▁care	-1671
ass	-1672
cache	-1673
▁ether	-1674
▁amd	-1675
ps	-1676
▁ftp	-1677
▁forward	-1678
▁modpro	-1679
▁pid	-1680
▁inside	-1681
▁learn	-1682
▁gutsy	-1683
ject	-1684
▁adv	-1685
▁hour	-1686
ery	-1687
▁knows	-1688
vert	-1689
glrx	-1690
▁speed	-1691
▁instructions	-1692
cl	-1693
ython	-1694
50	-1695
▁devices	-1696
▁q	-1697
▁meant	-1698
▁loaded	-1699
ized	-1700
▁theme	-1701
▁making	-1702
▁ht	-1703
▁during	-1704
orrent	-1705
▁fixed	-1706
▁bar	-1707
▁priv	-1708
back	-1709
▁touch	-1710
▁wondering	-1711
▁strange	-1712
urity	-1713
▁appear	-1714
air	-1715
▁tells	-1716
ility	-1717
▁require	-1718
▁yep	-1719
ark	-1720
▁ms	-1721
eres	-1722
ument	-1723
▁reading	-1724
▁order	-1725
time	-1726
ction	-1727
▁moment	-1728
▁ethernet	-1729
▁modprobe	-1730
ksu	-1731
lders	-1732
▁editor	-1733
▁gksu	-1734
▁except	-1735
ced	-1736
.3	-1737
▁8.10	-1738
▁10.10	-1739
ately	-1740
▁hoary	-1741
▁ipt	-1742
▁font	-1743
▁blank	-1744
▁manag	-1745
arent	-1746
▁yea	-1747
▁wan	-1748
▁rm	-1749
▁scan	-1750
▁sing	-1751
▁python	-1752
▁completely	-1753
▁modules	-1754
▁thinking	-1755
▁upgraded	-1756
▁inv	-1757
▁likely	-1758
▁cards	-1759
▁unable	-1760
▁mus	-1761
ulse	-1762
▁freez	-1763
▁fsck	-1764
nd	-1765
▁mail	-1766
▁cons	-1767
▁model	-1768
▁smb	-1769
▁encrypt	-1770
▁happened	-1771
▁200	-1772
ilt	-1773
▁chroot	-1774
▁import	-1775
▁fglrx	-1776
▁based	-1777
▁bre	-1778
▁print	-1779
▁security	-1780
▁days	-1781
▁dd	-1782
-3	-1783
ply	-1784
aw	-1785
▁high	-1786
▁single	-1787
ustom	-1788
▁away	-1789
▁includ	-1790
▁mic	-1791
pty	-1792
▁messages	-1793
▁tools	-1794
▁pulse	-1795
chat	-1796
▁loading	-1797
▁iptables	-1798
velop	-1799
▁servers	-1800
▁lang	-1801
▁static	-1802
▁music	-1803
▁folders	-1804
▁standard	-1805
▁changing	-1806
ten	-1807
▁opens	-1808
iron	-1809
▁ya	-1810
▁starts	-1811
erest	-1812
▁speak	-1813
▁contain	-1814
▁20	-1815
▁lan	-1816
ories	-1817
▁force	-1818
vm	-1819
fully	-1820
ename	-1821
▁entire	-1822
▁minutes	-1823
▁empty	-1824
▁cable	-1825
▁safe	-1826
illa	-1827
12	-1828
▁bus	-1829
▁lost	-1830
▁configured	-1831
ture	-1832
upgrade	-1833
▁basically	-1834
▁odd	-1835
▁interest	-1836
▁url	-1837
ixer	-1838
▁mounting	-1839
user	-1840
▁col	-1841
▁mind	-1842
▁mention	-1843
▁word	-1844
xorg	-1845
▁custom	-1846
▁manual	-1847
▁gtk	-1848
▁sense	-1849
▁gcc	-1850
▁val	-1851
ech	-1852
▁others	-1853
ki	-1854
ying	-1855
▁names	-1856
▁fam	-1857
ential	-1858
▁md	-1859
▁block	-1860
▁defin	-1861
▁controll	-1862
▁game	-1863
▁alternate	-1864
▁rele	-1865
▁simply	-1866
▁sever	-1867
par	-1868
▁prop	-1869
▁nic	-1870
▁unity	-1871
▁side	-1872
▁came	-1873
▁beh	-1874
▁versions	-1875
.'	-1876
▁assum	-1877
▁normally	-1878
▁ir	-1879
▁related	-1880
right	-1881
ger	-1882
ek	-1883
▁sto	-1884
▁fre	-1885
▁administration	-1886
▁heard	-1887
▁showing	-1888
ors	-1889
▁pass	-1890
▁later	-1891
▁fact	-1892
gz	-1893
pad	-1894
▁btw	-1895
▁aw	-1896
▁ver	-1897
▁feat	-1898
▁takes	-1899
▁mk	-1900
▁develop	-1901
▁totem	-1902
▁universe	-1903
▁pres	-1904
▁links	-1905
▁theres	-1906
▁vis	-1907
▁fails	-1908
▁none	-1909
▁dun	-1910
▁machines	-1911
▁jo	-1912
▁built	-1913
hh	-1914
▁gon	-1915
▁stable	-1916
ax	-1917
▁xchat	-1918
▁gb	-1919
rew	-1920
24	-1921
ven	-1922
cut	-1923
▁dam	-1924
▁flo	-1925
▁tot	-1926
▁refer	-1927
adeon	-1928
▁assume	-1929
▁experience	-1930
▁feel	-1931
▁computers	-1932
▁langu	-1933
xy	-1934
▁clear	-1935
▁ear	-1936
ner	-1937
▁pop	-1938
▁years	-1939
ides	-1940
▁stuck	-1941
▁bun	-1942
▁cou	-1943
▁80	-1944
du	-1945
off	-1946
▁section	-1947
roll	-1948
vent	-1949
▁sys	-1950
mit	-1951
▁libr	-1952
▁xfce	-1953
fo	-1954
▁input	-1955
▁logged	-1956
▁directly	-1957
▁mbr	-1958
▁auth	-1959
ype	-1960
▁his	-1961
▁radeon	-1962
zilla	-1963
uid	-1964
ource	-1965
▁typing	-1966
ftp	-1967
▁virtualbox	-1968
mp	-1969
▁orig	-1970
▁unmount	-1971
▁drop	-1972
▁gonna	-1973
▁chipset	-1974
ode	-1975
▁da	-1976
iple	-1977
▁games	-1978
▁detail	-1979
▁ur	-1980
▁return	-1981
plugin	-1982
▁tem	-1983
▁dunno	-1984
▁splash	-1985
▁bott	-1986
▁thx	-1987
key	-1988
▁super	-1989
▁ports	-1990
▁replace	-1991
ironment	-1992
▁several	-1993
▁sata	-1994
▁yourself	-1995
600	-1996
▁older	-1997
▁chown	-1998
▁writ	-1999
▁appears	-2000
▁keys	-2001
rupt	-2002
▁separ	-2003
▁looked	-2004
▁broad	-2005
ased	-2006
got	-2007
▁core	-2008
use	-2009
▁wiki	-2010
▁reset	-2011
iar	-2012
▁forums	-2013
▁applet	-2014
▁cdrom	-2015
ano	-2016
▁light	-2017
▁echo	-2018
ider	-2019
▁gate	-2020
▁faster	-2021
▁sun	-2022
▁today	-2023
▁adding	-2024
▁regular	-2025
▁logs	-2026
start	-2027
▁true	-2028
▁attem	-2029
▁document	-2030
term	-2031
wise	-2032
▁environment	-2033
▁dependencies	-2034
▁actual	-2035
▁function	-2036
▁downloading	-2037
drive	-2038
▁7.10	-2039
▁cent	-2040
▁expect	-2041
ication	-2042
▁cu	-2043
▁leave	-2044
▁inde	-2045
ecs	-2046
▁alth	-2047
▁ff	-2048
▁war	-2049
most	-2050
▁00	-2051
▁front	-2052
▁wanna	-2053
▁att	-2054
aunty	-2055
ement	-2056
▁effects	-2057
▁resize	-2058
▁ign	-2059
▁bottom	-2060
▁binary	-2061
▁11.04	-2062
▁booted	-2063
▁attempt	-2064
▁extract	-2065
▁jaunty	-2066
client	-2067
▁util	-2068
ially	-2069
▁bery	-2070
▁dell	-2071
armic	-2072
▁mir	-2073
▁sign	-2074
essential	-2075
▁execute	-2076
ew	-2077
lin	-2078
▁beryl	-2079
cid	-2080
▁nat	-2081
▁tut	-2082
▁break	-2083
▁questions	-2084
▁screw	-2085
▁keeps	-2086
▁meth	-2087
▁ppa	-2088
force	-2089
▁previous	-2090
▁disabled	-2091
▁messed	-2092
ubi	-2093
▁dial	-2094
▁prim	-2095
▁gateway	-2096
▁checking	-2097
▁pm	-2098
▁den	-2099
▁begin	-2100
▁karmic	-2101
▁perfect	-2102
▁deleted	-2103
▁rid	-2104
▁lets	-2105
▁playing	-2106
▁although	-2107
▁systems	-2108
▁boots	-2109
▁language	-2110
▁internal	-2111
▁solve	-2112
▁gone	-2113
▁removing	-2114
▁networking	-2115
▁pic	-2116
▁pick	-2117
▁within	-2118
43	-2119
ppy	-2120
▁wubi	-2121
▁cap	-2122
▁note	-2123
using	-2124
▁clos	-2125
▁online	-2126
▁nm	-2127
hz	-2128
audio	-2129
▁somehow	-2130
dir	-2131
▁gent	-2132
vide	-2133
▁onto	-2134
aring	-2135
▁chat	-2136
▁don	-2137
▁restore	-2138
ext	-2139
▁multiple	-2140
▁stupid	-2141
lier	-2142
▁vim	-2143
▁success	-2144
▁iwconfig	-2145
▁controller	-2146
▁forgot	-2147
▁couple	-2148
▁perform	-2149
ether	-2150
bu	-2151
▁method	-2152
ons	-2153
usb	-2154
▁famil	-2155
▁giving	-2156
▁store	-2157
ump	-2158
ared	-2159
▁mont	-2160
▁newer	-2161
▁mov	-2162
bly	-2163
▁almost	-2164
▁gksudo	-2165
fort	-2166
▁hours	-2167
▁listen	-2168
▁vga	-2169
stream	-2170
▁gig	-2171
▁graphical	-2172
▁nano	-2173
▁longer	-2174
▁complete	-2175
▁shutdown	-2176
▁ren	-2177
aim	-2178
▁provid	-2179
▁saw	-2180
ries	-2181
esa	-2182
▁results	-2183
▁activ	-2184
▁kinda	-2185
▁location	-2186
▁gentoo	-2187
▁pidgin	-2188
▁upgrading	-2189
▁special	-2190
▁earlier	-2191
▁minim	-2192
▁bunch	-2193
orth	-2194
sd	-2195
▁lucid	-2196
▁skype	-2197
▁plugged	-2198
pn	-2199
▁adapt	-2200
sl	-2201
▁double	-2202
▁compat	-2203
▁places	-2204
▁otherwise	-2205
tar	-2206
▁lar	-2207
▁um	-2208
▁patch	-2209
iso	-2210
▁compiling	-2211
▁alright	-2212
▁tutor	-2213
▁suggestions	-2214
ooth	-2215
▁wired	-2216
ases	-2217
▁basic	-2218
ecess	-2219
▁netbook	-2220
▁installs	-2221
era	-2222
▁suppose	-2223
▁extra	-2224
▁hear	-2225
▁month	-2226
▁separate	-2227
▁exit	-2228
▁localhost	-2229
▁tutorial	-2230
acity	-2231
▁job	-2232
ground	-2233
▁route	-2234
▁rand	-2235
▁bring	-2236
▁desc	-2237
▁scripts	-2238
pi	-2239
▁somebody	-2240
▁proxy	-2241
▁consider	-2242
▁telling	-2243
▁hah	-2244
▁important	-2245
▁familiar	-2246
lib	-2247
▁primary	-2248
▁seeing	-2249
▁partic	-2250
▁low	-2251
68	-2252
▁lots	-2253
▁uuid	-2254
▁15	-2255
▁rw	-2256
▁finish	-2257
▁tty	-2258
▁extens	-2259
▁above	-2260
▁als	-2261
▁tv	-2262
▁comment	-2263
▁him	-2264
arently	-2265
ording	-2266
connect	-2267
pr	-2268
aries	-2269
loc	-2270
▁wish	-2271
▁prot	-2272
▁scroll	-2273
▁editing	-2274
▁stay	-2275
▁ge	-2276
cm	-2277
▁assuming	-2278
▁glx	-2279
lst	-2280
▁shared	-2281
▁specify	-2282
▁newb	-2283
any	-2284
▁11.10	-2285
por	-2286
▁locate	-2287
▁max	-2288
▁connecting	-2289
card	-2290
▁pulseaudio	-2291
omain	-2292
▁reinstalling	-2293
▁disks	-2294
▁19	-2295
▁worth	-2296
▁random	-2297
▁whether	-2298
▁cam	-2299
▁contents	-2300
-0	-2301
▁16	-2302
▁date	-2303
▁propri	-2304
▁wget	-2305
ester	-2306
▁general	-2307
view	-2308
▁red	-2309
ai	-2310
▁particular	-2311
▁22	-2312
df	-2313
▁table	-2314
▁directories	-2315
cam	-2316
▁background	-2317
▁shortcut	-2318
pm	-2319
ath	-2320
▁typed	-2321
ring	-2322
▁pci	-2323
▁compiled	-2324
▁vari	-2325
▁obvious	-2326
emon	-2327
▁40	-2328
▁icons	-2329
▁executable	-2330
▁original	-2331
kn	-2332
▁filename	-2333
▁apparently	-2334
▁hda	-2335
▁limit	-2336
ora	-2337
mail	-2338
▁du	-2339
glx	-2340
ures	-2341
etary	-2342
ended	-2343
▁seconds	-2344
▁forget	-2345
▁necess	-2346
red	-2347
▁uname	-2348
▁ali	-2349
77	-2350
▁anywhere	-2351
▁che	-2352
icial	-2353
▁wants	-2354
386	-2355
yn	-2356
▁mirror	-2357
▁ipod	-2358
▁denied	-2359
▁deal	-2360
▁hp	-2361
▁soon	-2362
urning	-2363
ium	-2364
rib	-2365
▁compl	-2366
▁loop	-2367
umb	-2368
su	-2369
▁ie	-2370
▁yup	-2371
▁wpa	-2372
ties	-2373
pping	-2374
ib	-2375
▁corrupt	-2376
pack	-2377
info	-2378
▁fed	-2379
▁tun	-2380
gener	-2381
▁doub	-2382
irc	-2383
▁gim	-2384
▁hehe	-2385
▁noob	-2386
▁plugins	-2387
▁wow	-2388
▁useful	-2389
▁talk	-2390
▁30	-2391
▁nfs	-2392
▁modify	-2393
▁arg	-2394
▁recently	-2395
▁convert	-2396
▁ident	-2397
▁lsmod	-2398
▁pub	-2399
tr	-2400
ups	-2401
▁clue	-2402
▁arr	-2403
▁sent	-2404
▁tho	-2405
▁bootable	-2406
▁char	-2407
free	-2408
sync	-2409
▁dos	-2410
▁25	-2411
▁inte	-2412
▁rebooted	-2413
▁inser	-2414
screen	-2415
tf	-2416
ffic	-2417
▁interesting	-2418
▁asks	-2419
▁recover	-2420
▁yester	-2421
▁connections	-2422
▁complain	-2423
▁love	-2424
▁domain	-2425
▁detected	-2426
zip	-2427
▁proprietary	-2428
▁nam	-2429
▁restarted	-2430
▁yesterday	-2431
▁alot	-2432
grub	-2433
ross	-2434
ww	-2435
▁export	-2436
▁confused	-2437
generic	-2438
uses	-2439
▁followed	-2440
▁lay	-2441
▁loads	-2442
▁transfer	-2443
▁hmmm	-2444
▁turned	-2445
▁cut	-2446
▁email	-2447
setting	-2448
fix	-2449
▁amar	-2450
▁supports	-2451
▁ignore	-2452
▁http	-2453
ster	-2454
rw	-2455
▁given	-2456
▁half	-2457
000	-2458
urt	-2459
pc	-2460
shot	-2461
mms	-2462
▁ind	-2463
▁watch	-2464
▁stopped	-2465
▁busy	-2466
▁level	-2467
▁dat	-2468
▁crashes	-2469
▁ado	-2470
▁notic	-2471
▁passwd	-2472
idden	-2473
▁umount	-2474
▁anno	-2475
▁cron	-2476
▁tech	-2477
▁nv	-2478
▁serious	-2479
▁alternative	-2480
▁fedora	-2481
▁lts	-2482
▁intre	-2483
raid	-2484
▁integr	-2485
▁torrent	-2486
▁doubt	-2487
▁accept	-2488
▁synt	-2489
streamer	-2490
image	-2491
▁dig	-2492
amixer	-2493
▁advice	-2494
▁beta	-2495
▁often	-2496
▁task	-2497
fortun	-2498
▁amarok	-2499
▁serv	-2500
linux	-2501
peg	-2502
pos	-2503
▁details	-2504
settings	-2505
▁mis	-2506
under	-2507
ta	-2508
▁contin	-2509
▁hm	-2510
▁multiverse	-2511
▁outside	-2512
▁troub	-2513
▁adapter	-2514
▁flux	-2515
▁unfortun	-2516
itten	-2517
uh	-2518
▁drag	-2519
▁known	-2520
▁damn	-2521
▁ath	-2522
olution	-2523
▁blu	-2524
loader	-2525
.8	-2526
ised	-2527
▁xmms	-2528
60	-2529
▁harddrive	-2530
add	-2531
▁sur	-2532
▁webcam	-2533
po	-2534
▁floppy	-2535
▁syml	-2536
oid	-2537
amp	-2538
its	-2539
▁rebooting	-2540
▁everytime	-2541
med	-2542
olic	-2543
▁three	-2544
only	-2545
ky	-2546
▁intrepid	-2547
ires	-2548
▁room	-2549
light	-2550
admin	-2551
▁buy	-2552
▁easily	-2553
reci	-2554
.06	-2555
▁vi	-2556
▁purge	-2557
▁adobe	-2558
just	-2559
▁rh	-2560
▁alsamixer	-2561
▁fonts	-2562
▁choice	-2563
▁syntax	-2564
▁freezes	-2565
▁helps	-2566
utions	-2567
▁official	-2568
▁pages	-2569
ms	-2570
▁whenever	-2571
▁chance	-2572
▁track	-2573
▁7.04	-2574
▁trick	-2575
▁lvm	-2576
▁interfaces	-2577
ters	-2578
▁phys	-2579
▁active	-2580
▁rc	-2581
▁troubles	-2582
▁equ	-2583
come	-2584
▁themes	-2585
direct	-2586
▁logging	-2587
▁private	-2588
▁handle	-2589
ero	-2590
▁figured	-2591
▁unkn	-2592
▁nick	-2593
▁plan	-2594
▁rt	-2595
▁phone	-2596
▁guest	-2597
▁hop	-2598
xp	-2599
▁pi	-2600
▁mark	-2601
▁archive	-2602
▁took	-2603
▁record	-2604
▁noticed	-2605
▁according	-2606
what	-2607
▁mother	-2608
▁hot	-2609
▁exists	-2610
eler	-2611
ze	-2612
▁engl	-2613
▁defaults	-2614
▁hangs	-2615
▁evolution	-2616
▁broadcom	-2617
▁mentioned	-2618
avi	-2619
▁kernels	-2620
▁codecs	-2621
comm	-2622
▁shot	-2623
▁occ	-2624
click	-2625
▁stream	-2626
▁closed	-2627
tube	-2628
▁crap	-2629
▁lists	-2630
▁happening	-2631
▁mv	-2632
▁due	-2633
▁selected	-2634
alt	-2635
.9	-2636
▁feature	-2637
▁opened	-2638
▁mut	-2639
my	-2640
▁fro	-2641
▁request	-2642
▁services	-2643
fl	-2644
ister	-2645
▁1024	-2646
▁seper	-2647
▁haha	-2648
▁existing	-2649
inks	-2650
▁err	-2651
etooth	-2652
▁sdb	-2653
ified	-2654
▁uh	-2655
▁usage	-2656
▁bat	-2657
▁hostname	-2658
▁appreci	-2659
▁english	-2660
▁testing	-2661
▁minute	-2662
▁produ	-2663
▁param	-2664
▁howto	-2665
▁unknown	-2666
▁gstreamer	-2667
▁startx	-2668
▁pull	-2669
200	-2670
▁vesa	-2671
▁include	-2672
▁status	-2673
▁bcm	-2674
▁overwr	-2675
▁np	-2676
▁isp	-2677
▁fair	-2678
▁possibly	-2679
head	-2680
▁wel	-2681
▁world	-2682
▁center	-2683
▁common	-2684
▁recognize	-2685
▁videos	-2686
ift	-2687
mbox	-2688
▁youtube	-2689
▁requires	-2690
▁searching	-2691
▁sharing	-2692
▁warning	-2693
▁public	-2694
▁eh	-2695
▁native	-2696
bird	-2697
▁processor	-2698
▁groups	-2699
cod	-2700
▁processes	-2701
uge	-2702
▁brb	-2703
▁pain	-2704
▁utility	-2705
▁6.06	-2706
gs	-2707
▁worry	-2708
▁taking	-2709
▁hidden	-2710
ient	-2711
▁mist	-2712
▁night	-2713
▁replac	-2714
▁sync	-2715
▁var	-2716
▁repe	-2717
▁networks	-2718
starter	-2719
▁definit	-2720
▁mkdir	-2721
ny	-2722
▁render	-2723
omp	-2724
of	-2725
▁acpi	-2726
▁match	-2727
az	-2728
mware	-2729
▁owner	-2730
▁fan	-2731
▁bluetooth	-2732
cue	-2733
▁gaim	-2734
▁firestarter	-2735
icult	-2736
▁sus	-2737
▁properties	-2738
▁newest	-2739
ives	-2740
▁restarting	-2741
▁respond	-2742
▁performance	-2743
▁curs	-2744
▁along	-2745
ports	-2746
▁required	-2747
▁entries	-2748
▁regard	-2749
rest	-2750
inting	-2751
▁dialog	-2752
▁writing	-2753
▁monitors	-2754
ops	-2755
▁brow	-2756
▁necessary	-2757
▁tail	-2758
▁her	-2759
▁totally	-2760
urs	-2761
the	-2762
ontab	-2763
▁daemon	-2764
▁coming	-2765
▁named	-2766
ffer	-2767
▁datab	-2768
abling	-2769
gtk	-2770
▁huh	-2771
▁ways	-2772
▁difficult	-2773
▁refresh	-2774
he	-2775
azy	-2776
▁updating	-2777
▁resolve	-2778
stat	-2779
io	-2780
leep	-2781
▁mozilla	-2782
▁finding	-2783
ols	-2784
▁browse	-2785
▁crontab	-2786
▁havent	-2787
▁fluxbox	-2788
▁addition	-2789
▁behind	-2790
▁annoying	-2791
▁unfortunately	-2792
▁stra	-2793
▁large	-2794
20	-2795
▁bel	-2796
ssi	-2797
ality	-2798
▁cups	-2799
▁hate	-2800
▁neither	-2801
▁respon	-2802
▁mag	-2803
▁week	-2804
▁guy	-2805
▁welcome	-2806
▁curi	-2807
▁sn	-2808
usion	-2809
▁dest	-2810
▁suspend	-2811
rec	-2812
▁book	-2813
▁creating	-2814
▁rsync	-2815
▁assign	-2816
bar	-2817
ythmbox	-2818
▁documentation	-2819
▁specifically	-2820
▁cache	-2821
▁easiest	-2822
▁ahh	-2823
ned	-2824
source	-2825
▁irssi	-2826
▁state	-2827
▁screens	-2828
▁project	-2829
▁reinstalled	-2830
▁bootloader	-2831
▁opening	-2832
rm	-2833
▁secure	-2834
ale	-2835
▁50	-2836
▁grab	-2837
▁dhclient	-2838
▁returns	-2839
▁compatible	-2840
▁apply	-2841
▁provide	-2842
▁plz	-2843
▁ins	-2844
pur	-2845
▁guessing	-2846
▁vpn	-2847
ng	-2848
▁suggested	-2849
orage	-2850
▁allows	-2851
ident	-2852
▁perfectly	-2853
▁ess	-2854
▁firmware	-2855
▁metacity	-2856
▁df	-2857
arty	-2858
▁bes	-2859
▁encrypted	-2860
▁wm	-2861
bern	-2862
▁present	-2863
wards	-2864
▁lose	-2865
▁straight	-2866
▁wat	-2867
▁authent	-2868
▁join	-2869
space	-2870
▁smart	-2871
▁imag	-2872
▁motherboard	-2873
45	-2874
▁flag	-2875
▁class	-2876
▁movie	-2877
bers	-2878
br	-2879
▁hack	-2880
page	-2881
▁packag	-2882
▁distros	-2883
cs	-2884
ormat	-2885
40	-2886
▁fault	-2887
▁newbie	-2888
core	-2889
▁library	-2890
▁cds	-2891
▁putting	-2892
▁sshd	-2893
▁sucks	-2894
ily	-2895
▁tel	-2896
▁images	-2897
▁17	-2898
▁programm	-2899
▁master	-2900
▁scr	-2901
▁months	-2902
▁seperate	-2903
▁pls	-2904
▁recommended	-2905
▁nor	-2906
▁indeed	-2907
▁bind	-2908
▁trash	-2909
▁manage	-2910
▁steps	-2911
bl	-2912
anced	-2913
▁disconnect	-2914
you	-2915
java	-2916
▁atm	-2917
6-	-2918
▁generic	-2919
▁written	-2920
▁located	-2921
▁onboard	-2922
▁near	-2923
▁gimp	-2924
▁packet	-2925
▁oss	-2926
▁geforce	-2927
▁extended	-2928
▁buttons	-2929
andr	-2930
▁contains	-2931
▁hor	-2932
▁including	-2933
▁saved	-2934
▁paramet	-2935
▁screwed	-2936
▁cm	-2937
▁screenshot	-2938
ges	-2939
800	-2940
purge	-2941
gether	-2942
▁clients	-2943
▁sleep	-2944
▁count	-2945
supp	-2946
▁13	-2947
▁instance	-2948
▁office	-2949
run	-2950
▁our	-2951
▁hibern	-2952
wire	-2953
▁killall	-2954
torrent	-2955
▁batter	-2956
▁incre	-2957
▁generally	-2958
▁lem	-2959
te	-2960
arch	-2961
▁definitely	-2962
▁moving	-2963
▁rece	-2964
▁ppp	-2965
▁headers	-2966
▁www	-2967
▁rename	-2968
aa	-2969
office	-2970
▁blacklist	-2971
▁tries	-2972
▁hone	-2973
▁suggestion	-2974
▁menus	-2975
restricted	-2976
▁copied	-2977
▁forwarding	-2978
▁hal	-2979
ef	-2980
▁exc	-2981
▁obviously	-2982
▁upload	-2983
▁charac	-2984
▁lsusb	-2985
▁clicking	-2986
▁gconf	-2987
▁putty	-2988
▁rev	-2989
▁she	-2990
▁shares	-2991
▁edition	-2992
bash	-2993
▁esc	-2994
ashing	-2995
▁mob	-2996
▁micro	-2997
▁affect	-2998
▁extension	-2999
check	-3000
init	-3001
▁unix	-3002
▁avoid	-3003
▁susp	-3004
arily	-3005
▁cursor	-3006
▁xd	-3007
fat	-3008
▁ready	-3009
▁vbox	-3010
▁64-	-3011
▁honest	-3012
alid	-3013
▁causing	-3014
icate	-3015
▁year	-3016
▁ret	-3017
▁formatted	-3018
▁burning	-3019
▁nobody	-3020
▁area	-3021
▁blue	-3022
▁numbers	-3023
ete	-3024
▁libraries	-3025
fw	-3026
▁confir	-3027
▁reload	-3028
▁database	-3029
▁aware	-3030
▁storage	-3031
▁snd	-3032
▁waiting	-3033
aik	-3034
▁rules	-3035
▁register	-3036
▁helping	-3037
▁missed	-3038
acs	-3039
▁hoping	-3040
▁2.6.2	-3041
▁afraid	-3042
▁quot	-3043
▁tra	-3044
▁encryption	-3045
▁reconfigure	-3046
rem	-3047
data	-3048
96	-3049
▁awes	-3050
▁advanced	-3051
▁openssh	-3052
▁debug	-3053
▁string	-3054
▁symlink	-3055
rome	-3056
ra	-3057
▁aud	-3058
▁management	-3059
▁battery	-3060
▁included	-3061
▁afaik	-3062
ones	-3063
▁invalid	-3064
▁stops	-3065
▁insert	-3066
▁unplug	-3067
▁operating	-3068
▁docs	-3069
▁automatic	-3070
▁lemme	-3071
▁commun	-3072
▁800	-3073
▁opera	-3074
▁notice	-3075
ape	-3076
▁fully	-3077
▁acceler	-3078
▁logical	-3079
▁item	-3080
▁features	-3081
mc	-3082
▁copying	-3083
pan	-3084
▁pastebinit	-3085
▁awesome	-3086
▁umm	-3087
izing	-3088
▁happy	-3089
▁jack	-3090
▁fol	-3091
▁anyways	-3092
oud	-3093
▁rpm	-3094
▁6.10	-3095
▁base	-3096
2-	-3097
applet	-3098
▁layout	-3099
▁leg	-3100
▁lab	-3101
▁doesn	-3102
iet	-3103
▁pdf	-3104
▁life	-3105
▁launcher	-3106
iddle	-3107
▁conc	-3108
▁recent	-3109
ached	-3110
▁bother	-3111
▁thread	-3112
▁development	-3113
▁mad	-3114
▁sites	-3115
▁managed	-3116
▁vs	-3117
▁warty	-3118
▁mostly	-3119
ube	-3120
▁prog	-3121
▁brand	-3122
▁physical	-3123
dk	-3124
gnome	-3125
appe	-3126
▁14	-3127
▁fut	-3128
uc	-3129
▁mor	-3130
rar	-3131
▁db	-3132
▁loader	-3133
vn	-3134
pse	-3135
ram	-3136
▁lsh	-3137
▁shift	-3138
▁partitioning	-3139
55	-3140
underbird	-3141
▁art	-3142
ood	-3143
util	-3144
terminal	-3145
▁repair	-3146
▁cy	-3147
▁flashplugin	-3148
sible	-3149
hr	-3150
ness	-3151
▁rhythmbox	-3152
▁pay	-3153
▁fore	-3154
path	-3155
▁squ	-3156
▁integrated	-3157
ftpd	-3158
▁quit	-3159
▁emul	-3160
▁uni	-3161
exe	-3162
▁minimal	-3163
▁yah	-3164
▁winxp	-3165
fil	-3166
modules	-3167
▁conflic	-3168
▁broke	-3169
▁helpful	-3170
▁phot	-3171
ected	-3172
-2.6	-3173
▁esp	-3174
▁continue	-3175
▁lower	-3176
ired	-3177
▁tcp	-3178
▁total	-3179
▁dead	-3180
uments	-3181
▁rescue	-3182
▁verify	-3183
▁speakers	-3184
.7	-3185
alk	-3186
lex	-3187
ities	-3188
▁lshw	-3189
▁gotta	-3190
▁xgl	-3191
▁sudd	-3192
urther	-3193
▁situ	-3194
▁variable	-3195
ification	-3196
▁polic	-3197
txt	-3198
▁further	-3199
▁60	-3200
▁iirc	-3201
▁moved	-3202
▁bugs	-3203
▁crashed	-3204
by	-3205
▁wouldnt	-3206
▁color	-3207
▁traffic	-3208
point	-3209
▁ubun	-3210
▁posted	-3211
▁dude	-3212
▁curious	-3213
▁agree	-3214
▁released	-3215
erver	-3216
▁hopefully	-3217
▁offer	-3218
2.1	-3219
▁beginning	-3220
ane	-3221
▁profile	-3222
pre	-3223
▁twice	-3224
▁response	-3225
▁twe	-3226
press	-3227
▁googling	-3228
▁knew	-3229
▁additional	-3230
▁mounts	-3231
ips	-3232
▁protoc	-3233
15	-3234
▁besides	-3235
▁az	-3236
▁valid	-3237
▁umask	-3238
▁telnet	-3239
▁op	-3240
▁emacs	-3241
▁wrote	-3242
ific	-3243
▁---	-3244
▁absol	-3245
▁switched	-3246
soft	-3247
▁together	-3248
▁ban	-3249
itching	-3250
hoot	-3251
▁sudden	-3252
▁automount	-3253
▁thunderbird	-3254
▁failing	-3255
ush	-3256
▁absolut	-3257
level	-3258
▁folks	-3259
common	-3260
headers	-3261
panel	-3262
vant	-3263
▁recognized	-3264
sn	-3265
essions	-3266
sum	-3267
▁dependency	-3268
▁soundcard	-3269
▁ecli	-3270
non	-3271
▁stored	-3272
gu	-3273
▁500	-3274
▁512	-3275
ledge	-3276
▁huge	-3277
▁quiet	-3278
▁gnu	-3279
▁solved	-3280
saver	-3281
▁eclipse	-3282
30	-3283
stable	-3284
▁troubleshoot	-3285
▁future	-3286
▁finished	-3287
version	-3288
▁ug	-3289
▁ln	-3290
▁blah	-3291
▁hig	-3292
▁rate	-3293
▁wep	-3294
▁camera	-3295
utils	-3296
▁symb	-3297
▁ipv	-3298
▁msg	-3299
▁uid	-3300
▁locked	-3301
▁tempor	-3302
▁complic	-3303
▁kon	-3304
▁fu	-3305
▁addresses	-3306
▁learning	-3307
▁plus	-3308
768	-3309
▁policy	-3310
▁depending	-3311
▁libc	-3312
isk	-3313
▁points	-3314
▁determ	-3315
▁maj	-3316
mpeg	-3317
▁envy	-3318
▁uninstalled	-3319
▁signal	-3320
▁24	-3321
ided	-3322
▁configuring	-3323
▁sel	-3324
▁1280	-3325
▁white	-3326
build	-3327
▁remot	-3328
5-	-3329
cast	-3330
▁switching	-3331
▁personal	-3332
▁openoffice	-3333
▁scp	-3334
▁yours	-3335
acy	-3336
▁dv	-3337
▁couldnt	-3338
aper	-3339
ability	-3340
▁initrd	-3341
▁recall	-3342
▁lamp	-3343
▁edited	-3344
▁cube	-3345
▁personally	-3346
▁pasted	-3347
▁sessions	-3348
▁reformat	-3349
▁mix	-3350
over	-3351
▁target	-3352
icks	-3353
▁building	-3354
nal	-3355
▁adjust	-3356
▁higher	-3357
▁kno	-3358
▁xterm	-3359
▁chrome	-3360
▁successfully	-3361
▁777	-3362
▁1000	-3363
▁foo	-3364
▁value	-3365
▁prevent	-3366
▁funny	-3367
▁amount	-3368
▁fairly	-3369
▁resolutions	-3370
topic	-3371
▁hum	-3372
▁inet	-3373
▁major	-3374
▁initial	-3375
ma	-3376
▁third	-3377
▁bought	-3378
▁middle	-3379
▁repeat	-3380
▁backports	-3381
▁mistake	-3382
▁espec	-3383
▁vfat	-3384
▁downloads	-3385
kill	-3386
▁opengl	-3387
▁unstable	-3388
ino	-3389
ounter	-3390
ker	-3391
row	-3392
ites	-3393
ede	-3394
▁knowledge	-3395
▁1.5	-3396
▁libs	-3397
▁remount	-3398
▁sees	-3399
▁trust	-3400
▁design	-3401
aming	-3402
pg	-3403
illy	-3404
▁rendering	-3405
ropri	-3406
place	-3407
▁perman	-3408
▁sudoers	-3409
▁swe	-3410
▁situation	-3411
nonfree	-3412
ne	-3413
edia	-3414
▁quotes	-3415
▁cmd	-3416
da	-3417
13	-3418
▁owned	-3419
▁xr	-3420
erald	-3421
▁netstat	-3422
▁reply	-3423
ony	-3424
▁against	-3425
fg	-3426
ics	-3427
▁suspect	-3428
▁compiler	-3429
ources	-3430
▁boxes	-3431
▁lag	-3432
▁unet	-3433
▁experienc	-3434
▁tit	-3435
aker	-3436
▁confirm	-3437
▁2.6.1	-3438
▁song	-3439
▁expert	-3440
▁equiv	-3441
▁indic	-3442
▁activate	-3443
▁dsl	-3444
▁crazy	-3445
▁showed	-3446
▁disappe	-3447
▁content	-3448
▁fet	-3449
sure	-3450
▁instal	-3451
▁recomp	-3452
▁especially	-3453
▁visual	-3454
date	-3455
▁meaning	-3456
▁hun	-3457
anger	-3458
▁natty	-3459
▁across	-3460
bootin	-3461
▁brid	-3462
appy	-3463
▁esd	-3464
▁tunnel	-3465
ively	-3466
▁words	-3467
▁xrandr	-3468
▁pw	-3469
▁ot	-3470
extr	-3471
▁wee	-3472
▁networkmanager	-3473
▁complicated	-3474
▁ic	-3475
▁perl	-3476
▁corrupted	-3477
▁emerald	-3478
la	-3479
▁essid	-3480
release	-3481
▁eg	-3482
test	-3483
▁till	-3484
▁teh	-3485
▁magic	-3486
ency	-3487
▁fill	-3488
▁cuz	-3489
▁uncom	-3490
▁scratch	-3491
▁persist	-3492
▁1.0	-3493
▁hosts	-3494
▁allowed	-3495
▁microsoft	-3496
▁freen	-3497
session	-3498
db	-3499
70	-3500
▁accident	-3501
▁behavi	-3502
▁subnet	-3503
locks	-3504
antly	-3505
▁become	-3506
▁finally	-3507
▁operation	-3508
▁wall	-3509
▁provided	-3510
▁listening	-3511
uss	-3512
▁gf	-3513
▁god	-3514
▁upon	-3515
cle	-3516
form	-3517
▁alias	-3518
aks	-3519
ceed	-3520
dvd	-3521
▁shall	-3522
pace	-3523
▁ter	-3524
▁dl	-3525
▁morning	-3526
▁reports	-3527
▁unetbootin	-3528
wind	-3529
group	-3530
▁cal	-3531
oring	-3532
▁ffmpeg	-3533
ureus	-3534
▁clock	-3535
ried	-3536
▁rule	-3537
▁define	-3538
str	-3539
atives	-3540
pas	-3541
▁various	-3542
▁compress	-3543
mo	-3544
ropriate	-3545
▁seg	-3546
▁maint	-3547
▁remov	-3548
rf	-3549
▁appreciate	-3550
hone	-3551
miss	-3552
-4	-3553
▁array	-3554
▁fixes	-3555
▁glad	-3556
▁tweak	-3557
▁pkg	-3558
▁rub	-3559
▁lcd	-3560
▁freeze	-3561
▁wast	-3562
▁syslog	-3563
▁suse	-3564
686	-3565
▁returned	-3566
ital	-3567
aq	-3568
▁imagine	-3569
▁azureus	-3570
▁ben	-3571
▁sens	-3572
▁ton	-3573
▁weeks	-3574
izes	-3575
▁displays	-3576
ii	-3577
▁oops	-3578
▁reader	-3579
▁authentication	-3580
▁ahead	-3581
▁deleting	-3582
▁mixer	-3583
▁thumb	-3584
▁friends	-3585
ats	-3586
▁maxim	-3587
▁touchpad	-3588
▁thru	-3589
▁highlight	-3590
▁protocol	-3591
▁spl	-3592
cy	-3593
icd	-3594
▁concer	-3595
▁hibernate	-3596
▁ss	-3597
▁saf	-3598
ribut	-3599
support	-3600
ecks	-3601
▁topic	-3602
▁laptops	-3603
▁sch	-3604
▁lilo	-3605
▁clicked	-3606
▁remotely	-3607
▁messing	-3608
▁hw	-3609
medi	-3610
▁eject	-3611
map	-3612
▁ather	-3613
vnc	-3614
▁notebook	-3615
safe	-3616
▁gotten	-3617
▁32-	-3618
chool	-3619
ros	-3620
▁5.10	-3621
ocated	-3622
▁corpor	-3623
▁channels	-3624
▁chose	-3625
16	-3626
▁sat	-3627
▁oo	-3628
ings	-3629
▁aux	-3630
▁readme	-3631
itive	-3632
rwx	-3633
▁wicd	-3634
▁tested	-3635
▁board	-3636
ersh	-3637
▁range	-3638
▁atheros	-3639
▁rese	-3640
▁lack	-3641
lly	-3642
ye	-3643
cks	-3644
▁dro	-3645
▁frame	-3646
▁nmap	-3647
▁prior	-3648
▁osx	-3649
▁udev	-3650
▁action	-3651
▁descript	-3652
edega	-3653
▁burned	-3654
▁label	-3655
▁dep	-3656
▁dump	-3657
▁seemed	-3658
▁unre	-3659
▁mate	-3660
▁medi	-3661
▁remain	-3662
▁slower	-3663
▁fetch	-3664
like	-3665
ict	-3666
▁headph	-3667
▁programming	-3668
▁256	-3669
oooo	-3670
avig	-3671
▁shouldnt	-3672
mi	-3673
▁ips	-3674
▁xine	-3675
▁backspace	-3676
cket	-3677
▁mar	-3678
▁kdm	-3679
▁shit	-3680
▁upgrades	-3681
▁codec	-3682
▁clone	-3683
aster	-3684
▁cedega	-3685
block	-3686
▁om	-3687
▁killed	-3688
▁locally	-3689
▁caused	-3690
▁distrib	-3691
▁interested	-3692
ron	-3693
▁assist	-3694
▁movies	-3695
▁shown	-3696
▁runlevel	-3697
▁self	-3698
▁plain	-3699
▁certainly	-3700
soci	-3701
▁appropriate	-3702
▁ld	-3703
▁pressing	-3704
files	-3705
▁ifup	-3706
500	-3707
▁fixing	-3708
tually	-3709
▁failure	-3710
▁ut	-3711
ls	-3712
▁rights	-3713
aly	-3714
▁checks	-3715
local	-3716
▁glxinfo	-3717
▁multi	-3718
▁overwrite	-3719
▁18	-3720
----	-3721
▁school	-3722
▁acceleration	-3723
▁thanx	-3724
▁ll	-3725
▁wanting	-3726
▁usual	-3727
▁hint	-3728
▁everybody	-3729
oke	-3730
▁conver	-3731
▁regarding	-3732
▁silly	-3733
editor	-3734
ments	-3735
''	-3736
▁picture	-3737
▁dock	-3738
▁wasnt	-3739
erd	-3740
▁techn	-3741
hrase	-3742
co	-3743
▁passwords	-3744
▁smaller	-3745
▁helped	-3746
uf	-3747
keys	-3748
▁relevant	-3749
22	-3750
iter	-3751
-8	-3752
▁walk	-3753
codecs	-3754
▁impos	-3755
▁crashing	-3756
▁html	-3757
▁reference	-3758
▁dvds	-3759
▁invol	-3760
rr	-3761
▁equival	-3762
go	-3763
▁wipe	-3764
▁filter	-3765
iser	-3766
wifi	-3767
▁incor	-3768
▁shortcuts	-3769
▁conky	-3770
▁seriously	-3771
▁reasons	-3772
ustr	-3773
pose	-3774
ompl	-3775
▁2.0	-3776
ination	-3777
▁dyn	-3778
▁hist	-3779
tes	-3780
▁pointer	-3781
▁qt	-3782
▁releases	-3783
sel	-3784
▁disabling	-3785
▁tray	-3786
driver	-3787
▁progress	-3788
▁plays	-3789
▁adduser	-3790
▁classic	-3791
▁gigs	-3792
can	-3793
inking	-3794
▁21	-3795
▁opp	-3796
▁iwlist	-3797
▁logout	-3798
▁distribution	-3799
▁title	-3800
video	-3801
▁party	-3802
▁lea	-3803
ball	-3804
▁ste	-3805
▁searched	-3806
▁immedi	-3807
▁absolutely	-3808
▁car	-3809
▁linksys	-3810
sec	-3811
▁index	-3812
▁tend	-3813
▁specified	-3814
fault	-3815
▁opin	-3816
0'	-3817
▁turns	-3818
▁bigger	-3819
▁bootup	-3820
▁rar	-3821
▁impro	-3822
▁desktops	-3823
rive	-3824
▁kept	-3825
▁resources	-3826
zz	-3827
ization	-3828
▁coll	-3829
▁tran	-3830
▁ul	-3831
▁asus	-3832
▁scsi	-3833
ho	-3834
▁privile	-3835
▁beep	-3836
▁redirect	-3837
▁associ	-3838
▁capture	-3839
__	-3840
▁confusing	-3841
here	-3842
▁throw	-3843
▁frequ	-3844
▁attempting	-3845
▁gpg	-3846
extras	-3847
4-	-3848
▁split	-3849
18	-3850
▁dynam	-3851
▁playback	-3852
▁acer	-3853
▁team	-3854
artition	-3855
▁fav	-3856
99	-3857
xine	-3858
mode	-3859
look	-3860
package	-3861
new	-3862
▁panic	-3863
▁ee	-3864
▁pa	-3865
▁slight	-3866
▁launchpad	-3867
▁corporation	-3868
help	-3869
▁equivalent	-3870
▁final	-3871
stood	-3872
replace	-3873
▁rad	-3874
▁dumb	-3875
▁entirely	-3876
zen	-3877
▁thinks	-3878
▁ant	-3879
▁backups	-3880
bashrc	-3881
▁determine	-3882
▁svn	-3883
▁parted	-3884
▁libdvd	-3885
▁tom	-3886
▁reach	-3887
▁suck	-3888
▁resource	-3889
gig	-3890
▁commandline	-3891
▁tree	-3892
▁postfix	-3893
kernel	-3894
ramfs	-3895
▁cross	-3896
▁automatix	-3897
▁impossible	-3898
ership	-3899
▁corner	-3900
icated	-3901
▁unrar	-3902
▁mint	-3903
▁incorrect	-3904
▁navig	-3905
▁vo	-3906
base	-3907
▁unm	-3908
▁eng	-3909
around	-3910
▁photos	-3911
▁decided	-3912
▁suddenly	-3913
ppix	-3914
ribe	-3915
▁wtf	-3916
▁ve	-3917
▁argument	-3918
▁alone	-3919
▁extensions	-3920
xxx	-3921
▁tru	-3922
arth	-3923
▁unpack	-3924
▁answers	-3925
mission	-3926
▁cf	-3927
▁parts	-3928
ibility	-3929
▁canon	-3930
ese	-3931
▁hook	-3932
100	-3933
▁screensaver	-3934
▁decent	-3935
▁yo	-3936
based	-3937
▁har	-3938
kb	-3939
▁mobile	-3940
tures	-3941
▁printing	-3942
▁ruby	-3943
▁serial	-3944
iting	-3945
▁ppl	-3946
▁compare	-3947
▁increase	-3948
▁shr	-3949
▁quality	-3950
1-	-3951
bz	-3952
installed	-3953
▁grey	-3954
rible	-3955
▁direction	-3956
▁chrom	-3957
ism	-3958
▁slack	-3959
system	-3960
▁limited	-3961
▁ub	-3962
▁bits	-3963
flash	-3964
▁jump	-3965
▁youre	-3966
▁worse	-3967
▁googled	-3968
ection	-3969
▁sed	-3970
▁specs	-3971
▁willing	-3972
nx	-3973
▁avi	-3974
▁alien	-3975
▁parameters	-3976
▁partion	-3977
▁3.0	-3978
▁maintain	-3979
▁640	-3980
▁recei	-3981
script	-3982
▁kick	-3983
▁synaptics	-3984
▁purpose	-3985
▁useless	-3986
▁buggy	-3987
▁guides	-3988
▁sftp	-3989
▁transp	-3990
osing	-3991
▁tryed	-3992
▁.'	-3993
▁accessing	-3994
▁generate	-3995
▁characters	-3996
▁glib	-3997
▁knoppix	-3998
▁afterwards	-3999
ier	-4000
▁linked	-4001
▁-9	-4002
emu	-4003
▁msn	-4004
well	-4005
▁maver	-4006
▁entered	-4007
reinstall	-4008
-5	-4009
▁amsn	-4010
▁hy	-4011
did	-4012
▁gpu	-4013
vs	-4014
hat	-4015
▁notification	-4016
xr	-4017
tek	-4018
▁community	-4019
open	-4020
▁ownership	-4021
▁documents	-4022
▁expected	-4023
▁bookm	-4024
▁chromium	-4025
▁temp	-4026
▁makefile	-4027
▁manuf	-4028
type	-4029
▁filesystems	-4030
▁history	-4031
bsd	-4032
▁reli	-4033
▁nameserver	-4034
▁madwifi	-4035
▁forever	-4036
▁pu	-4037
comp	-4038
ute	-4039
▁prefs	-4040
▁series	-4041
auth	-4042
▁discuss	-4043
dp	-4044
▁mountpoint	-4045
iba	-4046
▁128	-4047
▁author	-4048
90	-4049
▁causes	-4050
▁ccs	-4051
▁muted	-4052
▁vid	-4053
▁combin	-4054
▁bey	-4055
▁panels	-4056
▁workaround	-4057
▁accounts	-4058
▁band	-4059
▁contact	-4060
▁reiser	-4061
▁virus	-4062
▁yahoo	-4063
▁packets	-4064
▁medibuntu	-4065
▁ccsm	-4066
eld	-4067
▁piec	-4068
aged	-4069
▁const	-4070
▁connects	-4071
▁flood	-4072
3'	-4073
▁unall	-4074
▁sry	-4075
▁attached	-4076
link	-4077
enty	-4078
▁dot	-4079
▁stage	-4080
lob	-4081
▁spam	-4082
▁manufac	-4083
order	-4084
▁maverick	-4085
▁downgrade	-4086
900	-4087
sof	-4088
▁opinion	-4089
▁recompile	-4090
▁logo	-4091
2.0	-4092
ins	-4093
word	-4094
▁wid	-4095
▁previously	-4096
itec	-4097
▁assigned	-4098
▁pipe	-4099
▁played	-4100
▁rebuild	-4101
mon	-4102
oss	-4103
▁mini	-4104
▁memtest	-4105
▁apple	-4106
▁ufw	-4107
▁gt	-4108
pri	-4109
▁provides	-4110
▁blocks	-4111
▁quickly	-4112
▁ii	-4113
▁hrm	-4114
▁beyond	-4115
▁careful	-4116
oney	-4117
3-	-4118
mask	-4119
▁destination	-4120
▁tor	-4121
▁routers	-4122
▁thingy	-4123
▁idk	-4124
▁sad	-4125
ghz	-4126
▁hence	-4127
▁identify	-4128
php	-4129
▁replaced	-4130
▁uncomment	-4131
▁thus	-4132
▁reported	-4133
▁mm	-4134
▁gmail	-4135
▁smp	-4136
▁map	-4137
intel	-4138
▁fuse	-4139
▁mer	-4140
▁realtek	-4141
atic	-4142
▁autore	-4143
▁git	-4144
▁typo	-4145
ool	-4146
▁tarball	-4147
▁unallocated	-4148
rol	-4149
▁field	-4150
▁2.4	-4151
▁transmission	-4152
▁creates	-4153
▁frustr	-4154
resp	-4155
▁immediately	-4156
wm	-4157
▁resolv	-4158
▁lsb	-4159
itions	-4160
iment	-4161
▁money	-4162
▁failsafe	-4163
▁speaker	-4164
▁compos	-4165
▁bridge	-4166
▁transl	-4167
▁product	-4168
▁cheap	-4169
ising	-4170
▁roll	-4171
▁wich	-4172
-10	-4173
▁imple	-4174
fi	-4175
unes	-4176
css	-4177
▁blocking	-4178
▁honestly	-4179
▁engine	-4180
▁gfx	-4181
▁mobo	-4182
66	-4183
exec	-4184
▁formatting	-4185
▁rom	-4186
▁checkinstall	-4187
ances	-4188
▁lsof	-4189
odes	-4190
▁appreciated	-4191
ds	-4192
cont	-4193
▁zip	-4194
▁artic	-4195
▁realize	-4196
▁worried	-4197
▁loss	-4198
▁green	-4199
ik	-4200
pth	-4201
▁reads	-4202
▁news	-4203
▁skip	-4204
▁sending	-4205
▁taken	-4206
▁killing	-4207
▁diag	-4208
▁sets	-4209
▁simpl	-4210
▁ability	-4211
▁blinking	-4212
▁surpr	-4213
▁describe	-4214
▁bright	-4215
▁mkfs	-4216
▁randomly	-4217
▁modified	-4218
cise	-4219
▁displayed	-4220
▁understanding	-4221
▁lic	-4222
▁experienced	-4223
pathy	-4224
▁privileges	-4225
▁gen	-4226
▁configs	-4227
▁accidentally	-4228
▁webserver	-4229
▁xin	-4230
▁values	-4231
ipped	-4232
▁handy	-4233
quer	-4234
move	-4235
▁plenty	-4236
▁activated	-4237
▁sweet	-4238
▁extracted	-4239
vo	-4240
▁lead	-4241
▁blocked	-4242
setup	-4243
swd	-4244
yle	-4245
ience	-4246
write	-4247
▁eventually	-4248
▁describ	-4249
▁binaries	-4250
▁company	-4251
▁jre	-4252
▁itunes	-4253
▁description	-4254
▁tosh	-4255
▁players	-4256
▁pointing	-4257
dy	-4258
▁risk	-4259
omes	-4260
mentation	-4261
lets	-4262
▁los	-4263
▁modes	-4264
▁saving	-4265
▁visible	-4266
▁referring	-4267
parm	-4268
▁possib	-4269
that	-4270
▁fit	-4271
▁fuck	-4272
▁resume	-4273
17	-4274
iny	-4275
▁fatal	-4276
▁stays	-4277
▁turning	-4278
icon	-4279
ieve	-4280
▁debs	-4281
imedia	-4282
jo	-4283
▁erase	-4284
▁research	-4285
▁uninstalling	-4286
1024	-4287
▁hav	-4288
▁len	-4289
▁ugly	-4290
rag	-4291
tht	-4292
wid	-4293
login	-4294
▁appearance	-4295
cing	-4296
▁unt	-4297
54	-4298
▁ppc	-4299
▁spaces	-4300
af	-4301
cfg	-4302
▁enabling	-4303
▁unmounted	-4304
▁ntp	-4305
▁four	-4306
adm	-4307
▁0'	-4308
▁fusion	-4309
▁smooth	-4310
▁indi	-4311
▁accompl	-4312
▁refused	-4313
shee	-4314
▁unus	-4315
▁temporarily	-4316
▁proc	-4317
▁hide	-4318
▁sir	-4319
▁fing	-4320
▁viewer	-4321
▁pen	-4322
unk	-4323
▁pppo	-4324
▁functionality	-4325
▁caps	-4326
▁finds	-4327
iness	-4328
▁mins	-4329
▁optim	-4330
station	-4331
▁banshee	-4332
▁phpmy	-4333
▁sitting	-4334
▁asp	-4335
▁controls	-4336
gest	-4337
udo	-4338
▁phpmyadmin	-4339
thtv	-4340
▁pend	-4341
als	-4342
installer	-4343
▁claim	-4344
▁revert	-4345
xconfig	-4346
▁3.5	-4347
viewer	-4348
▁below	-4349
▁toshiba	-4350
▁autoremove	-4351
▁wierd	-4352
▁isntall	-4353
ifs	-4354
▁empathy	-4355
▁routing	-4356
▁js	-4357
▁dynamic	-4358
▁burner	-4359
▁mass	-4360
▁appro	-4361
▁keyring	-4362
tb	-4363
▁alph	-4364
▁colors	-4365
▁advant	-4366
▁scanner	-4367
outh	-4368
▁utf	-4369
▁ra	-4370
▁house	-4371
kid	-4372
▁twin	-4373
▁solutions	-4374
vv	-4375
▁pure	-4376
▁upstart	-4377
▁items	-4378
iod	-4379
▁spend	-4380
▁ep	-4381
▁tick	-4382
▁arrow	-4383
▁poor	-4384
▁univers	-4385
▁mythtv	-4386
▁conflict	-4387
▁websites	-4388
▁accomplish	-4389
▁header	-4390
▁harddisk	-4391
▁parameter	-4392
▁advise	-4393
▁recurs	-4394
▁executed	-4395
▁multimedia	-4396
▁vert	-4397
▁cases	-4398
itecture	-4399
▁fall	-4400
▁tabs	-4401
▁friendly	-4402
now	-4403
arely	-4404
fficient	-4405
tools	-4406
▁fullscreen	-4407
▁suit	-4408
▁90	-4409
▁hdb	-4410
arks	-4411
▁macbook	-4412
▁somewhat	-4413
▁lx	-4414
▁legacy	-4415
▁hurt	-4416
▁dem	-4417
▁listing	-4418
dc	-4419
▁mid	-4420
orrow	-4421
▁character	-4422
▁lame	-4423
▁danger	-4424
▁knowing	-4425
▁uncheck	-4426
▁browsing	-4427
▁zero	-4428
▁pent	-4429
▁selecting	-4430
omet	-4431
▁pract	-4432
▁lubuntu	-4433
▁expand	-4434
▁clearly	-4435
▁pcs	-4436
▁wallp	-4437
ren	-4438
▁locale	-4439
del	-4440
▁push	-4441
▁defined	-4442
▁frontend	-4443
▁manufactur	-4444
ctl	-4445
apic	-4446
ama	-4447
bind	-4448
▁anal	-4449
▁types	-4450
iled	-4451
▁ti	-4452
▁bittorrent	-4453
▁goto	-4454
▁tips	-4455
▁loopback	-4456
wl	-4457
▁draw	-4458
480	-4459
▁socket	-4460
▁packagename	-4461
▁nah	-4462
▁pops	-4463
▁meta	-4464
altern	-4465
▁compon	-4466
▁larger	-4467
rip	-4468
▁headphones	-4469
▁secondary	-4470
1'	-4471
▁gw	-4472
▁encod	-4473
▁considering	-4474
▁termin	-4475
▁freenode	-4476
▁insp	-4477
▁ach	-4478
▁air	-4479
▁hitting	-4480
▁worries	-4481
▁ment	-4482
▁libdvdcss	-4483
▁experiment	-4484
▁disconnected	-4485
aug	-4486
▁didn	-4487
ision	-4488
▁includes	-4489
▁slackware	-4490
▁webmin	-4491
▁mono	-4492
▁microp	-4493
▁slightly	-4494
▁origin	-4495
▁300	-4496
▁developers	-4497
▁ta	-4498
reate	-4499
sphrase	-4500
▁cfdisk	-4501
itted	-4502
▁kb	-4503
▁tag	-4504
▁hdparm	-4505
▁arent	-4506
▁extrem	-4507
▁tutorials	-4508
▁700	-4509
▁complaining	-4510
▁answered	-4511
▁hanging	-4512
eme	-4513
orn	-4514
▁smbfs	-4515
▁spot	-4516
▁mdadm	-4517
esty	-4518
▁terms	-4519
▁period	-4520
▁coz	-4521
mind	-4522
▁verb	-4523
least	-4524
▁nom	-4525
▁compared	-4526
▁acces	-4527
html	-4528
profile	-4529
▁ns	-4530
gt	-4531
▁755	-4532
▁scanning	-4533
etect	-4534
onf	-4535
▁remix	-4536
▁belong	-4537
2'	-4538
ined	-4539
▁feed	-4540
▁blkid	-4541
▁kk	-4542
rel	-4543
97	-4544
▁ipw	-4545
▁precise	-4546
▁distribut	-4547
▁glob	-4548
▁administrator	-4549
▁impress	-4550
▁rmm	-4551
▁exe	-4552
▁ooo	-4553
licant	-4554
▁apart	-4555
▁tired	-4556
▁sho	-4557
▁frozen	-4558
▁usplash	-4559
▁lyn	-4560
umes	-4561
▁hfs	-4562
▁outputs	-4563
▁individ	-4564
▁192.1	-4565
▁loose	-4566
width	-4567
▁amaz	-4568
atform	-4569
▁brings	-4570
▁buffer	-4571
▁commented	-4572
▁directions	-4573
▁blo	-4574
▁cos	-4575
entially	-4576
▁rmmod	-4577
▁atleast	-4578
▁microphone	-4579
▁face	-4580
▁000	-4581
▁encounter	-4582
▁marked	-4583
▁complains	-4584
▁2.6.3	-4585
▁dbus	-4586
▁decide	-4587
▁techno	-4588
▁tre	-4589
▁qemu	-4590
va	-4591
dos	-4592
▁edge	-4593
▁stock	-4594
▁thinkpad	-4595
▁defrag	-4596
supported	-4597
▁192.168	-4598
cial	-4599
▁clam	-4600
▁diagn	-4601
▁pref	-4602
▁unlock	-4603
▁ib	-4604
▁fiesty	-4605
rs	-4606
▁crt	-4607
▁idle	-4608
▁express	-4609
▁chk	-4610
cutter	-4611
▁redhat	-4612
▁spell	-4613
▁freezing	-4614
▁gar	-4615
▁pentium	-4616
▁indicator	-4617
gears	-4618
▁chain	-4619
▁audacity	-4620
ko	-4621
▁relative	-4622
jdk	-4623
cent	-4624
▁tip	-4625
▁letters	-4626
▁responding	-4627
▁bur	-4628
▁initramfs	-4629
▁eff	-4630
ret	-4631
▁earth	-4632
▁ther	-4633
▁pcmc	-4634
▁taskbar	-4635
▁delay	-4636
▁pictures	-4637
asing	-4638
▁receive	-4639
▁unzip	-4640
grad	-4641
▁emulator	-4642
▁nix	-4643
▁rot	-4644
▁extremely	-4645
tain	-4646
vf	-4647
28	-4648
-386	-4649
▁registered	-4650
▁heck	-4651
ilities	-4652
▁backed	-4653
mhz	-4654
while	-4655
▁ahhh	-4656
▁navigate	-4657
select	-4658
compl	-4659
▁colum	-4660
▁eee	-4661
▁gain	-4662
▁ded	-4663
▁pcm	-4664
▁breaks	-4665
▁isn	-4666
will	-4667
▁pcmcia	-4668
yes	-4669
▁iam	-4670
▁timeout	-4671
▁processing	-4672
▁lynx	-4673
▁sector	-4674
▁workgroup	-4675
▁01	-4676
▁ssd	-4677
▁usr	-4678
ivity	-4679
▁digital	-4680
eel	-4681
▁adsl	-4682
19	-4683
2.	-4684
▁crack	-4685
▁reverse	-4686
▁resizing	-4687
sover	-4688
▁usable	-4689
▁entering	-4690
▁considered	-4691
▁cros	-4692
▁bandwidth	-4693
▁keeping	-4694
400	-4695
▁dark	-4696
ature	-4697
▁puts	-4698
▁proced	-4699
▁architecture	-4700
▁gid	-4701
33	-4702
▁pin	-4703
eg	-4704
▁erm	-4705
▁article	-4706
iro	-4707
tab	-4708
▁slave	-4709
▁openbox	-4710
aced	-4711
▁upper	-4712
apping	-4713
img	-4714
kit	-4715
▁refuses	-4716
ev	-4717
duce	-4718
▁selection	-4719
▁broadcast	-4720
▁mot	-4721
▁sil	-4722
▁bork	-4723
▁cheers	-4724
▁horiz	-4725
▁1'	-4726
logies	-4727
▁calls	-4728
▁mirrors	-4729
print	-4730
▁newly	-4731
oming	-4732
▁10.4	-4733
▁invoke	-4734
▁pinging	-4735
▁mesa	-4736
▁nevermind	-4737
▁wip	-4738
▁generated	-4739
▁adress	-4740
▁feeling	-4741
men	-4742
▁van	-4743
▁piece	-4744
▁detects	-4745
▁interrupt	-4746
buffer	-4747
▁tight	-4748
▁letter	-4749
▁dangerous	-4750
▁printers	-4751
ded	-4752
▁ended	-4753
igr	-4754
▁parent	-4755
ler	-4756
▁destro	-4757
▁permanent	-4758
▁nc	-4759
▁libg	-4760
▁webpage	-4761
▁bytes	-4762
▁thoughts	-4763
▁jsut	-4764
ison	-4765
▁accessible	-4766
.0.	-4767
945	-4768
▁complex	-4769
ering	-4770
▁dash	-4771
▁windo	-4772
▁planning	-4773
▁slot	-4774
forward	-4775
▁attention	-4776
▁die	-4777
▁0.0	-4778
▁lxde	-4779
▁troubleshooting	-4780
tv	-4781
▁wide	-4782
▁locks	-4783
▁twinview	-4784
▁accessories	-4785
▁kvm	-4786
▁sshfs	-4787
▁workstation	-4788
▁shrink	-4789
▁desk	-4790
▁crossover	-4791
raft	-4792
cel	-4793
▁spent	-4794
▁crappy	-4795
▁safely	-4796
▁partitioned	-4797
▁patches	-4798
anks	-4799
▁offline	-4800
win	-4801
active	-4802
▁lucky	-4803
86_	-4804
▁imo	-4805
▁2.2	-4806
▁behavior	-4807
▁managers	-4808
▁occur	-4809
ung	-4810
▁mmm	-4811
▁watching	-4812
▁dma	-4813
▁letting	-4814
with	-4815
▁si	-4816
▁hub	-4817
▁pressed	-4818
▁switches	-4819
▁favor	-4820
▁alpha	-4821
▁understood	-4822
bb	-4823
▁glxgears	-4824
inf	-4825
▁bras	-4826
▁containing	-4827
▁passphrase	-4828
▁cvs	-4829
rt	-4830
lish	-4831
▁conv	-4832
▁mainly	-4833
▁leaving	-4834
enger	-4835
▁undo	-4836
25	-4837
▁mal	-4838
▁ble	-4839
▁excl	-4840
▁busybox	-4841
▁sdc	-4842
▁cost	-4843
▁ends	-4844
▁brightness	-4845
ctions	-4846
▁io	-4847
▁600	-4848
▁alter	-4849
▁shoot	-4850
▁spare	-4851
▁2.1	-4852
▁sectors	-4853
directory	-4854
▁spin	-4855
▁waste	-4856
▁hdmi	-4857
386.	-4858
▁catch	-4859
▁jdk	-4860
shell	-4861
cha	-4862
▁ages	-4863
▁iface	-4864
▁ui	-4865
▁emb	-4866
font	-4867
▁probs	-4868
▁symbolic	-4869
▁compatibility	-4870
then	-4871
▁rip	-4872
▁gimme	-4873
▁append	-4874
▁partiton	-4875
▁userm	-4876
▁comfort	-4877
lik	-4878
▁testdisk	-4879
▁notes	-4880
▁studio	-4881
▁designed	-4882
▁visudo	-4883
▁restric	-4884
▁surely	-4885
▁somthing	-4886
ifier	-4887
aby	-4888
▁fps	-4889
▁vncserver	-4890
inst	-4891
▁typically	-4892
ums	-4893
▁brother	-4894
▁tomorrow	-4895
▁recording	-4896
asks	-4897
▁mistak	-4898
▁wo	-4899
▁formats	-4900
▁unsupported	-4901
ca	-4902
▁prefix	-4903
hop	-4904
▁excell	-4905
▁flick	-4906
▁popular	-4907
98	-4908
▁freebsd	-4909
▁escape	-4910
300	-4911
▁yu	-4912
▁fn	-4913
▁family	-4914
xe	-4915
▁someth	-4916
▁surprised	-4917
ited	-4918
▁forced	-4919
window	-4920
▁proceed	-4921
▁cifs	-4922
▁dar	-4923
awn	-4924
▁dirs	-4925
▁404	-4926
lied	-4927
▁aha	-4928
86_64	-4929
▁style	-4930
ming	-4931
▁preference	-4932
▁canonical	-4933
▁1.1	-4934
▁removable	-4935
▁noise	-4936
▁discover	-4937
▁radio	-4938
▁jour	-4939
▁raw	-4940
▁ssid	-4941
fusion	-4942
▁losing	-4943
que	-4944
▁bs	-4945
alternatives	-4946
▁sequ	-4947
dep	-4948
▁lazy	-4949
▁nicely	-4950
▁strong	-4951
▁identical	-4952
▁fancy	-4953
▁brasero	-4954
▁terminals	-4955
▁becomes	-4956
▁dropped	-4957
▁wif	-4958
▁freak	-4959
ka	-4960
▁vend	-4961
▁daily	-4962
▁torrents	-4963
avy	-4964
▁capable	-4965
lx	-4966
▁htop	-4967
▁wise	-4968
▁foc	-4969
88	-4970
▁germ	-4971
illion	-4972
control	-4973
▁packaged	-4974
ern	-4975
offtopic	-4976
▁400	-4977
urses	-4978
▁pix	-4979
▁strace	-4980
▁permanently	-4981
fre	-4982
▁usermod	-4983
▁associated	-4984
▁excellent	-4985
▁drw	-4986
▁handles	-4987
▁gd	-4988
▁migr	-4989
▁span	-4990
▁ogg	-4991
▁platform	-4992
▁readable	-4993
▁wallpaper	-4994
1.	-4995
▁query	-4996
▁kernal	-4997
▁symlinks	-4998
▁detecting	-4999
▁nx	-5000
▁802.1	-5001
▁cover	-5002
▁candid	-5003
▁crypt	-5004
diot	-5005
▁liter	-5006
▁volumes	-5007
acing	-5008
plugins	-5009
mozilla	-5010
▁photoshop	-5011
tim	-5012
▁learned	-5013
▁developer	-5014
▁joy	-5015
▁autod	-5016
▁nearly	-5017
▁nop	-5018
opt	-5019
eric	-5020
download	-5021
▁ensure	-5022
▁regardless	-5023
▁sony	-5024
▁explains	-5025
gre	-5026
aling	-5027
▁sid	-5028
▁pendrive	-5029
▁clar	-5030
▁originally	-5031
hand	-5032
▁anim	-5033
▁gaming	-5034
▁improve	-5035
▁bookmarks	-5036
▁therefore	-5037
▁backport	-5038
icit	-5039
itical	-5040
▁froze	-5041
versation	-5042
▁proftpd	-5043
▁agp	-5044
▁reiserfs	-5045
jre	-5046
.10-	-5047
▁procedure	-5048
abor	-5049
▁suggests	-5050
▁behaviour	-5051
▁replacing	-5052
proper	-5053
▁23	-5054
▁cs	-5055
▁std	-5056
▁elsewhere	-5057
code	-5058
▁tons	-5059
▁squid	-5060
▁ignored	-5061
▁sb	-5062
▁comments	-5063
▁streaming	-5064
oking	-5065
▁backing	-5066
▁stopping	-5067
▁cheese	-5068
▁netmask	-5069
▁tb	-5070
auto	-5071
▁circ	-5072
cur	-5073
▁concerned	-5074
py	-5075
▁xbox	-5076
▁explan	-5077
▁workspace	-5078
▁heron	-5079
▁250	-5080
▁combination	-5081
▁5.04	-5082
▁gnash	-5083
acer	-5084
▁speaking	-5085
ha	-5086
▁budd	-5087
▁variables	-5088
bex	-5089
yng	-5090
tion	-5091
▁dupl	-5092
▁flags	-5093
▁ec	-5094
▁reconnect	-5095
▁fx	-5096
▁differences	-5097
pass	-5098
logy	-5099
ulate	-5100
▁deluge	-5101
▁ice	-5102
▁overr	-5103
▁implement	-5104
▁possibility	-5105
ender	-5106
▁necessarily	-5107
▁benef	-5108
▁analog	-5109
▁removal	-5110
▁holding	-5111
▁apo	-5112
▁xxx	-5113
▁offtopic	-5114
▁hex	-5115
▁ohh	-5116
▁mand	-5117
▁differently	-5118
ously	-5119
▁framebuffer	-5120
▁worst	-5121
▁scripting	-5122
▁matters	-5123
ept	-5124
▁flaw	-5125
▁story	-5126
address	-5127
▁goal	-5128
pod	-5129
▁awk	-5130
810	-5131
▁dosent	-5132
▁choices	-5133
95	-5134
▁802.11	-5135
▁dedicated	-5136
▁tmp	-5137
▁happend	-5138
▁struc	-5139
▁mute	-5140
▁node	-5141
▁tricky	-5142
▁decor	-5143
▁assumed	-5144
▁sar	-5145
▁1.2	-5146
▁awn	-5147
▁excuse	-5148
▁bars	-5149
▁superblock	-5150
▁wiz	-5151
▁konquer	-5152
likely	-5153
▁dies	-5154
▁choosing	-5155
▁verbose	-5156
▁xdm	-5157
▁logon	-5158
▁slowly	-5159
▁surf	-5160
▁closing	-5161
omb	-5162
▁hat	-5163
▁tiny	-5164
▁tasks	-5165
▁sql	-5166
record	-5167
▁executing	-5168
default	-5169
ali	-5170
▁prolly	-5171
▁reboots	-5172
▁dualboot	-5173
lon	-5174
avail	-5175
▁nut	-5176
▁ple	-5177
▁perms	-5178
▁comfortable	-5179
▁oct	-5180
▁human	-5181
▁respect	-5182
▁sig	-5183
owser	-5184
ecrypt	-5185
▁transparent	-5186
iph	-5187
▁pot	-5188
▁snap	-5189
▁temporary	-5190
▁pac	-5191
▁effort	-5192
▁99	-5193
▁sym	-5194
▁idiot	-5195
▁faq	-5196
▁messenger	-5197
leg	-5198
ercial	-5199
▁forwarded	-5200
▁1.4	-5201
qt	-5202
ipping	-5203
▁everywhere	-5204
ples	-5205
▁upt	-5206
▁imho	-5207
▁aswell	-5208
▁dependan	-5209
9660	-5210
dump	-5211
eeee	-5212
▁bsd	-5213
▁event	-5214
▁xfs	-5215
track	-5216
▁creator	-5217
▁destroy	-5218
▁jav	-5219
▁updatedb	-5220
mas	-5221
▁omg	-5222
▁died	-5223
▁activity	-5224
gan	-5225
clock	-5226
ets	-5227
▁envyng	-5228
▁ifdown	-5229
▁object	-5230
▁prof	-5231
process	-5232
▁wins	-5233
▁harder	-5234
▁plugging	-5235
els	-5236
▁gm	-5237
▁speeds	-5238
windows	-5239
▁ata	-5240
▁manpage	-5241
▁provider	-5242
ackage	-5243
▁restarts	-5244
▁43	-5245
▁yeh	-5246
▁candidate	-5247
▁386	-5248
aching	-5249
▁cables	-5250
▁hooked	-5251
ssl	-5252
▁explicit	-5253
▁gee	-5254
▁replacement	-5255
▁xen	-5256
▁heavy	-5257
▁needing	-5258
▁uhm	-5259
▁vsftpd	-5260
▁manufacturer	-5261
mouth	-5262
▁compizconfig	-5263
aborate	-5264
old	-5265
▁depth	-5266
▁led	-5267
▁damage	-5268
▁reconfig	-5269
▁minimum	-5270
properties	-5271
▁realplayer	-5272
7-	-5273
▁libgtk	-5274
▁minimize	-5275
▁alternatives	-5276
▁70	-5277
▁ibm	-5278
▁trig	-5279
sys	-5280
▁browsers	-5281
oute	-5282
ured	-5283
▁dum	-5284
▁bout	-5285
▁business	-5286
▁misunder	-5287
▁frequency	-5288
gen	-5289
ulting	-5290
▁priority	-5291
selves	-5292
▁heres	-5293
▁ply	-5294
ands	-5295
ored	-5296
▁received	-5297
▁ax	-5298
scan	-5299
▁ultim	-5300
▁sits	-5301
▁ssl	-5302
▁libx	-5303
-2.6.2	-5304
▁windoze	-5305
▁fw	-5306
vest	-5307
▁aim	-5308
proxy	-5309
▁writes	-5310
▁nvm	-5311
supplicant	-5312
aff	-5313
jpg	-5314
▁bum	-5315
acting	-5316
respond	-5317
oul	-5318
▁pav	-5319
▁paths	-5320
▁harm	-5321
▁parition	-5322
▁context	-5323
update	-5324
itech	-5325
change	-5326
enable	-5327
aha	-5328
▁achieve	-5329
uz	-5330
▁duo	-5331
iphany	-5332
▁symbol	-5333
▁wheel	-5334
▁copies	-5335
▁horrible	-5336
▁konqueror	-5337
apped	-5338
▁rock	-5339
▁prompts	-5340
▁reliable	-5341
▁scrolling	-5342
▁physically	-5343
▁advance	-5344
▁opensource	-5345
▁hash	-5346
▁metap	-5347
▁patience	-5348
oh	-5349
▁highly	-5350
▁posts	-5351
▁functions	-5352
▁cc	-5353
names	-5354
access	-5355
ague	-5356
▁interpre	-5357
▁individual	-5358
▁aig	-5359
dated	-5360
▁taht	-5361
▁voice	-5362
doc	-5363
▁120	-5364
▁hosting	-5365
▁garb	-5366
▁recom	-5367
-6	-5368
hhhh	-5369
▁shoud	-5370
▁wizard	-5371
▁elaborate	-5372
▁suggesting	-5373
▁runn	-5374
▁lately	-5375
▁songs	-5376
▁powerful	-5377
▁involved	-5378
▁themselves	-5379
▁compaq	-5380
▁advantage	-5381
▁successful	-5382
rwxrwx	-5383
▁invest	-5384
▁allready	-5385
gi	-5386
erama	-5387
▁httpd	-5388
---	-5389
▁hotplug	-5390
▁allowing	-5391
▁preferred	-5392
▁gzip	-5393
ater	-5394
fire	-5395
▁aint	-5396
▁mpeg	-5397
▁gur	-5398
▁enlight	-5399
▁athlon	-5400
▁arguments	-5401
tle	-5402
▁tex	-5403
▁layer	-5404
▁aiglx	-5405
▁borked	-5406
▁automag	-5407
▁correspond	-5408
▁thin	-5409
cop	-5410
▁fal	-5411
▁archives	-5412
ails	-5413
▁wild	-5414
▁journal	-5415
▁mask	-5416
browser	-5417
▁adds	-5418
inux	-5419
▁myth	-5420
▁vino	-5421
▁rates	-5422
▁column	-5423
▁inspiron	-5424
▁unlikely	-5425
▁5.1	-5426
▁recreate	-5427
▁hass	-5428
▁2.5	-5429
▁openv	-5430
▁sched	-5431
▁structure	-5432
▁pol	-5433
aste	-5434
▁eye	-5435
▁gir	-5436
▁encountered	-5437
▁global	-5438
ises	-5439
▁0.9	-5440
arant	-5441
▁described	-5442
▁member	-5443
▁simpler	-5444
▁prompted	-5445
▁pow	-5446
activ	-5447
▁thnx	-5448
daemon	-5449
▁disappeared	-5450
libs	-5451
pper	-5452
ockey	-5453
uing	-5454
acle	-5455
▁removes	-5456
▁epiphany	-5457
▁flashing	-5458
iga	-5459
bing	-5460
▁offers	-5461
▁headset	-5462
▁persistent	-5463
backports	-5464
▁gam	-5465
▁prep	-5466
orer	-5467
▁clues	-5468
omething	-5469
▁dvi	-5470
▁theory	-5471
▁unsure	-5472
▁statement	-5473
▁hte	-5474
phigh	-5475
▁faker	-5476
▁pasting	-5477
▁sell	-5478
▁occas	-5479
▁gotcha	-5480
▁customize	-5481
ays	-5482
atly	-5483
▁acro	-5484
partition	-5485
▁approach	-5486
▁extras	-5487
▁pxe	-5488
-2.6.1	-5489
▁ubunut	-5490
available	-5491
▁xinerama	-5492
48	-5493
weight	-5494
▁repartition	-5495
▁mx	-5496
menu	-5497
▁truecrypt	-5498
gear	-5499
▁examples	-5500
▁plymouth	-5501
▁position	-5502
▁pwd	-5503
75	-5504
▁enjo	-5505
▁badly	-5506
▁detailed	-5507
clean	-5508
▁awhile	-5509
poses	-5510
▁damaged	-5511
▁aver	-5512
▁stud	-5513
▁essential	-5514
▁forth	-5515
▁freed	-5516
username	-5517
▁presume	-5518
▁postg	-5519
73	-5520
▁grow	-5521
▁locales	-5522
uff	-5523
▁gv	-5524
▁among	-5525
lab	-5526
▁embed	-5527
▁wake	-5528
▁methods	-5529
▁tablet	-5530
▁sensors	-5531
▁686	-5532
▁pad	-5533
▁calling	-5534
▁inserted	-5535
mbr	-5536
▁2007	-5537
▁ghost	-5538
▁pppoe	-5539
▁applets	-5540
▁sr	-5541
▁picked	-5542
5-2	-5543
▁fly	-5544
author	-5545
▁breaking	-5546
enames	-5547
▁xv	-5548
▁und	-5549
▁cell	-5550
▁noapic	-5551
1200	-5552
▁alloc	-5553
▁mobility	-5554
▁dong	-5555
ued	-5556
▁ou	-5557
▁gray	-5558
▁aplay	-5559
▁estab	-5560
▁libst	-5561
▁solid	-5562
ario	-5563
▁german	-5564
usty	-5565
mark	-5566
▁attach	-5567
▁license	-5568
▁vt	-5569
iric	-5570
backup	-5571
▁purposes	-5572
gui	-5573
▁chances	-5574
rpm	-5575
▁ignoring	-5576
▁cancel	-5577
▁remind	-5578
▁commercial	-5579
▁constantly	-5580
44	-5581
kin	-5582
▁lt	-5583
▁drops	-5584
▁sequence	-5585
▁jobs	-5586
▁child	-5587
amed	-5588
▁pointed	-5589
▁recognizes	-5590
▁02	-5591
annel	-5592
acious	-5593
▁jockey	-5594
▁sendmail	-5595
▁attempted	-5596
▁ek	-5597
▁tee	-5598
▁ibex	-5599
▁prev	-5600
passwd	-5601
▁colour	-5602
▁postgres	-5603
▁gdesk	-5604
▁vendor	-5605
▁preview	-5606
▁pam	-5607
▁logitech	-5608
▁displaying	-5609
hq	-5610
live	-5611
▁sis	-5612
▁greet	-5613
▁viruses	-5614
▁literally	-5615
paces	-5616
▁guarant	-5617
▁160	-5618
onsive	-5619
▁quake	-5620
▁hints	-5621
▁technically	-5622
laptop	-5623
spe	-5624
▁cred	-5625
▁smtp	-5626
▁noone	-5627
bot	-5628
fwcutter	-5629
▁composite	-5630
▁1.6	-5631
▁attack	-5632
▁libflash	-5633
▁writable	-5634
23	-5635
▁mc	-5636
▁wife	-5637
▁brain	-5638
▁libgl	-5639
lu	-5640
▁amazing	-5641
▁clarify	-5642
yy	-5643
alled	-5644
▁2008	-5645
▁lappy	-5646
▁partitioner	-5647
▁sizes	-5648
▁unload	-5649
▁experiencing	-5650
fonts	-5651
▁anyhow	-5652
▁focus	-5653
▁evening	-5654
hd	-5655
error	-5656
▁oneiric	-5657
▁encoding	-5658
ools	-5659
hda	-5660
▁maximum	-5661
▁requests	-5662
▁nas	-5663
▁pal	-5664
▁realy	-5665
61	-5666
omed	-5667
veau	-5668
▁pip	-5669
▁shad	-5670
▁steam	-5671
▁troll	-5672
▁outdated	-5673
▁technical	-5674
fsck	-5675
▁wmv	-5676
▁greyed	-5677
▁ubunto	-5678
▁lm	-5679
▁consist	-5680
▁tonight	-5681
▁utc	-5682
▁critical	-5683
▁enlighten	-5684
tool	-5685
▁round	-5686
fr	-5687
▁fy	-5688
▁xml	-5689
device	-5690
▁buddy	-5691
▁xfree	-5692
▁dim	-5693
▁reser	-5694
▁matches	-5695
▁lime	-5696
ensive	-5697
▁hardly	-5698
▁levels	-5699
▁dk	-5700
▁irq	-5701
▁tha	-5702
▁kidd	-5703
▁acting	-5704
▁filenames	-5705
▁instances	-5706
upd	-5707
▁essentially	-5708
31	-5709
▁75	-5710
roid	-5711
▁supply	-5712
▁rog	-5713
▁explorer	-5714
eless	-5715
stick	-5716
▁2000	-5717
▁iphone	-5718
▁workspaces	-5719
baker	-5720
books	-5721
▁suitable	-5722
▁compressed	-5723
▁opposed	-5724
band	-5725
cies	-5726
strap	-5727
▁fake	-5728
▁useradd	-5729
cript	-5730
▁noauto	-5731
odeset	-5732
▁prints	-5733
▁pkill	-5734
▁resolved	-5735
pens	-5736
repos	-5737
▁adept	-5738
▁sigh	-5739
▁subst	-5740
idently	-5741
▁libstdc	-5742
▁languages	-5743
▁sorts	-5744
▁debugging	-5745
▁sum	-5746
▁buying	-5747
▁wl	-5748
▁obtain	-5749
gp	-5750
▁audacious	-5751
▁nomodeset	-5752
▁tables	-5753
▁1.3	-5754
▁requirements	-5755
▁py	-5756
▁closes	-5757
▁clamav	-5758
▁untill	-5759
▁formated	-5760
▁occasion	-5761
arrow	-5762
▁belive	-5763
▁lights	-5764
▁frost	-5765
lies	-5766
apache	-5767
▁youll	-5768
iding	-5769
▁wiresh	-5770
▁shutting	-5771
▁country	-5772
▁retri	-5773
▁satis	-5774
▁ldap	-5775
▁ekiga	-5776
▁xb	-5777
▁rtl	-5778
▁hassle	-5779
ighter	-5780
▁locking	-5781
1050	-5782
▁nou	-5783
▁tracer	-5784
▁launching	-5785
▁yay	-5786
▁mixed	-5787
▁incoming	-5788
▁fren	-5789
▁limewire	-5790
ifications	-5791
▁aff	-5792
▁visit	-5793
▁segfault	-5794
▁body	-5795
▁superuser	-5796
▁completion	-5797
▁tightvnc	-5798
ini	-5799
▁dy	-5800
▁wireshark	-5801
▁centr	-5802
▁dream	-5803
▁1600	-5804
▁frustrating	-5805
▁96	-5806
creen	-5807
acom	-5808
osity	-5809
▁stated	-5810
▁configurations	-5811
▁netgear	-5812
700	-5813
▁ni	-5814
▁netbe	-5815
something	-5816
src	-5817
▁vps	-5818
▁explanation	-5819
tun	-5820
▁ru	-5821
▁ral	-5822
▁imap	-5823
▁dongle	-5824
ssh	-5825
▁blind	-5826
▁warnings	-5827
agle	-5828
modem	-5829
▁saves	-5830
▁establish	-5831
pages	-5832
▁restrict	-5833
▁backtrack	-5834
jar	-5835
▁enjoy	-5836
▁sadly	-5837
und	-5838
▁opensuse	-5839
▁assistance	-5840
▁xar	-5841
▁aside	-5842
▁gtkpod	-5843
▁hur	-5844
▁28	-5845
▁protect	-5846
▁towards	-5847
▁lid	-5848
▁kinds	-5849
▁sometime	-5850
mer	-5851
▁untar	-5852
achable	-5853
▁openvpn	-5854
▁winehq	-5855
▁terrible	-5856
hi	-5857
exp	-5858
kip	-5859
▁82	-5860
▁kid	-5861
▁early	-5862
▁sends	-5863
▁teach	-5864
▁temper	-5865
iling	-5866
▁brought	-5867
▁nos	-5868
▁metapackage	-5869
lessly	-5870
▁bound	-5871
match	-5872
▁deps	-5873
▁medium	-5874
format	-5875
▁creative	-5876
▁conflicts	-5877
▁-1	-5878
▁attempts	-5879
▁reporting	-5880
▁rf	-5881
▁4096	-5882
▁togg	-5883
▁wrapper	-5884
▁180	-5885
▁ugh	-5886
▁rarely	-5887
▁optical	-5888
▁explained	-5889
▁components	-5890
▁ow	-5891
craft	-5892
▁aspire	-5893
▁stack	-5894
vol	-5895
▁ris	-5896
▁hung	-5897
▁neat	-5898
mach	-5899
▁popup	-5900
spec	-5901
▁comand	-5902
cat	-5903
▁sams	-5904
▁instruction	-5905
▁calc	-5906
▁states	-5907
▁appeared	-5908
▁cdrecord	-5909
▁bla	-5910
▁cairo	-5911
▁false	-5912
▁bypass	-5913
▁passed	-5914
▁smbclient	-5915
▁utilities	-5916
ius	-5917
▁src	-5918
▁bitch	-5919
▁centos	-5920
▁discussion	-5921
np	-5922
coder	-5923
▁dan	-5924
▁hel	-5925
▁ship	-5926
▁mistaken	-5927
▁gnomebaker	-5928
home	-5929
folder	-5930
▁reasonable	-5931
▁unreachable	-5932
▁darn	-5933
▁checkbox	-5934
▁permitted	-5935
▁shock	-5936
screensaver	-5937
▁nu	-5938
▁4.0	-5939
▁hmmmm	-5940
▁ahve	-5941
▁joke	-5942
▁openjdk	-5943
▁04	-5944
▁acts	-5945
▁headless	-5946
▁gdesklets	-5947
prise	-5948
▁netbeans	-5949
▁waht	-5950
▁stri	-5951
▁french	-5952
▁firewire	-5953
▁unbuntu	-5954
▁ofc	-5955
▁segmentation	-5956
▁que	-5957
.32	-5958
epc	-5959
ners	-5960
▁locations	-5961
▁mas	-5962
▁widget	-5963
▁trigger	-5964
▁dropping	-5965
nn	-5966
ption	-5967
▁moves	-5968
▁unused	-5969
▁realized	-5970
_-	-5971
amd	-5972
nip	-5973
network	-5974
▁latter	-5975
▁expecting	-5976
▁verified	-5977
▁blender	-5978
52	-5979
_0	-5980
▁dialup	-5981
ield	-5982
▁ouch	-5983
▁incomp	-5984
▁preser	-5985
▁backend	-5986
kon	-5987
▁sane	-5988
forums	-5989
▁abort	-5990
▁android	-5991
▁konsole	-5992
▁viewing	-5993
users	-5994
spot	-5995
▁positive	-5996
▁authorized	-5997
riva	-5998
thanks	-5999
▁adm	-6000
▁aka	-6001
hting	-6002
▁applied	-6003
▁kidding	-6004
▁frostwire	-6005
▁faulty	-6006
▁succeed	-6007
▁completed	-6008
▁traceroute	-6009
lay	-6010
fish	-6011
uming	-6012
▁ju	-6013
▁vanilla	-6014
▁meg	-6015
ribly	-6016
▁avah	-6017
▁45	-6018
▁freenx	-6019
▁spanish	-6020
▁subject	-6021
▁relatively	-6022
▁drake	-6023
▁overhe	-6024
▁samsung	-6025
▁unr	-6026
▁ubut	-6027
▁basics	-6028
▁connectivity	-6029
▁98	-6030
▁recognise	-6031
▁div	-6032
▁fyi	-6033
▁pae	-6034
backspace	-6035
unch	-6036
▁utorrent	-6037
installing	-6038
1.2	-6039
▁mi	-6040
▁xargs	-6041
▁searches	-6042
vt	-6043
rist	-6044
drives	-6045
▁definition	-6046
dns	-6047
sens	-6048
▁mandriva	-6049
pars	-6050
▁gun	-6051
▁modern	-6052
▁ralink	-6053
▁answering	-6054
round	-6055
▁addr	-6056
▁average	-6057
▁patient	-6058
▁production	-6059
▁flashplayer	-6060
.-	-6061
▁broadband	-6062
▁desp	-6063
▁glibc	-6064
▁autodetect	-6065
▁devs	-6066
ugg	-6067
▁xbmc	-6068
▁yell	-6069
▁claims	-6070
▁bye	-6071
▁lightweight	-6072
text	-6073
▁2.6.24	-6074
▁produce	-6075
▁ele	-6076
ining	-6077
current	-6078
aris	-6079
bits	-6080
gm	-6081
eding	-6082
remove	-6083
bs	-6084
▁mandr	-6085
▁quote	-6086
▁ought	-6087
2200	-6088
▁sup	-6089
▁matching	-6090
iate	-6091
part	-6092
▁extend	-6093
▁charm	-6094
▁curl	-6095
▁minor	-6096
▁conversation	-6097
▁hr	-6098
▁guid	-6099
▁nouveau	-6100
▁libapache	-6101
▁actionpars	-6102
▁ko	-6103
▁vncviewer	-6104
ae	-6105
▁drm	-6106
▁mencoder	-6107
▁fc	-6108
▁paper	-6109
▁unexp	-6110
▁scaling	-6111
▁unavailable	-6112
boy	-6113
▁owns	-6114
▁carefully	-6115
▁installations	-6116
dsk	-6117
▁bcmwl	-6118
▁portable	-6119
aging	-6120
▁envi	-6121
▁lighter	-6122
▁2009	-6123
▁junk	-6124
▁rtorrent	-6125
▁stability	-6126
ptp	-6127
▁iv	-6128
▁rwx	-6129
▁clip	-6130
▁1680	-6131
▁dice	-6132
command	-6133
▁cas	-6134
▁tracker	-6135
▁smbpasswd	-6136
ulous	-6137
abilities	-6138
▁launched	-6139
repository	-6140
cr	-6141
43-	-6142
▁ghz	-6143
▁sorta	-6144
▁tuner	-6145
▁mandrake	-6146
png	-6147
▁oracle	-6148
▁protected	-6149
▁explicitly	-6150
▁evil	-6151
▁safer	-6152
▁redo	-6153
▁tough	-6154
▁independ	-6155
configured	-6156
▁liked	-6157
eth	-6158
▁wiped	-6159
▁edubuntu	-6160
▁legal	-6161
▁parall	-6162
▁printed	-6163
try	-6164
▁rer	-6165
▁whichever	-6166
▁actionparsnip	-6167
fb	-6168
ior	-6169
▁blame	-6170
▁trace	-6171
▁finger	-6172
▁automagically	-6173
igy	-6174
▁blog	-6175
▁remains	-6176
agick	-6177
▁roger	-6178
▁dict	-6179
▁nics	-6180
ked	-6181
wer	-6182
does	-6183
▁ubuntuforums	-6184
dec	-6185
rary	-6186
orge	-6187
▁agre	-6188
▁hibernation	-6189
lookup	-6190
▁tests	-6191
when	-6192
▁scen	-6193
▁illeg	-6194
▁resort	-6195
eee	-6196
▁tune	-6197
▁merge	-6198
qld	-6199
▁upstream	-6200
▁ia	-6201
▁requested	-6202
▁48	-6203
ervers	-6204
▁unusable	-6205
▁vague	-6206
alth	-6207
▁dirty	-6208
rit	-6209
-3.4	-6210
this	-6211
▁bed	-6212
▁fingers	-6213
bed	-6214
▁bah	-6215
built	-6216
▁hund	-6217
▁obsol	-6218
▁thous	-6219
inc	-6220
▁wil	-6221
complete	-6222
▁investig	-6223
▁technologies	-6224
▁rob	-6225
fglrx	-6226
▁8800	-6227
▁wacom	-6228
ada	-6229
cii	-6230
▁tm	-6231
asty	-6232
▁mirc	-6233
139	-6234
▁zo	-6235
▁avahi	-6236
34	-6237
▁imp	-6238
▁kop	-6239
willis	-6240
▁serve	-6241
▁curiosity	-6242
▁recursively	-6243
▁sarge	-6244
▁homepage	-6245
▁headphone	-6246
▁combo	-6247
▁fixmbr	-6248
▁2010	-6249
▁frag	-6250
▁events	-6251
▁university	-6252
▁discs	-6253
lol	-6254
power	-6255
▁ich	-6256
▁eeepc	-6257
▁unmet	-6258
▁mismatch	-6259
asure	-6260
▁infr	-6261
▁stands	-6262
▁posting	-6263
▁pointers	-6264
▁unplugged	-6265
▁san	-6266
monitor	-6267
▁disappear	-6268
▁uhh	-6269
rescue	-6270
ergy	-6271
media	-6272
▁fawn	-6273
iconfig	-6274
▁quad	-6275
▁equal	-6276
▁320	-6277
▁unexpected	-6278
▁bare	-6279
▁flex	-6280
▁biggest	-6281
▁hundred	-6282
14	-6283
▁accessed	-6284
ley	-6285
isco	-6286
▁stre	-6287
▁orange	-6288
▁subversion	-6289
▁capital	-6290
▁pattern	-6291
▁unusual	-6292
▁referred	-6293
have	-6294
▁fb	-6295
gers	-6296
▁hands	-6297
▁keyword	-6298
ety	-6299
▁nero	-6300
▁seam	-6301
standard	-6302
▁tur	-6303
▁deboot	-6304
▁defect	-6305
▁sorted	-6306
▁overwritten	-6307
col	-6308
▁audigy	-6309
▁substit	-6310
▁tcpdump	-6311
ril	-6312
▁sticks	-6313
▁chkdsk	-6314
▁particularly	-6315
aaaa	-6316
case	-6317
▁swf	-6318
▁accur	-6319
▁square	-6320
▁incompat	-6321
76	-6322
▁stump	-6323
▁placed	-6324
2-1	-6325
▁unn	-6326
graph	-6327
▁signific	-6328
freq	-6329
sword	-6330
▁autost	-6331
▁wherever	-6332
▁shuts	-6333
▁choppy	-6334
dl	-6335
uase	-6336
▁mhz	-6337
▁emails	-6338
▁nowhere	-6339
▁duplicate	-6340
▁halt	-6341
▁sysv	-6342
hn	-6343
▁isos	-6344
▁ultimate	-6345
may	-6346
irus	-6347
night	-6348
▁vertical	-6349
▁kopete	-6350
oth	-6351
▁95	-6352
▁2.3	-6353
▁udp	-6354
▁dang	-6355
▁sufficient	-6356
▁swapon	-6357
▁54	-6358
▁tht	-6359
▁paid	-6360
▁secs	-6361
▁mapping	-6362
▁initially	-6363
▁recursive	-6364
▁alsac	-6365
▁concept	-6366
masq	-6367
▁gusty	-6368
cre	-6369
▁150	-6370
▁ctl	-6371
▁parse	-6372
▁forgotten	-6373
▁remaining	-6374
onym	-6375
▁por	-6376
action	-6377
▁override	-6378
0000	-6379
▁ncurses	-6380
wo	-6381
▁644	-6382
▁hog	-6383
▁diagnose	-6384
26	-6385
▁logins	-6386
orders	-6387
▁powers	-6388
▁becuase	-6389
▁handled	-6390
85	-6391
▁9600	-6392
▁organ	-6393
updates	-6394
▁favorite	-6395
▁kd	-6396
pensive	-6397
▁practice	-6398
▁snapshot	-6399
▁accidently	-6400
▁ist	-6401
▁offic	-6402
▁definately	-6403
rad	-6404
▁txt	-6405
▁5900	-6406
▁noth	-6407
▁despite	-6408
dock	-6409
▁likes	-6410
▁wides	-6411
▁imagem	-6412
▁runtime	-6413
▁sensitive	-6414
▁sta	-6415
▁photo	-6416
alyst	-6417
▁daem	-6418
▁blacklisted	-6419
▁piss	-6420
related	-6421
▁touched	-6422
▁vice	-6423
3945	-6424
▁915	-6425
▁gpl	-6426
▁cores	-6427
▁horizont	-6428
eed	-6429
▁garbage	-6430
▁indicate	-6431
▁compression	-6432
▁cond	-6433
▁occurs	-6434
▁rewrite	-6435
ctor	-6436
aught	-6437
▁lookup	-6438
there	-6439
▁eyes	-6440
ending	-6441
▁highest	-6442
ti	-6443
▁03	-6444
▁hdds	-6445
▁whit	-6446
priv	-6447
▁beginner	-6448
▁partimage	-6449
▁sth	-6450
▁actions	-6451
▁driving	-6452
▁illegal	-6453
hoc	-6454
▁flannel	-6455
▁executables	-6456
▁pptp	-6457
▁liveusb	-6458
ered	-6459
▁five	-6460
▁leaves	-6461
▁intended	-6462
▁rythmbox	-6463
▁switcher	-6464
▁filezilla	-6465
ched	-6466
▁feels	-6467
▁mysqld	-6468
▁processors	-6469
▁accelerated	-6470
▁rely	-6471
icious	-6472
▁repeating	-6473
-686	-6474
iver	-6475
▁12.04	-6476
▁desired	-6477
▁thun	-6478
essentials	-6479
▁hdc	-6480
▁burnt	-6481
▁nasty	-6482
▁borders	-6483
▁absolute	-6484
▁integrity	-6485
▁mpg	-6486
▁qtp	-6487
▁repro	-6488
▁benefit	-6489
▁wir	-6490
▁gftp	-6491
▁libqt	-6492
▁3.4	-6493
▁rdp	-6494
▁intro	-6495
▁reduce	-6496
▁deactiv	-6497
▁additions	-6498
▁1440	-6499
istant	-6500
▁preferably	-6501
vc	-6502
▁cri	-6503
▁iwl	-6504
▁dealing	-6505
▁mailing	-6506
▁renamed	-6507
▁figuring	-6508
▁fli	-6509
resol	-6510
▁emer	-6511
▁corruption	-6512
pdf	-6513
rack	-6514
▁1.9	-6515
▁screenshots	-6516
▁zone	-6517
▁catalyst	-6518
phone	-6519
▁rever	-6520
authority	-6521
wn	-6522
rate	-6523
▁supposedly	-6524
▁skill	-6525
▁rephrase	-6526
▁converting	-6527
▁yum	-6528
▁factoid	-6529
▁toolbar	-6530
▁packaging	-6531
▁supporting	-6532
▁dependancies	-6533
imal	-6534
wave	-6535
▁puppy	-6536
▁retry	-6537
▁problematic	-6538
sm	-6539
▁bz	-6540
▁nuts	-6541
▁counter	-6542
▁api	-6543
▁cry	-6544
▁spit	-6545
▁mpd	-6546
0.10-	-6547
▁exchange	-6548
71	-6549
uth	-6550
▁winamp	-6551
▁nslookup	-6552
▁modifying	-6553
volume	-6554
▁ops	-6555
entials	-6556
▁stumped	-6557
▁checksum	-6558
78	-6559
cap	-6560
▁lp	-6561
▁regist	-6562
▁partial	-6563
▁fool	-6564
veas	-6565
▁dad	-6566
▁scheme	-6567
▁whereas	-6568
▁hits	-6569
▁jum	-6570
vdial	-6571
▁runing	-6572
▁cisco	-6573
legacy	-6574
▁powered	-6575
▁tcl	-6576
▁tasksel	-6577
▁embedded	-6578
def	-6579
reg	-6580
▁fa	-6581
▁timed	-6582
specific	-6583
▁aticonfig	-6584
▁debootstrap	-6585
mys	-6586
usted	-6587
▁blow	-6588
▁wvdial	-6589
▁null	-6590
aio	-6591
▁tnx	-6592
▁held	-6593
▁summ	-6594
▁syncing	-6595
▁mentions	-6596
▁deny	-6597
▁barely	-6598
▁qtparted	-6599
▁expensive	-6600
▁sen	-6601
arded	-6602
▁pulled	-6603
▁rotate	-6604
▁emulation	-6605
▁2006	-6606
▁suff	-6607
▁usefull	-6608
▁autostart	-6609
▁-_-	-6610
▁zen	-6611
▁recon	-6612
▁satisf	-6613
▁eating	-6614
▁disappears	-6615
fu	-6616
ading	-6617
▁latex	-6618
▁stall	-6619
▁portion	-6620
▁reconfiguring	-6621
▁dc	-6622
some	-6623
ished	-6624
▁befor	-6625
▁chips	-6626
▁temperature	-6627
val	-6628
imin	-6629
▁okey	-6630
▁xvid	-6631
▁grant	-6632
▁mixing	-6633
▁reccom	-6634
▁stores	-6635
▁million	-6636
▁recorder	-6637
blah	-6638
▁facing	-6639
▁forcing	-6640
▁nameservers	-6641
▁divx	-6642
▁fans	-6643
▁rerun	-6644
ui	-6645
▁codes	-6646
▁saver	-6647
▁gpt	-6648
▁review	-6649
osen	-6650
▁picking	-6651
▁detection	-6652
▁impression	-6653
rele	-6654
▁installable	-6655
▁56	-6656
ampp	-6657
endar	-6658
eting	-6659
▁bell	-6660
▁beside	-6661
stu	-6662
copy	-6663
▁decrypt	-6664
▁vb	-6665
▁udf	-6666
▁impl	-6667
▁partner	-6668
5.	-6669
▁3.2	-6670
soles	-6671
att	-6672
erly	-6673
▁sli	-6674
▁annoy	-6675
▁filled	-6676
astic	-6677
▁april	-6678
▁natively	-6679
ala	-6680
iqu	-6681
ellite	-6682
▁pings	-6683
▁tryin	-6684
ications	-6685
▁envirom	-6686
▁ten	-6687
▁deep	-6688
▁math	-6689
▁beaut	-6690
secure	-6691
▁oppos	-6692
▁sections	-6693
▁anytime	-6694
21	-6695
▁ignor	-6696
▁ecrypt	-6697
▁fastest	-6698
aches	-6699
▁closer	-6700
▁rough	-6701
▁colle	-6702
▁desper	-6703
▁recognizing	-6704
▁rege	-6705
▁purch	-6706
▁amixer	-6707
▁oem	-6708
▁son	-6709
▁----	-6710
▁brown	-6711
▁ubuntus	-6712
▁backwards	-6713
▁virtualization	-6714
-9	-6715
▁incon	-6716
▁unrec	-6717
▁insmod	-6718
nat	-6719
▁xs	-6720
ndns	-6721
▁neg	-6722
▁lightdm	-6723
▁officially	-6724
▁26	-6725
▁scale	-6726
▁centre	-6727
▁handling	-6728
▁universal	-6729
▁sni	-6730
ncy	-6731
alone	-6732
▁paying	-6733
▁downgrad	-6734
▁indicates	-6735
▁pit	-6736
forge	-6737
▁flush	-6738
▁nforce	-6739
▁alsaconf	-6740
xgl	-6741
asswd	-6742
▁homed	-6743
search	-6744
▁submit	-6745
▁slash	-6746
▁guided	-6747
▁bookmark	-6748
going	-6749
▁compar	-6750
▁interrupted	-6751
▁33	-6752
▁nicer	-6753
▁bob	-6754
▁lirc	-6755
▁coding	-6756
▁flat	-6757
▁admit	-6758
▁drwxr	-6759
▁pata	-6760
▁daemons	-6761
▁widescreen	-6762
izer	-6763
▁3.1	-6764
▁vaio	-6765
▁cached	-6766
▁thunar	-6767
zf	-6768
▁46	-6769
▁2.8	-6770
▁dkms	-6771
▁preinstalled	-6772
▁dyndns	-6773
dr	-6774
drop	-6775
plus	-6776
▁ipconfig	-6777
▁playlist	-6778
▁protection	-6779
▁distributions	-6780
▁38	-6781
blocks	-6782
▁reject	-6783
▁exa	-6784
▁quicker	-6785
▁guru	-6786
▁firewalls	-6787
▁der	-6788
▁acroread	-6789
▁-.-	-6790
▁768	-6791
▁belongs	-6792
▁discovered	-6793
▁functional	-6794
▁specifying	-6795
zer	-6796
clude	-6797
devel	-6798
▁leno	-6799
▁celer	-6800
▁purple	-6801
▁inserting	-6802
▁imagemagick	-6803
rix	-6804
▁-'	-6805
▁jrib	-6806
▁chatting	-6807
72	-6808
ao	-6809
▁hole	-6810
▁hosed	-6811
▁beagle	-6812
▁credentials	-6813
1-1	-6814
gth	-6815
▁nec	-6816
▁decod	-6817
▁popped	-6818
▁whatso	-6819
▁variant	-6820
▁wit	-6821
▁kills	-6822
▁conven	-6823
▁nickname	-6824
▁retrieve	-6825
uu	-6826
▁glitch	-6827
compiled	-6828
▁explaining	-6829
give	-6830
uted	-6831
speak	-6832
▁tomc	-6833
▁solaris	-6834
▁recomend	-6835
▁smoothly	-6836
▁refuse	-6837
▁seveas	-6838
▁finishes	-6839
▁satellite	-6840
▁instalation	-6841
abit	-6842
econf	-6843
▁cook	-6844
▁ikon	-6845
▁inetd	-6846
brid	-6847
▁00.0	-6848
▁consoles	-6849
▁misunderstood	-6850
▁ball	-6851
▁pair	-6852
▁scared	-6853
ags	-6854
augh	-6855
stop	-6856
▁baz	-6857
▁dying	-6858
▁tomcat	-6859
▁cyg	-6860
▁flav	-6861
▁acess	-6862
▁avant	-6863
▁editors	-6864
▁opposite	-6865
▁rdesktop	-6866
▁horizontal	-6867
▁references	-6868
acpi	-6869
▁exim	-6870
▁belkin	-6871
▁affected	-6872
▁resolving	-6873
▁conflicting	-6874
▁dhcpd	-6875
▁notify	-6876
▁whatsoever	-6877
▁urg	-6878
▁mech	-6879
▁asound	-6880
▁typical	-6881
▁surround	-6882
▁cpufreq	-6883
▁technology	-6884
▁capabilities	-6885
▁900	-6886
▁jap	-6887
▁tri	-6888
▁triv	-6889
▁couldn	-6890
▁concern	-6891
▁recognised	-6892
mic	-6893
wide	-6894
▁argh	-6895
display	-6896
▁addons	-6897
▁wav	-6898
▁0.1	-6899
▁ubu	-6900
▁ultr	-6901
▁javas	-6902
resolution	-6903
which	-6904
▁boost	-6905
▁toggle	-6906
▁allocate	-6907
▁extracting	-6908
iname	-6909
▁whatnot	-6910
▁facebook	-6911
▁tweaking	-6912
▁pulling	-6913
epad	-6914
▁anyth	-6915
▁ktorrent	-6916
▁repeated	-6917
▁xx	-6918
▁cyl	-6919
▁doen	-6920
▁alive	-6921
▁ascii	-6922
▁cycle	-6923
▁lenovo	-6924
▁pak	-6925
▁sick	-6926
sensors	-6927
ya	-6928
▁manip	-6929
▁exception	-6930
arte	-6931
▁ord	-6932
▁fell	-6933
▁intell	-6934
▁roaming	-6935
▁automated	-6936
▁oses	-6937
studio	-6938
▁presum	-6939
▁hacking	-6940
bat	-6941
friend	-6942
mplayer	-6943
▁celeron	-6944
915	-6945
ooo	-6946
▁component	-6947
▁sdl	-6948
▁warcraft	-6949
▁pd	-6950
hosts	-6951
▁chipsets	-6952
▁disag	-6953
▁succes	-6954
▁chrooted	-6955
92	-6956
▁dj	-6957
▁builds	-6958
▁cygwin	-6959
▁transpare	-6960
▁haven	-6961
▁ikonia	-6962
selections	-6963
▁collection	-6964
▁enviroment	-6965
▁compilation	-6966
▁enlightenment	-6967
-15	-6968
▁bull	-6969
ishing	-6970
gconf	-6971
sound	-6972
▁intall	-6973
delete	-6974
▁applies	-6975
cdrom	-6976
▁ooh	-6977
▁wikip	-6978
ferences	-6979
▁swat	-6980
wine	-6981
▁egg	-6982
▁standby	-6983
burn	-6984
cape	-6985
▁resized	-6986
▁corresponding	-6987
ait	-6988
▁urls	-6989
▁projects	-6990
▁il	-6991
▁ummm	-6992
▁alert	-6993
▁prism	-6994
▁videocard	-6995
▁shoudl	-6996
official	-6997
▁identified	-6998
fm	-6999
tit	-7000
▁gpart	-7001
▁useing	-7002
▁filtering	-7003
▁til	-7004
▁experimental	-7005
▁socks	-7006
▁versa	-7007
hup	-7008
loy	-7009
▁bc	-7010
▁ddr	-7011
firefox	-7012
▁offered	-7013
▁maximize	-7014
▁cold	-7015
▁ttys	-7016
▁ibook	-7017
tos	-7018
▁lease	-7019
▁managing	-7020
aking	-7021
▁authenticate	-7022
tin	-7023
▁je	-7024
▁2.6.20	-7025
▁repres	-7026
▁stdout	-7027
▁shockwave	-7028
▁japan	-7029
▁notepad	-7030
know	-7031
▁efficient	-7032
▁resetting	-7033
35	-7034
▁ri	-7035
uous	-7036
▁conn	-7037
▁chars	-7038
▁strip	-7039
▁eat	-7040
inder	-7041
▁clon	-7042
▁tends	-7043
▁insist	-7044
▁666	-7045
▁meh	-7046
▁rig	-7047
ational	-7048
folders	-7049
▁accurate	-7050
▁renaming	-7051
▁gk	-7052
▁uk	-7053
modmap	-7054
▁intend	-7055
▁restored	-7056
▁converted	-7057
▁alac	-7058
▁elimin	-7059
▁patched	-7060
▁initialize	-7061
cj	-7062
▁hz	-7063
▁xm	-7064
▁ect	-7065
▁behave	-7066
▁manualy	-7067
▁greetings	-7068
upp	-7069
▁35	-7070
hang	-7071
ighb	-7072
▁xev	-7073
▁ecryptfs	-7074
1.5	-7075
▁ending	-7076
ateg	-7077
▁tap	-7078
▁buntu	-7079
directories	-7080
▁harddrives	-7081
ami	-7082
▁1.8	-7083
▁beat	-7084
▁midi	-7085
xsession	-7086
▁feedback	-7087
▁abi	-7088
▁funky	-7089
▁precisely	-7090
▁price	-7091
▁hahaha	-7092
▁openssl	-7093
▁monitoring	-7094
▁36	-7095
rief	-7096
▁duh	-7097
theme	-7098
▁netboot	-7099
▁clonezilla	-7100
94	-7101
reme	-7102
▁soo	-7103
▁avid	-7104
▁fuser	-7105
▁winec	-7106
▁sample	-7107
together	-7108
▁frustrated	-7109
▁eu	-7110
inese	-7111
▁mtab	-7112
loaded	-7113
▁laggy	-7114
▁resulting	-7115
▁173	-7116
maybe	-7117
▁uuids	-7118
▁charge	-7119
▁restoring	-7120
hcd	-7121
anch	-7122
▁bon	-7123
▁anti	-7124
▁hacked	-7125
▁reflect	-7126
▁calendar	-7127
▁readonly	-7128
▁interactive	-7129
0.8	-7130
oms	-7131
sist	-7132
▁macs	-7133
▁plugdev	-7134
▁doh	-7135
mysql	-7136
211	-7137
ems	-7138
osh	-7139
▁lil	-7140
▁1920	-7141
▁providing	-7142
▁asse	-7143
▁dose	-7144
▁emulate	-7145
▁translate	-7146
▁unmounting	-7147
tree	-7148
▁pard	-7149
▁spelling	-7150
▁27	-7151
▁img	-7152
▁border	-7153
▁chosen	-7154
▁slider	-7155
dn	-7156
-20	-7157
▁sympt	-7158
▁anonym	-7159
▁erased	-7160
▁frequently	-7161
▁highlighted	-7162
▁confirmed	-7163
▁pointless	-7164
andy	-7165
▁spinning	-7166
▁ups	-7167
▁0000	-7168
▁cpus	-7169
▁kate	-7170
▁batch	-7171
oooooooo	-7172
▁massive	-7173
▁hes	-7174
▁tbh	-7175
depend	-7176
▁antiv	-7177
▁elect	-7178
▁whereis	-7179
▁confusion	-7180
-7	-7181
▁mil	-7182
▁weather	-7183
etd	-7184
▁intr	-7185
▁migrate	-7186
▁diffrent	-7187
should	-7188
▁timing	-7189
▁winscp	-7190
▁greatly	-7191
▁automaticly	-7192
▁8600	-7193
ppp	-7194
▁6600	-7195
▁trial	-7196
▁dragging	-7197
▁havn	-7198
▁swear	-7199
▁alacarte	-7200
vi	-7201
isions	-7202
▁americ	-7203
▁chinese	-7204
▁itll	-7205
▁gigabit	-7206
▁incorrectly	-7207
▁tx	-7208
▁gdeb	-7209
▁shout	-7210
▁converter	-7211
une	-7212
aver	-7213
▁aye	-7214
▁throws	-7215
clicking	-7216
▁ofcourse	-7217
▁postgresql	-7218
▁isol	-7219
▁logic	-7220
▁dmraid	-7221
initramfs	-7222
bus	-7223
xvf	-7224
▁5.0	-7225
▁gather	-7226
security	-7227
▁bleeding	-7228
▁dropdown	-7229
▁reserved	-7230
▁javascript	-7231
9-	-7232
▁hehehe	-7233
▁png	-7234
8-1	-7235
eper	-7236
▁rsa	-7237
▁tags	-7238
▁trough	-7239
▁writer	-7240
▁profession	-7241
▁gib	-7242
▁hyper	-7243
▁timest	-7244
ban	-7245
progs	-7246
▁trivial	-7247
▁4.1	-7248
▁imac	-7249
▁strict	-7250
▁homedir	-7251
▁profiles	-7252
▁wikipedia	-7253
▁53	-7254
▁basis	-7255
▁xinit	-7256
kde	-7257
▁las	-7258
▁tink	-7259
▁simult	-7260
▁spread	-7261
password	-7262
ref	-7263
eted	-7264
▁mere	-7265
ecessary	-7266
▁teamspeak	-7267
▁flawlessly	-7268
elt	-7269
▁css	-7270
▁jus	-7271
bound	-7272
▁synch	-7273
emes	-7274
utter	-7275
▁demo	-7276
detect	-7277
▁strang	-7278
▁passing	-7279
▁percent	-7280
▁fidd	-7281
▁msdos	-7282
▁sentence	-7283
hy	-7284
mad	-7285
ubar	-7286
▁analy	-7287
▁rocks	-7288
uration	-7289
▁mechan	-7290
▁shouldn	-7291
▁selector	-7292
▁occasionally	-7293
▁intact	-7294
▁pppoeconf	-7295
▁administrative	-7296
▁pause	-7297
▁station	-7298
▁operations	-7299
lts	-7300
▁55	-7301
▁pardon	-7302
rier	-7303
▁2003	-7304
▁ridic	-7305
▁talks	-7306
▁recommendation	-7307
▁fd	-7308
▁books	-7309
▁became	-7310
▁creation	-7311
▁completly	-7312
.00	-7313
▁bog	-7314
▁depmod	-7315
▁throwing	-7316
▁wondered	-7317
sf	-7318
debs	-7319
▁dear	-7320
▁transparency	-7321
ismet	-7322
▁bill	-7323
▁regularly	-7324
150	-7325
eter	-7326
umber	-7327
▁lies	-7328
▁gdebi	-7329
▁unique	-7330
▁threads	-7331
▁sv	-7332
xxxx	-7333
▁lex	-7334
▁kicked	-7335
▁songbird	-7336
▁megs	-7337
▁cloud	-7338
bang	-7339
prot	-7340
▁dcc	-7341
▁parallel	-7342
▁retarded	-7343
want	-7344
▁clust	-7345
▁est	-7346
▁shadow	-7347
gh	-7348
why	-7349
▁tou	-7350
▁strongly	-7351
▁libflashplayer	-7352
▁poke	-7353
▁icewm	-7354
▁fucked	-7355
▁occured	-7356
▁compositing	-7357
▁biz	-7358
▁rare	-7359
▁2.6.17	-7360
42	-7361
stro	-7362
▁ease	-7363
▁apologies	-7364
▁presumably	-7365
▁la	-7366
▁clicks	-7367
▁favour	-7368
▁fglrxinfo	-7369
▁identifier	-7370
gigs	-7371
module	-7372
▁libre	-7373
▁neighb	-7374
▁proposed	-7375
123	-7376
ses	-7377
▁categ	-7378
▁modems	-7379
▁college	-7380
ado	-7381
1000	-7382
acher	-7383
▁kaff	-7384
▁libp	-7385
▁instantly	-7386
32-	-7387
mmm	-7388
▁rat	-7389
▁streams	-7390
▁screwing	-7391
▁easyubuntu	-7392
nu	-7393
war	-7394
need	-7395
▁bench	-7396
▁truth	-7397
▁instaled	-7398
▁antivirus	-7399
▁documented	-7400
ray	-7401
-2.0	-7402
▁holy	-7403
responsive	-7404
fa	-7405
▁spy	-7406
▁8080	-7407
▁length	-7408
▁purged	-7409
▁programmer	-7410
▁scary	-7411
sk	-7412
▁aa	-7413
▁kicks	-7414
▁tracks	-7415
rell	-7416
▁945	-7417
▁rude	-7418
esh	-7419
▁addon	-7420
▁aster	-7421
▁bothered	-7422
▁uncommented	-7423
fers	-7424
▁boy	-7425
▁tux	-7426
▁loud	-7427
▁pico	-7428
▁pmount	-7429
▁advantages	-7430
eber	-7431
▁comb	-7432
▁evince	-7433
▁dnsmasq	-7434
▁labeled	-7435
▁launches	-7436
▁connector	-7437
▁unf	-7438
▁beha	-7439
▁replies	-7440
▁uncompress	-7441
▁icmp	-7442
▁explo	-7443
▁messy	-7444
▁frames	-7445
▁2.6.32	-7446
▁lit	-7447
emux	-7448
▁kismet	-7449
▁diction	-7450
▁automounting	-7451
rq	-7452
▁kino	-7453
▁pars	-7454
creator	-7455
▁prepare	-7456
▁highlighting	-7457
▁fork	-7458
▁mutt	-7459
▁banned	-7460
vis	-7461
▁2005	-7462
▁jord	-7463
▁adapters	-7464
▁overwriting	-7465
▁85	-7466
▁amule	-7467
booting	-7468
▁compan	-7469
ament	-7470
▁zomb	-7471
▁ideal	-7472
▁streng	-7473
▁xmodmap	-7474
▁receiving	-7475
▁od	-7476
agent	-7477
sorry	-7478
▁records	-7479
▁schedul	-7480
▁smbmount	-7481
▁thankyou	-7482
▁functioning	-7483
86-	-7484
size	-7485
icaly	-7486
▁risky	-7487
▁respons	-7488
▁shipped	-7489
▁fakeroot	-7490
forwarding	-7491
▁branch	-7492
sequ	-7493
▁arm	-7494
ifies	-7495
▁uptime	-7496
▁logfile	-7497
▁regener	-7498
▁aah	-7499
▁ohhh	-7500
▁incase	-7501
▁advised	-7502
job	-7503
ped	-7504
▁fear	-7505
▁apton	-7506
encrypt	-7507
▁instant	-7508
▁promising	-7509
▁bele	-7510
▁filed	-7511
▁winecfg	-7512
▁cin	-7513
anyone	-7514
▁lives	-7515
bak	-7516
▁rx	-7517
▁bud	-7518
inary	-7519
▁bear	-7520
▁xampp	-7521
preferences	-7522
▁07	-7523
erate	-7524
etion	-7525
▁phil	-7526
▁bridged	-7527
▁intensive	-7528
▁standalone	-7529
▁apl	-7530
▁holds	-7531
aunch	-7532
lated	-7533
▁refers	-7534
▁incredi	-7535
za	-7536
ott	-7537
▁arp	-7538
▁actualy	-7539
ola	-7540
room	-7541
▁erus	-7542
▁terr	-7543
▁marks	-7544
▁agreed	-7545
▁redownload	-7546
▁wrt	-7547
▁witch	-7548
2.0-	-7549
2500	-7550
▁dots	-7551
▁pacak	-7552
▁limits	-7553
▁powerpc	-7554
▁nosuid	-7555
▁overheating	-7556
syn	-7557
▁avidemux	-7558
▁modeline	-7559
▁clipboard	-7560
▁sourceforge	-7561
bet	-7562
pted	-7563
▁narrow	-7564
friendly	-7565
▁swapping	-7566
▁separately	-7567
▁responsible	-7568
.14	-7569
rrrr	-7570
▁wht	-7571
vell	-7572
▁christ	-7573
▁tvtime	-7574
▁outgoing	-7575
▁altogether	-7576
bug	-7577
▁cord	-7578
▁hasnt	-7579
▁2.6.10	-7580
▁interact	-7581
▁partions	-7582
ango	-7583
▁3.6	-7584
trash	-7585
encies	-7586
▁subtit	-7587
▁flashes	-7588
▁softwares	-7589
38	-7590
grep	-7591
enced	-7592
iring	-7593
▁carry	-7594
▁erusul	-7595
▁dropbox	-7596
▁freaking	-7597
▁unchecked	-7598
▁wc	-7599
▁sab	-7600
▁death	-7601
▁lying	-7602
▁apolog	-7603
▁dumped	-7604
▁swed	-7605
▁sticky	-7606
▁preserve	-7607
zone	-7608
▁drwx	-7609
▁weak	-7610
▁unrecogn	-7611
▁gma	-7612
isofs	-7613
▁afford	-7614
▁refering	-7615
▁investigate	-7616
965	-7617
▁phr	-7618
▁alongside	-7619
▁autocomplete	-7620
ws	-7621
▁29	-7622
sense	-7623
▁diss	-7624
▁regex	-7625
▁blur	-7626
▁kern	-7627
▁xdmcp	-7628
▁libglib	-7629
▁opendns	-7630
▁implemented	-7631
▁recommendations	-7632
ctrl	-7633
vfat	-7634
▁afk	-7635
▁vul	-7636
▁seek	-7637
button	-7638
your	-7639
▁077	-7640
disks	-7641
gling	-7642
ements	-7643
▁bitchx	-7644
▁lap	-7645
▁nod	-7646
▁slugg	-7647
▁vmlin	-7648
▁living	-7649
▁transfers	-7650
36	-7651
lt	-7652
▁land	-7653
▁girlf	-7654
▁unnecessary	-7655
▁implementation	-7656
ahah	-7657
▁audi	-7658
▁flac	-7659
▁dummy	-7660
▁irrele	-7661
▁simultane	-7662
mem	-7663
mont	-7664
▁192	-7665
istic	-7666
▁templ	-7667
▁jordan	-7668
▁confuse	-7669
▁sluggish	-7670
blows	-7671
asound	-7672
▁dlink	-7673
▁produces	-7674
▁unofficial	-7675
ldr	-7676
▁kids	-7677
▁assig	-7678
▁aptoncd	-7679
▁disagree	-7680
▁runlevels	-7681
hide	-7682
perl	-7683
▁coff	-7684
▁mice	-7685
▁measure	-7686
▁ntpdate	-7687
▁hardrive	-7688
▁dependent	-7689
111	-7690
ssss	-7691
▁misread	-7692
asp	-7693
ste	-7694
▁2.7	-7695
▁inks	-7696
▁setuid	-7697
▁gs	-7698
bars	-7699
▁cup	-7700
atory	-7701
▁john	-7702
▁numer	-7703
▁persists	-7704
▁autoclean	-7705
▁continues	-7706
▁reccomend	-7707
▁anj	-7708
elled	-7709
▁puzz	-7710
▁guarantee	-7711
0.8-	-7712
▁7.1	-7713
▁badger	-7714
▁deprec	-7715
tw	-7716
▁apm	-7717
▁gcon	-7718
▁koala	-7719
▁proberly	-7720
▁mr	-7721
▁fish	-7722
▁cleared	-7723
▁simplest	-7724
▁yw	-7725
mare	-7726
▁eft	-7727
▁macos	-7728
▁mapped	-7729
▁rfkill	-7730
▁vmlinuz	-7731
▁developed	-7732
allow	-7733
▁heads	-7734
eine	-7735
▁unlike	-7736
▁japanese	-7737
▁girlfriend	-7738
isc	-7739
serv	-7740
▁gdb	-7741
▁joined	-7742
▁responses	-7743
▁recovering	-7744
tgz	-7745
url	-7746
vfs	-7747
star	-7748
▁jail	-7749
drivers	-7750
▁dialogue	-7751
▁reproduce	-7752
ene	-7753
uta	-7754
▁vp	-7755
▁wd	-7756
▁nvu	-7757
▁thn	-7758
▁accel	-7759
▁workin	-7760
▁subdirectories	-7761
▁cul	-7762
atures	-7763
▁timer	-7764
▁affects	-7765
▁pastbin	-7766
flashplugin	-7767
▁nodev	-7768
▁nowad	-7769
▁quits	-7770
▁forgive	-7771
mt	-7772
mess	-7773
▁age	-7774
▁ttf	-7775
class	-7776
▁automate	-7777
▁controllers	-7778
ina	-7779
▁44	-7780
ella	-7781
▁zoom	-7782
▁nohup	-7783
▁remeber	-7784
▁generates	-7785
▁ose	-7786
itional	-7787
▁exclus	-7788
▁unrelated	-7789
ja	-7790
801	-7791
▁05	-7792
face	-7793
▁din	-7794
▁usa	-7795
▁heat	-7796
▁jpeg	-7797
▁howdy	-7798
▁former	-7799
▁closest	-7800
fail	-7801
step	-7802
▁nowadays	-7803
swap	-7804
depth	-7805
▁memb	-7806
▁devel	-7807
▁naming	-7808
▁symbols	-7809
sta	-7810
▁ce	-7811
weak	-7812
▁row	-7813
80211	-7814
abyte	-7815
▁exits	-7816
▁extent	-7817
▁caching	-7818
▁obsolete	-7819
▁databases	-7820
met	-7821
▁nd	-7822
abber	-7823
▁sais	-7824
▁tftp	-7825
▁aspect	-7826
▁beautif	-7827
▁purging	-7828
▁involves	-7829
▁thousands	-7830
installation	-7831
▁bi	-7832
▁dod	-7833
▁hpl	-7834
▁gvim	-7835
▁doens	-7836
▁tmpfs	-7837
▁preventing	-7838
▁communicate	-7839
tt	-7840
▁inch	-7841
▁responds	-7842
-11	-7843
▁cn	-7844
▁dmz	-7845
▁law	-7846
▁fakeraid	-7847
▁appearing	-7848
gry	-7849
▁gibb	-7850
▁woud	-7851
▁compiles	-7852
acc	-7853
icer	-7854
ftool	-7855
▁tele	-7856
▁chall	-7857
▁shame	-7858
▁realise	-7859
▁alternatively	-7860
arr	-7861
uch	-7862
▁exaile	-7863
▁merely	-7864
▁inkscape	-7865
▁somethign	-7866
▁tunneling	-7867
▁insane	-7868
istration	-7869
4'	-7870
▁flv	-7871
▁six	-7872
onkey	-7873
▁semi	-7874
▁whil	-7875
▁leads	-7876
options	-7877
▁prevents	-7878
▁accepting	-7879
▁cyc	-7880
▁lie	-7881
cient	-7882
▁howtos	-7883
▁aliases	-7884
▁overall	-7885
▁graphically	-7886
ati	-7887
bre	-7888
oco	-7889
utf	-7890
aint	-7891
from	-7892
▁dvb	-7893
▁flight	-7894
▁defects	-7895
▁capacity	-7896
▁flickering	-7897
make	-7898
▁headache	-7899
86.	-7900
▁ard	-7901
▁cna	-7902
▁tro	-7903
▁prox	-7904
upgrad	-7905
unction	-7906
▁gconftool	-7907
▁substitute	-7908
ea	-7909
250	-7910
wav	-7911
▁calcul	-7912
▁normaly	-7913
▁menuconfig	-7914
bee	-7915
etc	-7916
land	-7917
▁whose	-7918
▁mythbuntu	-7919
▁recompiling	-7920
.1.	-7921
max	-7922
▁34	-7923
▁eps	-7924
anges	-7925
▁peer	-7926
domain	-7927
▁probly	-7928
▁updater	-7929
▁syslinux	-7930
▁subfolders	-7931
▁xscreensaver	-7932
jack	-7933
▁gvfs	-7934
▁solves	-7935
▁networked	-7936
▁protocols	-7937
▁unplugging	-7938
▁ehci	-7939
ontrol	-7940
▁awful	-7941
▁synergy	-7942
▁quicktime	-7943
lph	-7944
oser	-7945
▁alc	-7946
▁pixel	-7947
▁anjuta	-7948
▁health	-7949
▁pieces	-7950
▁somone	-7951
▁strength	-7952
▁deprecated	-7953
▁irrelevant	-7954
airs	-7955
prefix	-7956
▁wirless	-7957
assistant	-7958
▁synchron	-7959
lame	-7960
▁isa	-7961
▁gnom	-7962
▁progs	-7963
▁noacpi	-7964
▁yellow	-7965
eman	-7966
▁soem	-7967
▁heart	-7968
▁extreme	-7969
▁decorator	-7970
▁environments	-7971
▁ner	-7972
▁wer	-7973
▁bzip	-7974
▁privs	-7975
▁cupsys	-7976
▁cutting	-7977
▁reached	-7978
▁attitude	-7979
▁negative	-7980
▁keyboards	-7981
▁enterprise	-7982
▁unresponsive	-7983
2.4	-7984
iton	-7985
▁wol	-7986
▁redund	-7987
▁comprom	-7988
▁experts	-7989
▁fallback	-7990
pub	-7991
xml	-7992
▁1.7	-7993
▁9800	-7994
▁thor	-7995
▁decre	-7996
▁frees	-7997
▁manger	-7998
▁kaffeine	-7999
▁ordinary	-8000
▁8139	-8001
▁bluefish	-8002
hs	-8003
▁177	-8004
▁sal	-8005
▁yor	-8006
▁fits	-8007
ribute	-8008
▁outlook	-8009
▁professional	-8010
bc	-8011
▁ly	-8012
▁oc	-8013
▁hds	-8014
▁ltsp	-8015
▁recre	-8016
▁suite	-8017
▁contained	-8018
▁nightmare	-8019
▁2'	-8020
▁buff	-8021
output	-8022
▁recieve	-8023
zzy	-8024
effect	-8025
switch	-8026
▁gxine	-8027
▁allocated	-8028
▁thumbdrive	-8029
ula	-8030
xinit	-8031
▁10.0	-8032
▁parti	-8033
▁stating	-8034
lar	-8035
▁vfs	-8036
codec	-8037
▁3945	-8038
weaver	-8039
▁becouse	-8040
▁anonymous	-8041
▁companies	-8042
emy	-8043
▁boss	-8044
▁forb	-8045
▁swift	-8046
▁bashrc	-8047
▁demand	-8048
▁shells	-8049
▁directed	-8050
▁scenario	-8051
▁subsystem	-8052
91	-8053
▁alb	-8054
▁2011	-8055
▁geek	-8056
▁whoami	-8057
▁bazhang	-8058
▁returning	-8059
▁pv	-8060
▁tweaks	-8061
▁unders	-8062
▁translation	-8063
cot	-8064
wrt	-8065
▁mtu	-8066
▁differnt	-8067
armor	-8068
▁recie	-8069
▁enables	-8070
▁follows	-8071
▁wasting	-8072
▁sleeping	-8073
74	-8074
lp	-8075
enet	-8076
▁educ	-8077
▁trad	-8078
▁insecure	-8079
▁associate	-8080
▁significant	-8081
▁na	-8082
▁smbd	-8083
▁mainten	-8084
▁incompatible	-8085
fx	-8086
-12	-8087
▁jar	-8088
chain	-8089
blaster	-8090
▁market	-8091
kr	-8092
▁eve	-8093
▁skin	-8094
▁ubiqu	-8095
program	-8096
▁pir	-8097
after	-8098
▁airc	-8099
▁sake	-8100
▁threw	-8101
machine	-8102
▁wiping	-8103
▁ideally	-8104
▁archlinux	-8105
▁rightclick	-8106
smp	-8107
disc	-8108
atime	-8109
▁frank	-8110
▁overl	-8111
▁liking	-8112
▁desperate	-8113
82	-8114
guide	-8115
▁beer	-8116
▁ndisgtk	-8117
▁solving	-8118
jet	-8119
rep	-8120
oked	-8121
▁wma	-8122
color	-8123
▁reve	-8124
▁routes	-8125
▁painful	-8126
▁diagnost	-8127
dest	-8128
▁bee	-8129
▁doom	-8130
center	-8131
▁dozen	-8132
▁masquer	-8133
▁newbies	-8134
▁potential	-8135
▁wirelessly	-8136
bios	-8137
sums	-8138
ashfs	-8139
▁orin	-8140
▁incompl	-8141
elog	-8142
▁freq	-8143
▁hplip	-8144
▁sticking	-8145
ris	-8146
ding	-8147
noon	-8148
▁yer	-8149
▁spits	-8150
servers	-8151
▁central	-8152
sape	-8153
▁nok	-8154
exclude	-8155
▁whilst	-8156
▁linking	-8157
▁overkill	-8158
▁winblows	-8159
▁execution	-8160
▁developing	-8161
▁002	-8162
▁cleanly	-8163
▁effectively	-8164
ference	-8165
▁parano	-8166
▁occurred	-8167
▁difficulty	-8168
▁psy	-8169
share	-8170
▁utils	-8171
▁coffee	-8172
▁licens	-8173
▁latency	-8174
▁animation	-8175
rellm	-8176
▁filet	-8177
▁2.6.12	-8178
▁distort	-8179
▁serving	-8180
▁student	-8181
▁asterisk	-8182
oret	-8183
▁ken	-8184
▁liek	-8185
defined	-8186
▁domains	-8187
▁convenient	-8188
ilot	-8189
▁bal	-8190
▁invis	-8191
▁sysrq	-8192
▁netbooks	-8193
▁775	-8194
▁rtf	-8195
apers	-8196
▁arts	-8197
▁iced	-8198
▁beleive	-8199
▁greater	-8200
▁starters	-8201
5'	-8202
amon	-8203
▁sky	-8204
ecraft	-8205
▁mails	-8206
▁doable	-8207
▁dissape	-8208
iw	-8209
partitioned	-8210
▁bund	-8211
▁helper	-8212
▁triple	-8213
▁assumes	-8214
▁container	-8215
ushing	-8216
▁ubunt	-8217
▁builtin	-8218
▁whoever	-8219
▁constant	-8220
▁dictionary	-8221
▁mnt	-8222
▁3000	-8223
▁foot	-8224
▁ntldr	-8225
▁thumbn	-8226
▁abiword	-8227
▁customized	-8228
ey	-8229
sam	-8230
htool	-8231
▁pcie	-8232
▁enclo	-8233
▁hotmail	-8234
▁afternoon	-8235
▁specifics	-8236
▁writeable	-8237
▁deactivate	-8238
▁9200	-8239
ension	-8240
▁stere	-8241
▁urgent	-8242
mesa	-8243
▁ape	-8244
▁hrmm	-8245
▁yield	-8246
▁independent	-8247
see	-8248
orse	-8249
▁strug	-8250
▁casper	-8251
▁gibbon	-8252
▁stress	-8253
▁asoundconf	-8254
▁stret	-8255
▁eggdrop	-8256
▁infront	-8257
▁aircrack	-8258
▁somethin	-8259
▁unpacked	-8260
ald	-8261
▁1.	-8262
▁gah	-8263
▁ebox	-8264
▁ieee	-8265
▁prove	-8266
▁allways	-8267
.11	-8268
▁efi	-8269
▁mst	-8270
party	-8271
▁bitt	-8272
▁nokia	-8273
▁bloated	-8274
▁challen	-8275
▁ethtool	-8276
▁smartctl	-8277
▁screenlets	-8278
56	-8279
▁accepted	-8280
▁powernow	-8281
▁controlled	-8282
grp	-8283
sdl	-8284
▁jan	-8285
▁jer	-8286
▁gold	-8287
▁ring	-8288
▁slim	-8289
▁region	-8290
ias	-8291
▁pun	-8292
▁zombie	-8293
▁gkrellm	-8294
51	-8295
dat	-8296
▁kl	-8297
oint	-8298
▁vent	-8299
▁ancient	-8300
▁debconf	-8301
▁explore	-8302
▁uploading	-8303
▁incomplete	-8304
▁accordingly	-8305
2_	-8306
▁42	-8307
▁ion	-8308
▁obsc	-8309
every	-8310
▁assemb	-8311
▁everyth	-8312
▁improved	-8313
▁sensible	-8314
▁autologin	-8315
▁remembered	-8316
▁manufacturers	-8317
▁2.	-8318
▁xt	-8319
ober	-8320
sudo	-8321
exist	-8322
▁registry	-8323
▁dreamweaver	-8324
▁ts	-8325
agic	-8326
▁mes	-8327
ibber	-8328
▁probe	-8329
▁shore	-8330
▁spyware	-8331
▁misunderstand	-8332
lm	-8333
thr	-8334
▁advert	-8335
▁resolves	-8336
▁ridiculous	-8337
cmd	-8338
ipher	-8339
▁rewr	-8340
▁theoret	-8341
▁optional	-8342
01	-8343
3.	-8344
mir	-8345
logg	-8346
ract	-8347
▁dog	-8348
▁uns	-8349
▁pool	-8350
compat	-8351
▁keybind	-8352
▁bringing	-8353
▁webpages	-8354
▁ing	-8355
▁jpg	-8356
▁dove	-8357
▁meet	-8358
▁decision	-8359
▁pici	-8360
▁pics	-8361
▁caught	-8362
▁suffer	-8363
▁unmute	-8364
▁maintenance	-8365
▁022	-8366
▁butt	-8367
▁etch	-8368
▁rect	-8369
▁truly	-8370
xinitrc	-8371
▁secret	-8372
▁vulner	-8373
▁manages	-8374
▁horribly	-8375
▁ubuntustudio	-8376
asy	-8377
bas	-8378
▁https	-8379
▁yourusername	-8380
fir	-8381
▁mak	-8382
▁issuing	-8383
▁executes	-8384
▁ubiquity	-8385
2.6	-8386
ilder	-8387
tweak	-8388
▁iron	-8389
▁shortly	-8390
▁schedule	-8391
▁clu	-8392
▁msi	-8393
atever	-8394
keyring	-8395
▁reopen	-8396
▁inconsist	-8397
264	-8398
▁1080	-8399
▁wave	-8400
▁involve	-8401
▁lacking	-8402
▁centrino	-8403
▁wonderful	-8404
utella	-8405
▁cronjob	-8406
▁dynamically	-8407
uck	-8408
-3.0	-8409
▁yeap	-8410
roller	-8411
▁ordered	-8412
ogg	-8413
▁acqu	-8414
▁unit	-8415
▁nature	-8416
gstreamer	-8417
▁established	-8418
▁eb	-8419
ilion	-8420
▁directx	-8421
▁orinoco	-8422
▁allright	-8423
▁notifications	-8424
save	-8425
▁nopasswd	-8426
▁badblocks	-8427
fy	-8428
mouse	-8429
▁errr	-8430
▁luks	-8431
stairs	-8432
▁blink	-8433
▁thers	-8434
▁circum	-8435
▁fiddle	-8436
▁exclude	-8437
▁someting	-8438
▁xwindows	-8439
▁commenting	-8440
▁maintainer	-8441
ana	-8442
▁2-3	-8443
▁4.2	-8444
▁atom	-8445
▁deved	-8446
▁messes	-8447
▁deletes	-8448
▁existed	-8449
▁largest	-8450
▁partitons	-8451
▁capability	-8452
icode	-8453
illat	-8454
▁shud	-8455
▁renderer	-8456
▁unistall	-8457
818	-8458
rant	-8459
paste	-8460
▁5200	-8461
▁begins	-8462
▁silent	-8463
▁stereo	-8464
▁starter	-8465
▁cleaning	-8466
▁disables	-8467
▁fwcutter	-8468
▁xsession	-8469
cal	-8470
▁wx	-8471
mbps	-8472
▁pon	-8473
▁1400	-8474
▁xxxx	-8475
▁brief	-8476
▁culpr	-8477
▁promise	-8478
▁hundreds	-8479
▁wildcard	-8480
▁partially	-8481
▁straightforward	-8482
▁gz	-8483
abytes	-8484
▁devede	-8485
▁lexmark	-8486
▁ddrescue	-8487
alsa	-8488
▁redu	-8489
▁dolph	-8490
▁pavuc	-8491
▁hotkey	-8492
▁strings	-8493
▁intention	-8494
js	-8495
1.0	-8496
▁lj	-8497
▁ann	-8498
▁fant	-8499
▁scim	-8500
▁candy	-8501
▁relay	-8502
▁trave	-8503
▁dovecot	-8504
▁overhead	-8505
▁represent	-8506
▁timestamp	-8507
▁pavucontrol	-8508
bad	-8509
uld	-8510
▁km	-8511
kpkg	-8512
▁agent	-8513
▁sides	-8514
refresh	-8515
▁prepend	-8516
▁reloading	-8517
▁controlling	-8518
ened	-8519
hard	-8520
▁sip	-8521
thread	-8522
▁picks	-8523
▁theyre	-8524
▁unpacking	-8525
crypt	-8526
▁guis	-8527
▁youve	-8528
ulation	-8529
▁issued	-8530
▁struggling	-8531
wy	-8532
▁drup	-8533
▁nivid	-8534
▁clever	-8535
▁convin	-8536
▁touching	-8537
▁nol	-8538
▁reck	-8539
▁queue	-8540
enabled	-8541
▁insight	-8542
▁operate	-8543
▁everyday	-8544
▁isntalled	-8545
▁wordpress	-8546
env	-8547
icked	-8548
ingly	-8549
▁tring	-8550
▁exited	-8551
▁hostnames	-8552
▁acceptable	-8553
elo	-8554
ync	-8555
locate	-8556
▁trail	-8557
▁setups	-8558
▁newline	-8559
▁october	-8560
▁mentioning	-8561
▁unpartitioned	-8562
1_	-8563
je	-8564
▁ww	-8565
▁rss	-8566
▁replug	-8567
▁decoder	-8568
▁dolphin	-8569
oses	-8570
▁7.0	-8571
▁mang	-8572
▁voip	-8573
▁uncle	-8574
▁terminate	-8575
nce	-8576
2000	-8577
▁cab	-8578
▁dup	-8579
isation	-8580
▁2.6.24-1	-8581
▁supergrub	-8582
▁responsive	-8583
▁potentially	-8584
▁unrecognized	-8585
2.2	-8586
unt	-8587
▁66	-8588
▁sux	-8589
▁wen	-8590
▁bast	-8591
▁ital	-8592
wireless	-8593
▁filters	-8594
▁terribly	-8595
▁installers	-8596
han	-8597
jit	-8598
phan	-8599
▁sor	-8600
▁lags	-8601
▁stats	-8602
tpd	-8603
imit	-8604
▁82801	-8605
▁grand	-8606
▁impressed	-8607
▁interpret	-8608
▁territory	-8609
▁capt	-8610
▁bizar	-8611
▁drupal	-8612
▁wasted	-8613
▁clueless	-8614
▁shorewall	-8615
cn	-8616
aky	-8617
ussi	-8618
▁quer	-8619
▁shor	-8620
outing	-8621
▁creat	-8622
▁dosen	-8623
ificate	-8624
▁grayed	-8625
▁hosted	-8626
▁tricks	-8627
▁invisible	-8628
fps	-8629
▁jud	-8630
patch	-8631
▁muck	-8632
▁nuke	-8633
▁pkgs	-8634
▁rpms	-8635
initial	-8636
▁esound	-8637
▁changelog	-8638
▁minecraft	-8639
▁automounted	-8640
cf	-8641
.12	-8642
they	-8643
▁boun	-8644
▁porn	-8645
▁thou	-8646
▁whoa	-8647
▁sshing	-8648
▁waited	-8649
▁netinstall	-8650
▁configurable	-8651
rwxr	-8652
▁abs	-8653
▁devil	-8654
▁inode	-8655
▁nothin	-8656
corefonts	-8657
▁eliminate	-8658
▁magically	-8659
bert	-8660
edge	-8661
▁sty	-8662
▁qual	-8663
minimal	-8664
packages	-8665
▁reformatted	-8666
jj	-8667
wi	-8668
api	-8669
▁ey	-8670
▁lg	-8671
▁dom	-8672
▁dpi	-8673
▁egrep	-8674
▁enemy	-8675
▁rails	-8676
through	-8677
▁encode	-8678
▁blackbox	-8679
▁simultaneously	-8680
▁wy	-8681
▁wha	-8682
icating	-8683
▁basicly	-8684
▁precompiled	-8685
▁requirement	-8686
▁individually	-8687
label	-8688
▁knwo	-8689
▁thre	-8690
▁subprocess	-8691
▁bg	-8692
▁dow	-8693
▁flip	-8694
▁edits	-8695
▁bummer	-8696
▁consum	-8697
▁loosing	-8698
▁dependancy	-8699
▁incredibly	-8700
▁58	-8701
▁king	-8702
▁mstt	-8703
▁lacks	-8704
▁laser	-8705
▁xkill	-8706
▁talked	-8707
▁culprit	-8708
▁fucking	-8709
▁nonsense	-8710
oxy	-8711
obar	-8712
▁ships	-8713
▁lookin	-8714
▁meantime	-8715
▁comparing	-8716
▁06	-8717
effects	-8718
synaptic	-8719
▁timezone	-8720
▁ntfsprogs	-8721
▁shop	-8722
prober	-8723
▁ditch	-8724
▁imply	-8725
▁xinetd	-8726
▁cpan	-8727
▁concl	-8728
ntfs	-8729
▁tat	-8730
status	-8731
▁inher	-8732
▁models	-8733
▁phones	-8734
▁sqlite	-8735
▁libdvdread	-8736
mao	-8737
▁road	-8738
▁comparison	-8739
▁servername	-8740
▁experiences	-8741
▁08	-8742
▁31	-8743
▁zy	-8744
quest	-8745
▁euro	-8746
▁xset	-8747
themes	-8748
▁bizarre	-8749
▁guessed	-8750
▁apologize	-8751
▁corrected	-8752
▁overclock	-8753
▁conversion	-8754
etype	-8755
▁heavi	-8756
storage	-8757
encrypted	-8758
▁fiddling	-8759
▁downgrading	-8760
▁pb	-8761
▁3.3	-8762
▁pod	-8763
▁treat	-8764
▁ba	-8765
radar	-8766
romedia	-8767
▁ldconfig	-8768
▁products	-8769
▁copyright	-8770
▁underscore	-8771
▁0.8	-8772
▁rap	-8773
rwxrwxrwx	-8774
▁becoming	-8775
▁autor	-8776
▁flopp	-8777
disable	-8778
▁infact	-8779
rud	-8780
web	-8781
▁631	-8782
▁ack	-8783
▁joking	-8784
▁repost	-8785
▁ignores	-8786
▁unmuted	-8787
fc	-8788
dma	-8789
▁443	-8790
savers	-8791
▁xsane	-8792
▁libsdl	-8793
▁uploaded	-8794
▁lowercase	-8795
ila	-8796
hack	-8797
▁ppas	-8798
▁rofl	-8799
sources	-8800
▁ticked	-8801
▁factory	-8802
▁surprising	-8803
▁7600	-8804
▁edid	-8805
▁sould	-8806
▁replaces	-8807
▁flashdrive	-8808
▁maintained	-8809
▁konversation	-8810
▁123	-8811
igned	-8812
rored	-8813
▁bump	-8814
▁doll	-8815
▁manpages	-8816
gor	-8817
hare	-8818
▁pgp	-8819
mirror	-8820
▁shure	-8821
section	-8822
▁lowest	-8823
▁pavilion	-8824
dem	-8825
▁ol	-8826
▁dut	-8827
puter	-8828
▁stil	-8829
▁cares	-8830
▁gwibber	-8831
▁skipping	-8832
▁standards	-8833
▁soundblaster	-8834
'-	-8835
reh	-8836
▁boo	-8837
▁spo	-8838
gines	-8839
▁mime	-8840
▁gover	-8841
▁bloody	-8842
▁kr	-8843
ugly	-8844
▁hair	-8845
▁intu	-8846
▁compli	-8847
▁transferring	-8848
tea	-8849
▁rs	-8850
▁palm	-8851
▁sand	-8852
▁commit	-8853
▁swedish	-8854
▁prepared	-8855
▁trackpad	-8856
▁libreoffice	-8857
bro	-8858
▁65	-8859
lying	-8860
▁crtl	-8861
▁warn	-8862
readable	-8863
▁grabbing	-8864
▁framework	-8865
▁corp	-8866
▁sans	-8867
▁whoops	-8868
▁underne	-8869
▁userspace	-8870
cpp	-8871
▁lif	-8872
▁6200	-8873
▁seed	-8874
▁ignorance	-8875
-30	-8876
▁001	-8877
▁emp	-8878
▁mill	-8879
▁forces	-8880
▁marillat	-8881
oto	-8882
▁wth	-8883
▁bluez	-8884
▁laugh	-8885
▁dosbox	-8886
▁pannel	-8887
▁pixels	-8888
▁relating	-8889
▁condition	-8890
req	-8891
▁hu	-8892
▁xlib	-8893
▁orient	-8894
▁privil	-8895
▁stuffs	-8896
▁exiting	-8897
completion	-8898
▁destroyed	-8899
▁limitation	-8900
edy	-8901
▁xe	-8902
enter	-8903
▁rtfm	-8904
▁jabber	-8905
▁freshly	-8906
▁macromedia	-8907
▁37	-8908
custom	-8909
▁combine	-8910
▁warrant	-8911
▁reformatting	-8912
▁msttcorefonts	-8913
▁loggin	-8914
bootable	-8915
▁drawing	-8916
▁introdu	-8917
▁effective	-8918
▁horizsync	-8919
▁09	-8920
▁59	-8921
▁tp	-8922
▁360	-8923
▁ldd	-8924
▁quir	-8925
▁sett	-8926
ashion	-8927
▁keystro	-8928
▁chainload	-8929
▁concerning	-8930
mat	-8931
too	-8932
▁tz	-8933
▁wob	-8934
launch	-8935
▁docky	-8936
▁2.6.15-2	-8937
▁latitude	-8938
▁revision	-8939
orld	-8940
▁fac	-8941
▁ness	-8942
▁irrit	-8943
▁maker	-8944
▁sniff	-8945
▁doenst	-8946
▁adaptor	-8947
▁dislike	-8948
▁strictly	-8949
pd	-8950
len	-8951
▁mods	-8952
▁decomp	-8953
▁reckon	-8954
▁computing	-8955
oe	-8956
▁sdk	-8957
▁congr	-8958
▁slows	-8959
▁apparmor	-8960
▁intellig	-8961
65	-8962
orb	-8963
mble	-8964
▁9.0	-8965
ittab	-8966
▁xconfig	-8967
▁overwrote	-8968
▁nag	-8969
▁oke	-8970
agate	-8971
▁offs	-8972
▁rich	-8973
▁study	-8974
▁buffers	-8975
▁collect	-8976
▁benefits	-8977
▁directive	-8978
▁modifications	-8979
seb	-8980
▁cow	-8981
▁ics	-8982
brake	-8983
looks	-8984
▁msgs	-8985
▁pray	-8986
▁shrug	-8987
▁fields	-8988
▁bugzilla	-8989
▁fighting	-8990
▁formating	-8991
vin	-8992
▁approx	-8993
▁hearing	-8994
▁contacts	-8995
▁majority	-8996
▁recommends	-8997
▁underneath	-8998
ived	-8999
laod	-9000
ping	-9001
thats	-9002
-2.6.3	-9003
▁squashfs	-9004
▁generating	-9005
guy	-9006
▁fax	-9007
▁vms	-9008
debug	-9009
▁screws	-9010
▁inittab	-9011
▁symptoms	-9012
▁ds	-9013
▁vg	-9014
stray	-9015
▁react	-9016
library	-9017
▁skills	-9018
▁lagging	-9019
posed	-9020
▁tied	-9021
▁ubutnu	-9022
▁roughly	-9023
▁realised	-9024
▁launchers	-9025
▁authenticated	-9026
▁icq	-9027
iders	-9028
▁addy	-9029
▁rite	-9030
▁wars	-9031
▁frankly	-9032
▁offhand	-9033
▁weekend	-9034
▁assumption	-9035
▁correction	-9036
59	-9037
11-	-9038
nes	-9039
ikes	-9040
▁750	-9041
▁oki	-9042
create	-9043
depends	-9044
▁bugger	-9045
▁matlab	-9046
yt	-9047
oof	-9048
▁lc	-9049
▁ljl	-9050
▁ngin	-9051
▁costs	-9052
▁phrase	-9053
▁webcams	-9054
▁paranoid	-9055
fic	-9056
vir	-9057
▁poll	-9058
▁shred	-9059
▁subdir	-9060
▁accepts	-9061
▁hfsplus	-9062
▁icedtea	-9063
▁succesfully	-9064
bg	-9065
abg	-9066
▁ethx	-9067
▁smth	-9068
▁ultra	-9069
▁foobar	-9070
whatever	-9071
▁192.168.	-9072
▁suspicious	-9073
▁certificate	-9074
▁2048	-9075
▁hows	-9076
▁lmao	-9077
▁vary	-9078
▁natur	-9079
eeeeeeee	-9080
▁layouts	-9081
▁mechanism	-9082
▁regenerate	-9083
81	-9084
please	-9085
▁nginx	-9086
▁suffice	-9087
▁offending	-9088
▁journaling	-9089
-1.0	-9090
iant	-9091
▁humm	-9092
achine	-9093
▁xpress	-9094
▁freedom	-9095
▁supplied	-9096
▁vertrefresh	-9097
▁reconfigured	-9098
mbit	-9099
untu	-9100
▁album	-9101
▁appdb	-9102
▁sence	-9103
▁netcat	-9104
pms	-9105
▁og	-9106
▁yuo	-9107
▁covered	-9108
▁1200	-9109
nothing	-9110
▁passes	-9111
▁obscure	-9112
▁trolling	-9113
▁confident	-9114
▁performed	-9115
-1_	-9116
▁ga	-9117
alia	-9118
orak	-9119
▁imm	-9120
rences	-9121
▁packs	-9122
▁hiding	-9123
▁libxine	-9124
▁popping	-9125
▁gmplayer	-9126
don	-9127
▁wg	-9128
▁cgi	-9129
▁fri	-9130
could	-9131
▁seah	-9132
arching	-9133
problem	-9134
▁sister	-9135
▁trusted	-9136
▁handbrake	-9137
▁bootsplash	-9138
▁statically	-9139
hhh	-9140
▁psp	-9141
imate	-9142
touch	-9143
▁leak	-9144
▁okie	-9145
number	-9146
▁alarm	-9147
▁curve	-9148
▁malware	-9149
▁ramdisk	-9150
▁offering	-9151
▁seahorse	-9152
▁practical	-9153
64.	-9154
▁gcj	-9155
▁pred	-9156
▁upto	-9157
▁bored	-9158
▁------	-9159
▁acrobat	-9160
▁ipaddress	-9161
▁integration	-9162
llo	-9163
▁myst	-9164
▁pita	-9165
▁stab	-9166
▁suid	-9167
▁dosnt	-9168
▁manner	-9169
▁requiring	-9170
▁signature	-9171
▁strangely	-9172
dll	-9173
▁110	-9174
▁width	-9175
▁8.04.1	-9176
▁chrooting	-9177
rk	-9178
rsa	-9179
▁52	-9180
gard	-9181
snes	-9182
unix	-9183
▁dur	-9184
▁eol	-9185
▁org	-9186
2-14-	-9187
errors	-9188
▁ripping	-9189
▁rolling	-9190
▁segfaults	-9191
▁nex	-9192
▁gree	-9193
▁ubunutu	-9194
▁category	-9195
▁optimized	-9196
____	-9197
▁maby	-9198
▁rage	-9199
▁chgrp	-9200
mydesktop	-9201
▁gem	-9202
▁joe	-9203
▁deeper	-9204
4.	-9205
▁pg	-9206
▁tt	-9207
anet	-9208
▁ircd	-9209
▁emerg	-9210
▁rmdir	-9211
▁consistent	-9212
▁underlying	-9213
ruc	-9214
utz	-9215
▁rhel	-9216
▁yess	-9217
▁smile	-9218
▁conect	-9219
▁storing	-9220
▁subtitles	-9221
▁fileserver	-9222
-16	-9223
▁sav	-9224
▁sooo	-9225
asters	-9226
▁beeps	-9227
▁crunch	-9228
▁stalls	-9229
▁presented	-9230
▁tild	-9231
▁prive	-9232
▁russi	-9233
▁factor	-9234
▁kdevelop	-9235
▁consuming	-9236
▁interpreter	-9237
▁bul	-9238
iated	-9239
▁hates	-9240
▁leases	-9241
▁cheaper	-9242
▁realtime	-9243
▁spending	-9244
▁internally	-9245
diff	-9246
ours	-9247
▁aaa	-9248
▁sou	-9249
▁xps	-9250
▁todo	-9251
▁zlib	-9252
▁pulls	-9253
▁swfdec	-9254
▁cleaned	-9255
▁expects	-9256
▁begining	-9257
▁mistakes	-9258
▁similiar	-9259
▁throught	-9260
▁recovered	-9261
amb	-9262
▁255	-9263
enmod	-9264
▁0777	-9265
▁wiht	-9266
▁members	-9267
▁nickrud	-9268
▁students	-9269
▁bothering	-9270
▁ubuntuguide	-9271
eps	-9272
ibs	-9273
▁-0	-9274
▁tc	-9275
▁adn	-9276
▁apper	-9277
▁cleaner	-9278
▁halfway	-9279
▁swapped	-9280
▁numerous	-9281
eng	-9282
▁prem	-9283
▁therm	-9284
▁libssl	-9285
▁serves	-9286
▁sucess	-9287
▁situations	-9288
▁disconnects	-9289
▁hid	-9290
▁defe	-9291
▁mike	-9292
▁brute	-9293
▁minus	-9294
▁stdin	-9295
▁screensavers	-9296
mk	-9297
icity	-9298
▁unicode	-9299
▁gdmsetup	-9300
▁superior	-9301
▁addressing	-9302
▁chainloader	-9303
41	-9304
8-	-9305
▁sf	-9306
▁kit	-9307
▁wal	-9308
▁grrr	-9309
▁refusing	-9310
▁winmodem	-9311
ji	-9312
xf	-9313
▁lv	-9314
▁ny	-9315
▁wq	-9316
▁480	-9317
▁prese	-9318
▁scope	-9319
▁train	-9320
▁parents	-9321
▁indication	-9322
▁confirmation	-9323
89	-9324
▁gy	-9325
▁5.2	-9326
▁2.6.27	-9327
▁deploy	-9328
▁tomboy	-9329
▁autorun	-9330
▁checkout	-9331
▁clearing	-9332
▁decorations	-9333
06	-9334
modes	-9335
notify	-9336
▁retain	-9337
▁synapt	-9338
▁courier	-9339
▁nolapic	-9340
▁proccess	-9341
▁recorded	-9342
ien	-9343
▁51	-9344
▁wut	-9345
anged	-9346
overy	-9347
style	-9348
unity	-9349
▁maps	-9350
appear	-9351
▁epson	-9352
▁nvida	-9353
▁zsnes	-9354
▁autoconf	-9355
▁teamviewer	-9356
▁terminated	-9357
-3.5	-9358
▁aps	-9359
▁byte	-9360
▁upnp	-9361
▁geany	-9362
▁widgets	-9363
bish	-9364
▁alex	-9365
▁aoss	-9366
▁door	-9367
▁oddly	-9368
▁cluster	-9369
▁clutter	-9370
▁powerbook	-9371
▁83	-9372
aled	-9373
▁abt	-9374
▁jes	-9375
▁ubn	-9376
▁warned	-9377
▁leading	-9378
▁forbidden	-9379
▁powernowd	-9380
▁succeeded	-9381
▁ay	-9382
ancy	-9383
derr	-9384
▁yoru	-9385
▁pleas	-9386
cmdline	-9387
▁comman	-9388
▁altered	-9389
▁someplace	-9390
asm	-9391
▁4.3	-9392
▁abit	-9393
▁undefined	-9394
angle	-9395
▁doin	-9396
▁gues	-9397
▁1.0.2	-9398
▁dumps	-9399
▁slots	-9400
▁detach	-9401
▁encour	-9402
▁persistant	-9403
uable	-9404
▁counts	-9405
▁keymap	-9406
▁labels	-9407
▁fashion	-9408
▁2.6.28-1	-9409
▁integrate	-9410
▁manipulate	-9411
rid	-9412
▁403	-9413
▁fox	-9414
ole	-9415
▁emu	-9416
▁duel	-9417
python	-9418
ration	-9419
▁sytem	-9420
▁deamon	-9421
▁backlight	-9422
▁reinstallation	-9423
▁vu	-9424
▁begg	-9425
▁legit	-9426
▁fetchmail	-9427
ldap	-9428
llll	-9429
▁9.1	-9430
lient	-9431
▁kdel	-9432
▁semic	-9433
▁smoot	-9434
▁flicker	-9435
▁articles	-9436
▁modification	-9437
▁possibilities	-9438
mult	-9439
▁vcd	-9440
▁dosn	-9441
▁ftpd	-9442
▁winet	-9443
▁xhost	-9444
▁russian	-9445
▁adjusting	-9446
▁describing	-9447
kk	-9448
chrome	-9449
▁fmask	-9450
▁pissed	-9451
▁winrar	-9452
izations	-9453
▁apparent	-9454
▁spamming	-9455
bi	-9456
oko	-9457
akes	-9458
guard	-9459
▁netw	-9460
▁stan	-9461
▁fight	-9462
▁safest	-9463
▁nonfree	-9464
▁increasing	-9465
▁pts	-9466
▁bloat	-9467
▁dmask	-9468
▁dhcpoff	-9469
▁animations	-9470
▁decompress	-9471
asa	-9472
▁47	-9473
▁grr	-9474
iliar	-9475
▁bomb	-9476
▁camp	-9477
▁dpms	-9478
▁ware	-9479
iently	-9480
▁arbit	-9481
▁dident	-9482
▁stderr	-9483
▁sugest	-9484
▁seagate	-9485
hc	-9486
hal	-9487
▁xy	-9488
atest	-9489
earth	-9490
▁goin	-9491
▁ground	-9492
dog	-9493
▁dll	-9494
▁trem	-9495
▁habit	-9496
▁reall	-9497
▁admins	-9498
▁cycles	-9499
function	-9500
▁digging	-9501
▁failures	-9502
▁forgetting	-9503
▁rebuilding	-9504
▁somethings	-9505
46	-9506
bian	-9507
▁blab	-9508
▁pppd	-9509
▁deriv	-9510
▁fubar	-9511
▁noobs	-9512
▁airport	-9513
▁staying	-9514
▁wallpapers	-9515
1.4	-9516
▁hwo	-9517
▁sac	-9518
▁sdd	-9519
query	-9520
▁1500	-9521
▁unreal	-9522
▁publish	-9523
▁67	-9524
▁unc	-9525
-2.6.24	-9526
▁flavor	-9527
▁lastest	-9528
bd	-9529
1.1	-9530
icom	-9531
▁gall	-9532
▁gufw	-9533
ometry	-9534
working	-9535
▁arrows	-9536
▁presario	-9537
▁repeatedly	-9538
▁disconnecting	-9539
306	-9540
pix	-9541
▁169	-9542
▁dek	-9543
▁rez	-9544
▁sas	-9545
▁zsh	-9546
ented	-9547
still	-9548
▁disapp	-9549
▁consult	-9550
▁decrease	-9551
▁sysadmin	-9552
▁describes	-9553
jpeg	-9554
▁bmp	-9555
filter	-9556
▁advis	-9557
▁lived	-9558
▁scans	-9559
▁xming	-9560
▁ardour	-9561
▁novice	-9562
▁pushed	-9563
▁stoped	-9564
▁regress	-9565
▁convince	-9566
▁improvement	-9567
arp	-9568
tag	-9569
▁abc	-9570
▁netow	-9571
▁noted	-9572
▁columns	-9573
▁affecting	-9574
▁assigning	-9575
▁libasound	-9576
▁theoretically	-9577
ecko	-9578
▁gst	-9579
▁trim	-9580
▁uhmm	-9581
mented	-9582
▁knock	-9583
▁refit	-9584
▁panics	-9585
▁inactive	-9586
▁priviled	-9587
▁fingerprint	-9588
was	-9589
▁39	-9590
orec	-9591
▁ash	-9592
▁lad	-9593
▁hald	-9594
▁vpnc	-9595
▁govern	-9596
▁pushing	-9597
▁determined	-9598
ato	-9599
vvv	-9600
▁oy	-9601
▁ari	-9602
▁pane	-9603
▁poss	-9604
▁beats	-9605
▁posix	-9606
▁soundcards	-9607
▁blacklisting	-9608
rn	-9609
64-	-9610
ots	-9611
life	-9612
▁0.6	-9613
▁htp	-9614
▁woo	-9615
▁proof	-9616
▁defual	-9617
▁resets	-9618
▁wether	-9619
▁jumping	-9620
▁activating	-9621
▁jon	-9622
▁mkv	-9623
jitsu	-9624
▁shed	-9625
▁taste	-9626
▁exceed	-9627
▁hotkeys	-9628
▁thingie	-9629
▁downlaod	-9630
▁gigabyte	-9631
▁transcode	-9632
oen	-9633
pcm	-9634
▁999	-9635
▁dif	-9636
etected	-9637
private	-9638
▁fortun	-9639
proposed	-9640
▁compreh	-9641
▁hc	-9642
udes	-9643
▁ont	-9644
▁girl	-9645
▁areas	-9646
▁hybrid	-9647
▁signed	-9648
▁colours	-9649
▁dialout	-9650
▁regards	-9651
▁scanned	-9652
▁systray	-9653
mot	-9654
ants	-9655
flags	-9656
▁dust	-9657
ulated	-9658
▁applying	-9659
▁joystick	-9660
▁commander	-9661
▁emergency	-9662
▁displayconfig	-9663
ifty	-9664
lang	-9665
▁calm	-9666
▁grip	-9667
▁occup	-9668
▁interm	-9669
▁completes	-9670
▁smartmont	-9671
▁unencrypted	-9672
▁misconfigured	-9673
▁bac	-9674
▁hdx	-9675
▁fund	-9676
▁manu	-9677
▁lunch	-9678
▁construct	-9679
ral	-9680
son	-9681
▁63	-9682
▁sle	-9683
eline	-9684
▁nort	-9685
▁renew	-9686
▁libxml	-9687
▁params	-9688
▁comcast	-9689
▁skipped	-9690
▁smplayer	-9691
▁fantastic	-9692
▁touchscreen	-9693
recv	-9694
▁185	-9695
▁wnat	-9696
ncurses	-9697
▁2.6.15	-9698
▁hacker	-9699
▁jumper	-9700
▁8.0	-9701
▁moz	-9702
vable	-9703
alling	-9704
keygen	-9705
▁fujitsu	-9706
synaptics	-9707
she	-9708
wiki	-9709
▁007	-9710
▁nis	-9711
▁kdes	-9712
▁slart	-9713
▁hamach	-9714
▁privoxy	-9715
▁hardcore	-9716
▁signatures	-9717
▁unbootable	-9718
▁communication	-9719
▁57	-9720
▁rv	-9721
▁aes	-9722
▁hamm	-9723
▁youd	-9724
▁replied	-9725
▁bindings	-9726
37	-9727
_.	-9728
cu	-9729
real	-9730
ecode	-9731
▁fuzzy	-9732
▁poorly	-9733
▁reinst	-9734
▁hamachi	-9735
▁surfing	-9736
▁automake	-9737
▁favourite	-9738
▁importantly	-9739
mar	-9740
addr	-9741
▁asap	-9742
▁hogging	-9743
▁pinning	-9744
▁satisfied	-9745
▁presentation	-9746
-6-	-9747
abe	-9748
▁4.4	-9749
▁mta	-9750
▁wond	-9751
▁algor	-9752
▁suited	-9753
▁behaves	-9754
▁template	-9755
▁startupmanager	-9756
iing	-9757
▁lis	-9758
▁ted	-9759
▁cylinder	-9760
▁conection	-9761
▁windowsxp	-9762
▁iii	-9763
thumb	-9764
▁craw	-9765
▁1.0.1	-9766
▁hahah	-9767
▁misty	-9768
▁water	-9769
▁covers	-9770
▁getdeb	-9771
▁firstly	-9772
▁convinced	-9773
▁prompting	-9774
▁virtually	-9775
▁beforehand	-9776
▁limitations	-9777
▁combinations	-9778
▁smartmontools	-9779
▁mt	-9780
hehe	-9781
ilar	-9782
▁6.0	-9783
▁goof	-9784
▁ranges	-9785
▁binding	-9786
▁kdelibs	-9787
▁numlock	-9788
▁resides	-9789
▁flooding	-9790
oy	-9791
rike	-9792
▁dwl	-9793
▁ned	-9794
▁sin	-9795
magic	-9796
▁felt	-9797
▁safety	-9798
▁speech	-9799
▁wheres	-9800
▁aborted	-9801
▁beautiful	-9802
▁distribute	-9803
jf	-9804
good	-9805
shop	-9806
▁pdfs	-9807
▁comming	-9808
▁sidebar	-9809
▁swapoff	-9810
▁workarounds	-9811
wmv	-9812
▁pros	-9813
▁spar	-9814
▁genius	-9815
▁italian	-9816
rox	-9817
kbps	-9818
▁111	-9819
▁lfs	-9820
formed	-9821
▁argue	-9822
▁llutz	-9823
84	-9824
irl	-9825
lus	-9826
otic	-9827
▁untr	-9828
aliases	-9829
▁telinit	-9830
▁floppies	-9831
▁interfer	-9832
etly	-9833
▁doz	-9834
▁kan	-9835
orbis	-9836
▁bots	-9837
▁city	-9838
▁lean	-9839
▁crims	-9840
▁havnt	-9841
▁shoul	-9842
▁usualy	-9843
▁fixable	-9844
▁matched	-9845
▁tracking	-9846
rv	-9847
▁ze	-9848
mins	-9849
▁dch	-9850
input	-9851
▁sanity	-9852
▁defualt	-9853
▁minicom	-9854
▁flexible	-9855
▁dependant	-9856
▁websearch	-9857
hes	-9858
itar	-9859
▁hunt	-9860
▁tower	-9861
▁unset	-9862
▁smarter	-9863
▁sg	-9864
achi	-9865
addy	-9866
▁flow	-9867
elling	-9868
icates	-9869
▁comma	-9870
▁algorith	-9871
▁infected	-9872
-03	-9873
pic	-9874
▁jvm	-9875
▁apic	-9876
▁pgrep	-9877
▁gettin	-9878
▁garbled	-9879
▁selinux	-9880
keyserver	-9881
▁dx	-9882
▁440	-9883
▁lau	-9884
▁hero	-9885
▁coded	-9886
▁infin	-9887
▁amazon	-9888
▁compet	-9889
▁nsplugin	-9890
▁reasonably	-9891
▁828	-9892
▁2200	-9893
▁heya	-9894
▁hover	-9895
▁noexec	-9896
▁sudoer	-9897
▁manuals	-9898
▁2.6.32-2	-9899
▁maximized	-9900
▁complained	-9901
1600	-9902
▁ntpd	-9903
▁assure	-9904
▁blanks	-9905
▁hwinfo	-9906
▁heavily	-9907
▁shorter	-9908
▁flickers	-9909
▁purchase	-9910
ees	-9911
raw	-9912
gets	-9913
▁wmp	-9914
▁xaw	-9915
▁wats	-9916
▁ipods	-9917
▁busted	-9918
▁recomm	-9919
▁transition	-9920
norm	-9921
pair	-9922
▁midnight	-9923
▁increment	-9924
▁walkthrough	-9925
bt	-9926
qdn	-9927
main	-9928
▁erros	-9929
▁mainboard	-9930
▁programmers	-9931
▁ehm	-9932
▁hrs	-9933
▁slo	-9934
▁decl	-9935
▁hurry	-9936
▁deliver	-9937
▁proxies	-9938
▁queries	-9939
▁slowing	-9940
8187	-9941
▁atl	-9942
▁fold	-9943
▁listens	-9944
▁incident	-9945
▁lighttpd	-9946
▁surprise	-9947
.2.	-9948
▁49	-9949
tray	-9950
▁cud	-9951
▁hay	-9952
▁unz	-9953
▁wap	-9954
▁4.10	-9955
▁ubutu	-9956
▁mkisofs	-9957
▁swiftfox	-9958
▁lrwxrwxrwx	-9959
▁3.	-9960
▁fg	-9961
ffff	-9962
▁3-4	-9963
▁bam	-9964
probe	-9965
▁baby	-9966
▁slap	-9967
▁whom	-9968
▁boring	-9969
▁kindly	-9970
▁happily	-9971
▁pacakge	-9972
▁41	-9973
▁pt	-9974
mmmm	-9975
▁tis	-9976
rence	-9977
▁2.10	-9978
▁eval	-9979
encing	-9980
▁merged	-9981
▁sensor	-9982
▁healthy	-9983
▁parsing	-9984
▁peoples	-9985
▁enclosure	-9986
▁minimized	-9987
mu	-9988
lty	-9989
▁exac	-9990
edgers	-9991
▁rapid	-9992
▁cylind	-9993
▁pretend	-9994
▁unblock	-9995
▁generation	-9996
▁ultimately	-9997
128	-9998
gpg	-9999
▁ahci	-10000
▁bang	-10001
▁scare	-10002
▁somes	-10003
filename	-10004
▁annoyed	-10005
▁exploit	-10006
▁unclear	-10007
▁distorted	-10008
▁redundant	-10009
▁ef	-10010
▁unp	-10011
▁pelo	-10012
▁tape	-10013
▁jumps	-10014
▁south	-10015
▁emerge	-10016
▁europe	-10017
▁signals	-10018
protected	-10019
▁photorec	-10020
▁responded	-10021
▁acx	-10022
▁sold	-10023
▁wpas	-10024
▁lenny	-10025
▁nifty	-10026
▁lovely	-10027
▁thorough	-10028
▁benchmark	-10029
▁researching	-10030
imp	-10031
anta	-10032
▁ang	-10033
▁beg	-10034
▁gps	-10035
chars	-10036
hhhhhhhh	-10037
▁commonly	-10038
▁specially	-10039
▁knowledgeable	-10040
6'	-10041
mgr	-10042
▁cnt	-10043
▁mur	-10044
▁thi	-10045
▁propi	-10046
▁woudl	-10047
▁openbsd	-10048
▁sliders	-10049
▁permisions	-10050
meg	-10051
▁mh	-10052
oper	-10053
▁elf	-10054
▁gtx	-10055
elist	-10056
wheel	-10057
▁cuts	-10058
▁dealt	-10059
▁hoped	-10060
▁cooler	-10061
▁hotspot	-10062
▁preseed	-10063
▁imported	-10064
▁beginners	-10065
▁interfere	-10066
▁separated	-10067
▁subdirectory	-10068
ni	-10069
yp	-10070
▁ehh	-10071
▁jfs	-10072
▁dint	-10073
▁skips	-10074
▁opinions	-10075
▁crunchbang	-10076
-04	-10077
ilo	-10078
flow	-10079
▁kms	-10080
▁mii	-10081
echat	-10082
▁eats	-10083
▁srry	-10084
▁donno	-10085
▁heheh	-10086
▁typos	-10087
▁unison	-10088
▁foreign	-10089
▁5-10	-10090
▁omit	-10091
▁vids	-10092
▁comps	-10093
▁rember	-10094
▁bugging	-10095
▁clearer	-10096
▁initiate	-10097
▁replying	-10098
▁restrictions	-10099
padmin	-10100
▁began	-10101
▁deals	-10102
▁probl	-10103
▁somed	-10104
▁grabbed	-10105
formatted	-10106
▁filetype	-10107
▁overwrites	-10108
mov	-10109
www	-10110
▁97	-10111
▁tu	-10112
▁350	-10113
orama	-10114
▁toss	-10115
▁demon	-10116
▁caches	-10117
▁curses	-10118
▁posible	-10119
▁combined	-10120
▁rejected	-10121
▁soemthing	-10122
05	-10123
fast	-10124
ening	-10125
▁cmos	-10126
▁unch	-10127
▁cineler	-10128
▁circumst	-10129
▁challenge	-10130
▁paritions	-10131
27	-10132
wd	-10133
bec	-10134
▁__	-10135
ully	-10136
▁nto	-10137
▁sink	-10138
▁instr	-10139
▁libav	-10140
agement	-10141
▁mounter	-10142
▁netbios	-10143
▁teacher	-10144
▁stripped	-10145
▁primarily	-10146
libc	-10147
▁pms	-10148
▁tad	-10149
▁uvc	-10150
▁6800	-10151
▁trit	-10152
▁raise	-10153
▁elinks	-10154
▁crimsun	-10155
▁libgnome	-10156
▁administer	-10157
acod	-10158
tech	-10159
▁jet	-10160
2.0-0	-10161
▁9000	-10162
▁fram	-10163
▁grad	-10164
▁dodgy	-10165
▁filling	-10166
▁expression	-10167
▁distributed	-10168
▁automaticaly	-10169
▁difficulties	-10170
iy	-10171
cky	-10172
nod	-10173
ival	-10174
ators	-10175
▁unop	-10176
▁wher	-10177
▁esata	-10178
▁whith	-10179
▁cloned	-10180
▁dvorak	-10181
▁preced	-10182
▁thrown	-10183
▁wester	-10184
▁thousand	-10185
▁cinelerra	-10186
▁cryptsetup	-10187
▁libncurses	-10188
▁referenced	-10189
39	-10190
▁ftw	-10191
▁acid	-10192
▁wusb	-10193
▁wysi	-10194
scripts	-10195
▁multip	-10196
▁offset	-10197
▁crossed	-10198
▁recieved	-10199
▁reliably	-10200
▁somefile	-10201
▁warranty	-10202
▁intermitt	-10203
▁purchased	-10204
▁communications	-10205
wa	-10206
iel	-10207
▁127	-10208
▁hon	-10209
▁picasa	-10210
▁shipit	-10211
▁attacks	-10212
▁luckily	-10213
▁portage	-10214
▁customer	-10215
▁maintainers	-10216
▁gpm	-10217
▁artif	-10218
▁cupsd	-10219
▁greek	-10220
▁mater	-10221
▁parit	-10222
▁distur	-10223
▁wouldn	-10224
▁hackers	-10225
▁reposit	-10226
▁thermal	-10227
▁reloaded	-10228
lim	-10229
actl	-10230
▁450	-10231
state	-10232
▁02.0	-10233
▁libmp	-10234
▁pocket	-10235
▁implies	-10236
▁reality	-10237
▁sounded	-10238
▁propriet	-10239
▁cylinders	-10240
▁accessable	-10241
▁decoration	-10242
▁nspluginwrapper	-10243
ju	-10244
▁cx	-10245
▁hl	-10246
ette	-10247
iced	-10248
▁gsp	-10249
▁kom	-10250
▁svg	-10251
▁boat	-10252
▁isps	-10253
▁xvnc	-10254
iously	-10255
▁acpid	-10256
▁codep	-10257
▁colored	-10258
▁element	-10259
▁podcast	-10260
▁subnets	-10261
▁radeonhd	-10262
▁intuitive	-10263
▁dhcpoffers	-10264
▁performing	-10265
▁thumbnails	-10266
hist	-10267
▁1-2	-10268
adata	-10269
mixer	-10270
izable	-10271
▁upset	-10272
▁announ	-10273
▁nautil	-10274
▁pluged	-10275
▁exports	-10276
▁recheck	-10277
▁slocate	-10278
▁wpasupp	-10279
▁programme	-10280
▁backported	-10281
▁guaranteed	-10282
cer	-10283
obu	-10284
1080	-10285
▁0.5	-10286
▁ltd	-10287
▁nub	-10288
▁dmix	-10289
▁graf	-10290
▁princ	-10291
▁quickcam	-10292
0-	-10293
▁acl	-10294
▁xvf	-10295
▁nada	-10296
▁wrap	-10297
serial	-10298
▁colon	-10299
authent	-10300
mounted	-10301
▁nameof	-10302
▁runnin	-10303
▁blaster	-10304
▁scrolls	-10305
▁freespace	-10306
▁shoutcast	-10307
▁configures	-10308
vim	-10309
even	-10310
robe	-10311
▁seb	-10312
links	-10313
▁portu	-10314
▁dozens	-10315
▁multit	-10316
▁cookies	-10317
▁doesent	-10318
▁property	-10319
connection	-10320
▁usernames	-10321
0.	-10322
2.5	-10323
hog	-10324
▁88	-10325
▁hh	-10326
1300	-10327
▁ber	-10328
▁deg	-10329
▁linus	-10330
▁philos	-10331
▁stayed	-10332
▁stretch	-10333
▁greatest	-10334
▁poweroff	-10335
▁compromised	-10336
hw	-10337
▁0.	-10338
ingo	-10339
▁dab	-10340
about	-10341
itter	-10342
navig	-10343
▁gecko	-10344
▁maxed	-10345
▁inodes	-10346
▁namely	-10347
▁zenity	-10348
software	-10349
-01	-10350
aws	-10351
mtp	-10352
wyg	-10353
scape	-10354
▁frig	-10355
▁fetching	-10356
▁traditional	-10357
▁unfortunatly	-10358
uen	-10359
remo	-10360
▁tsc	-10361
▁rein	-10362
▁xawtv	-10363
▁beeing	-10364
▁excess	-10365
▁istall	-10366
▁shitty	-10367
graphics	-10368
▁closely	-10369
▁rubbish	-10370
▁tearing	-10371
▁outbound	-10372
▁recompiled	-10373
▁exclusively	-10374
▁inconsistent	-10375
iiii	-10376
▁lba	-10377
▁lpr	-10378
eread	-10379
▁vuze	-10380
ointed	-10381
▁beast	-10382
▁gamer	-10383
▁energy	-10384
▁signing	-10385
▁intalled	-10386
▁obsoleted	-10387
▁seemingly	-10388
configuration	-10389
pis	-10390
pts	-10391
send	-10392
▁tls	-10393
▁fqdn	-10394
▁difer	-10395
▁wysiwyg	-10396
▁counting	-10397
▁convention	-10398
▁unreadable	-10399
etic	-10400
unte	-10401
▁aol	-10402
ander	-10403
▁htpc	-10404
ective	-10405
report	-10406
▁brack	-10407
▁nicks	-10408
▁useable	-10409
▁guidance	-10410
▁malicious	-10411
jan	-10412
▁tk	-10413
fuse	-10414
▁8.4	-10415
▁jam	-10416
grees	-10417
▁cann	-10418
istics	-10419
▁norton	-10420
▁encoder	-10421
▁passive	-10422
▁spelled	-10423
▁anythign	-10424
▁camorama	-10425
▁prefered	-10426
4311	-10427
beta	-10428
eller	-10429
▁hacks	-10430
▁parag	-10431
builder	-10432
▁disape	-10433
▁juicer	-10434
▁offical	-10435
▁overlay	-10436
▁happends	-10437
▁practically	-10438
hol	-10439
ugh	-10440
audi	-10441
▁motd	-10442
▁angry	-10443
▁blows	-10444
▁couse	-10445
▁glade	-10446
▁inputs	-10447
▁weight	-10448
▁termino	-10449
▁advisable	-10450
▁chkconfig	-10451
▁wpasupplicant	-10452
53	-10453
utu	-10454
utes	-10455
▁nls	-10456
▁2004	-10457
▁direc	-10458
▁spawn	-10459
▁token	-10460
▁duplex	-10461
▁multic	-10462
▁tritium	-10463
▁transfering	-10464
msg	-10465
sup	-10466
gvfs	-10467
works	-10468
▁jesus	-10469
▁pidof	-10470
▁shape	-10471
▁prepar	-10472
▁weechat	-10473
▁googleearth	-10474
▁experimenting	-10475
ico	-10476
6000	-10477
pppp	-10478
▁mich	-10479
▁phase	-10480
▁examine	-10481
▁nosplash	-10482
192	-10483
hood	-10484
pers	-10485
▁ans	-10486
▁mke	-10487
decor	-10488
▁rose	-10489
▁sole	-10490
regard	-10491
▁bucks	-10492
▁escap	-10493
▁gurus	-10494
▁outta	-10495
▁wobbly	-10496
astersys	-10497
▁attribut	-10498
▁powertop	-10499
▁immediate	-10500
▁somehting	-10501
▁irritating	-10502
▁requesting	-10503
-06	-10504
agn	-10505
flv	-10506
iret	-10507
omla	-10508
▁590	-10509
▁lite	-10510
▁sabay	-10511
▁smoke	-10512
discover	-10513
▁analyzer	-10514
▁carefull	-10515
▁codepage	-10516
rg	-10517
drv	-10518
post	-10519
▁mim	-10520
otion	-10521
ubble	-10522
debian	-10523
▁rcconf	-10524
▁convers	-10525
▁western	-10526
▁binutils	-10527
▁confuses	-10528
▁tarballs	-10529
▁availible	-10530
▁fundament	-10531
aked	-10532
dist	-10533
▁5000	-10534
▁scre	-10535
htaccess	-10536
▁decides	-10537
▁complaint	-10538
▁projector	-10539
▁complaints	-10540
▁diagnostic	-10541
▁statements	-10542
▁terminology	-10543
nv	-10544
▁0.2	-10545
▁gts	-10546
▁vin	-10547
▁ebay	-10548
▁surv	-10549
really	-10550
▁waits	-10551
▁screwy	-10552
▁kicking	-10553
▁receiver	-10554
▁remaster	-10555
▁remastersys	-10556
svn	-10557
hold	-10558
▁10.	-10559
▁evo	-10560
▁pnp	-10561
▁sha	-10562
dport	-10563
▁bttv	-10564
▁donw	-10565
idence	-10566
reload	-10567
▁austr	-10568
▁digit	-10569
▁signs	-10570
navigator	-10571
▁ignorant	-10572
▁informative	-10573
29	-10574
169	-10575
agp	-10576
hun	-10577
seq	-10578
▁ck	-10579
▁ry	-10580
auge	-10581
▁.10	-10582
lines	-10583
▁oooh	-10584
▁abstr	-10585
▁aterm	-10586
▁gspca	-10587
▁jackd	-10588
▁unfam	-10589
▁vhost	-10590
sparrow	-10591
▁silver	-10592
▁checker	-10593
▁filtered	-10594
▁forwards	-10595
▁arbitrary	-10596
mac	-10597
aven	-10598
▁flaky	-10599
▁rooms	-10600
▁6.06.1	-10601
▁inject	-10602
▁joomla	-10603
▁blindly	-10604
▁american	-10605
▁keywords	-10606
▁metadata	-10607
▁platforms	-10608
▁propietary	-10609
▁translated	-10610
▁respectively	-10611
hp	-10612
-10-	-10613
▁ids	-10614
▁wom	-10615
black	-10616
resize	-10617
utable	-10618
▁unsafe	-10619
▁ntfsfix	-10620
▁routine	-10621
▁sockets	-10622
▁understandable	-10623
lix	-10624
▁3'	-10625
etch	-10626
▁afa	-10627
▁gro	-10628
▁args	-10629
▁defa	-10630
▁tack	-10631
▁trac	-10632
------	-10633
layout	-10634
ornado	-10635
▁becas	-10636
▁getty	-10637
▁boards	-10638
▁secured	-10639
▁philosop	-10640
▁outputting	-10641
▁prefrences	-10642
xtor	-10643
▁rgb	-10644
▁rox	-10645
▁vdp	-10646
▁bold	-10647
▁deli	-10648
▁kewl	-10649
▁anten	-10650
▁shiny	-10651
▁analys	-10652
▁severe	-10653
▁anyting	-10654
▁cloning	-10655
▁patching	-10656
▁deinstall	-10657
▁modelines	-10658
show	-10659
▁8.1	-10660
hibit	-10661
pgart	-10662
pilot	-10663
▁lord	-10664
▁sioc	-10665
iguous	-10666
archive	-10667
▁artist	-10668
▁damnit	-10669
▁dhcpcd	-10670
▁fourth	-10671
▁lockup	-10672
▁redirected	-10673
rot	-10674
▁dsp	-10675
▁6000	-10676
▁bsod	-10677
▁glass	-10678
▁xfont	-10679
▁piping	-10680
▁ported	-10681
▁amounts	-10682
▁figures	-10683
▁similer	-10684
▁tinkering	-10685
▁chek	-10686
▁supr	-10687
▁motor	-10688
▁shiret	-10689
▁sooner	-10690
▁marvell	-10691
▁mirrored	-10692
▁overlook	-10693
▁libflashsupport	-10694
▁81	-10695
▁cpp	-10696
▁mum	-10697
▁xyz	-10698
stuff	-10699
▁virt	-10700
▁javac	-10701
▁xlibs	-10702
▁purely	-10703
▁fixboot	-10704
▁lpadmin	-10705
fd	-10706
pae	-10707
guin	-10708
iger	-10709
temp	-10710
▁vob	-10711
extra	-10712
serve	-10713
▁crow	-10714
▁erro	-10715
▁slax	-10716
▁mepis	-10717
▁vdpau	-10718
▁poking	-10719
▁unclean	-10720
iceauthority	-10721
sv	-10722
pal	-10723
sed	-10724
▁-2	-10725
also	-10726
arus	-10727
▁140	-10728
▁hve	-10729
▁4000	-10730
▁aren	-10731
▁meas	-10732
▁circle	-10733
▁pinged	-10734
▁bitrate	-10735
▁summary	-10736
▁seperately	-10737
wx	-10738
dom	-10739
-200	-10740
asma	-10741
▁dsa	-10742
andon	-10743
reset	-10744
would	-10745
▁cure	-10746
master	-10747
▁david	-10748
▁steal	-10749
▁gunzip	-10750
▁dselect	-10751
▁relation	-10752
▁compilers	-10753
▁conclusion	-10754
▁backgrounds	-10755
che	-10756
ike	-10757
freak	-10758
▁army	-10759
▁finn	-10760
▁foss	-10761
▁hier	-10762
▁autop	-10763
▁miles	-10764
▁temps	-10765
▁thier	-10766
▁borrow	-10767
▁suport	-10768
▁versus	-10769
▁ddclient	-10770
▁recreated	-10771
▁remounting	-10772
▁compatability	-10773
120	-10774
dav	-10775
ller	-10776
▁jim	-10777
codes	-10778
▁unsu	-10779
strike	-10780
▁autog	-10781
▁dates	-10782
▁nodes	-10783
▁prere	-10784
▁asleep	-10785
▁alrighty	-10786
▁ak	-10787
asel	-10788
iles	-10789
loop	-10790
▁mks	-10791
▁moo	-10792
▁tks	-10793
▁yab	-10794
▁chick	-10795
▁equip	-10796
▁lesson	-10797
▁playon	-10798
▁libcurl	-10799
▁cellphone	-10800
aus	-10801
isy	-10802
compiz	-10803
initrd	-10804
ulator	-10805
▁depen	-10806
▁ouput	-10807
▁bittornado	-10808
wap	-10809
5200	-10810
▁22'	-10811
▁btr	-10812
▁doe	-10813
monad	-10814
▁mout	-10815
▁rack	-10816
▁degrees	-10817
▁selling	-10818
▁chatzilla	-10819
▁corporate	-10820
▁overnight	-10821
▁shiretoko	-10822
▁percentage	-10823
▁accelerator	-10824
▁0.3	-10825
▁iec	-10826
▁una	-10827
▁zer	-10828
▁fart	-10829
▁hiya	-10830
▁shif	-10831
ething	-10832
▁fewer	-10833
▁strike	-10834
▁tempted	-10835
decorator	-10836
ipe	-10837
atin	-10838
spie	-10839
▁sep	-10840
▁whe	-10841
iance	-10842
▁soul	-10843
▁eterm	-10844
charset	-10845
▁macosx	-10846
▁becasue	-10847
▁customers	-10848
859	-10849
▁mib	-10850
slash	-10851
needed	-10852
▁libdb	-10853
▁tftpd	-10854
▁woops	-10855
▁strugg	-10856
▁continu	-10857
▁volunte	-10858
▁floating	-10859
▁afterward	-10860
▁replicate	-10861
-09	-10862
erk	-10863
ulu	-10864
ereal	-10865
▁8400	-10866
▁bitl	-10867
▁clas	-10868
▁reis	-10869
▁skins	-10870
▁myfile	-10871
gnutella	-10872
▁portmap	-10873
▁migrating	-10874
93	-10875
aux	-10876
aing	-10877
▁ruin	-10878
▁spaw	-10879
▁utter	-10880
▁damned	-10881
▁scramb	-10882
stations	-10883
▁subsequ	-10884
▁elements	-10885
zed	-10886
-5.1	-10887
eeze	-10888
▁5.3	-10889
asted	-10890
never	-10891
▁btrfs	-10892
▁slick	-10893
▁slide	-10894
▁disregard	-10895
▁meanwhile	-10896
ran	-10897
sql	-10898
▁bb	-10899
expl	-10900
igns	-10901
left	-10902
▁0.4	-10903
▁arri	-10904
▁trip	-10905
▁trun	-10906
▁wasn	-10907
▁wols	-10908
runner	-10909
▁cripp	-10910
▁consol	-10911
▁reverted	-10912
▁smoother	-10913
▁frontends	-10914
▁priviledges	-10915
rout	-10916
▁dwm	-10917
▁7300	-10918
▁calib	-10919
▁mature	-10920
▁nivida	-10921
▁inbound	-10922
▁converts	-10923
▁keybindings	-10924
ght	-10925
via	-10926
vlc	-10927
▁wu	-10928
amps	-10929
rial	-10930
▁kbd	-10931
▁pig	-10932
erman	-10933
▁3200	-10934
▁ratio	-10935
▁sabayon	-10936
▁texlive	-10937
▁bridging	-10938
▁improper	-10939
▁intranet	-10940
▁externally	-10941
▁periodically	-10942
gib	-10943
▁sem	-10944
▁tgz	-10945
think	-10946
▁anac	-10947
▁modul	-10948
▁roots	-10949
▁clears	-10950
▁xmonad	-10951
▁encoded	-10952
▁joining	-10953
▁infinite	-10954
▁scheduled	-10955
▁fragmentation	-10956
ito	-10957
▁mn	-10958
-5.0	-10959
aily	-10960
elly	-10961
▁0222	-10962
▁rear	-10963
bridge	-10964
visual	-10965
▁brill	-10966
▁hedge	-10967
ructure	-10968
▁impact	-10969
platform	-10970
▁bundled	-10971
▁dragged	-10972
▁erasing	-10973
-2.6.15-2	-10974
▁helpfull	-10975
▁noticing	-10976
egg	-10977
atll	-10978
▁hom	-10979
irect	-10980
worth	-10981
mitted	-10982
▁enlar	-10983
▁grace	-10984
▁spoof	-10985
▁agpgart	-10986
▁proprit	-10987
▁extention	-10988
▁motherboards	-10989
▁-3	-10990
ille	-10991
stal	-10992
▁2.9	-10993
▁fry	-10994
▁wre	-10995
trace	-10996
▁pcsp	-10997
▁virtu	-10998
▁yikes	-10999
itivity	-11000
▁ripped	-11001
▁scream	-11002
▁yaboot	-11003
▁freakin	-11004
▁unfamiliar	-11005
▁significantly	-11006
uiz	-11007
▁zd	-11008
▁pse	-11009
▁cdrw	-11010
ffmpeg	-11011
▁agian	-11012
-2.6.17	-11013
history	-11014
▁loging	-11015
▁reform	-11016
▁indexing	-11017
▁masquerade	-11018
▁registering	-11019
apps	-11020
ubun	-11021
▁jun	-11022
▁pys	-11023
atter	-11024
emode	-11025
marks	-11026
▁hdtv	-11027
▁kden	-11028
itable	-11029
▁stead	-11030
▁xbind	-11031
▁geting	-11032
▁yields	-11033
▁heading	-11034
▁vendors	-11035
▁recomended	-11036
▁broadcasting	-11037
gar	-11038
▁vc	-11039
sted	-11040
▁bab	-11041
found	-11042
▁volt	-11043
▁staff	-11044
▁arrays	-11045
▁ulimit	-11046
▁alsactl	-11047
▁mailbox	-11048
▁aborting	-11049
accessible	-11050
▁eachother	-11051
▁applicable	-11052
administration	-11053
62	-11054
2.3	-11055
tex	-11056
▁enh	-11057
▁icec	-11058
▁holes	-11059
▁nvide	-11060
▁soooo	-11061
▁acquire	-11062
▁sorting	-11063
▁capslock	-11064
▁involving	-11065
▁reachable	-11066
▁customization	-11067
▁nw	-11068
-180	-11069
ards	-11070
rilo	-11071
exper	-11072
▁cpio	-11073
▁grap	-11074
▁rows	-11075
▁china	-11076
▁interv	-11077
▁ethereal	-11078
▁subfolder	-11079
▁circumstances	-11080
eb	-11081
nig	-11082
-4.0	-11083
2004	-11084
wwww	-11085
▁wod	-11086
▁10.1	-11087
▁ryth	-11088
▁suits	-11089
▁degree	-11090
▁distin	-11091
▁nvidea	-11092
computer	-11093
▁smbtree	-11094
▁homework	-11095
▁shooting	-11096
▁intelligent	-11097
.04-	-11098
game	-11099
▁aqu	-11100
▁uri	-11101
▁cute	-11102
▁bullet	-11103
▁expose	-11104
▁slides	-11105
▁seeking	-11106
▁targets	-11107
▁soundray	-11108
▁ventrilo	-11109
▁attributes	-11110
ael	-11111
flux	-11112
▁fest	-11113
▁moon	-11114
orphan	-11115
string	-11116
▁boxee	-11117
▁brick	-11118
applets	-11119
▁toward	-11120
▁bitlbee	-11121
▁relogin	-11122
▁simulate	-11123
▁someones	-11124
▁playonlinux	-11125
▁fv	-11126
cups	-11127
kest	-11128
▁4.7	-11129
▁wok	-11130
emacs	-11131
▁dare	-11132
▁kiba	-11133
▁rain	-11134
▁tony	-11135
▁ahhhh	-11136
▁genii	-11137
▁peeps	-11138
▁robot	-11139
▁seven	-11140
▁canada	-11141
▁reveal	-11142
▁satisfy	-11143
▁messaging	-11144
▁mountpoints	-11145
aaa	-11146
sto	-11147
▁blan	-11148
▁odds	-11149
▁quic	-11150
advant	-11151
▁cheat	-11152
▁picky	-11153
▁gforce	-11154
▁motion	-11155
▁permit	-11156
▁sysctl	-11157
▁imaging	-11158
▁noobish	-11159
▁sourced	-11160
▁tweaked	-11161
▁congrats	-11162
▁transmit	-11163
▁youruser	-11164
▁blackdown	-11165
▁sensitivity	-11166
ecd	-11167
fts	-11168
▁gh	-11169
▁xn	-11170
-11-	-11171
▁30-	-11172
gress	-11173
▁ears	-11174
▁viol	-11175
▁kdesu	-11176
▁winff	-11177
loading	-11178
▁battle	-11179
▁nagios	-11180
▁nexuiz	-11181
▁cmdline	-11182
▁consequ	-11183
▁jumpers	-11184
▁optimus	-11185
▁rockbox	-11186
▁shuttle	-11187
▁wmaster	-11188
▁notifier	-11189
▁headaches	-11190
▁workstations	-11191
7'	-11192
958	-11193
grx	-11194
spl	-11195
uce	-11196
ades	-11197
flag	-11198
▁aac	-11199
▁iot	-11200
onfig	-11201
uffle	-11202
▁cour	-11203
▁evry	-11204
ecandy	-11205
▁byobu	-11206
▁jason	-11207
▁loses	-11208
▁desire	-11209
atically	-11210
▁handler	-11211
▁rebuilt	-11212
▁globally	-11213
▁informed	-11214
▁interval	-11215
▁essentials	-11216
uit	-11217
▁.0	-11218
4312	-11219
aten	-11220
yyyy	-11221
▁ctr	-11222
▁fer	-11223
▁xul	-11224
weasel	-11225
▁adhoc	-11226
▁flame	-11227
▁whois	-11228
▁xauth	-11229
-2.6.10	-11230
▁relate	-11231
▁moments	-11232
▁readers	-11233
▁untouch	-11234
▁diferent	-11235
▁oriented	-11236
▁naturally	-11237
▁remounted	-11238
▁vboxusers	-11239
▁encrypting	-11240
▁highlights	-11241
abl	-11242
pin	-11243
okes	-11244
▁arc	-11245
▁cue	-11246
▁cus	-11247
▁psu	-11248
ained	-11249
times	-11250
▁dase	-11251
▁scal	-11252
▁synp	-11253
▁dutch	-11254
▁faced	-11255
▁kitch	-11256
▁credit	-11257
▁filing	-11258
▁revers	-11259
▁sucked	-11260
▁reminds	-11261
▁kdenlive	-11262
▁suspected	-11263
▁assignment	-11264
▁subsection	-11265
▁filemanager	-11266
blu	-11267
osd	-11268
rog	-11269
▁bak	-11270
▁nit	-11271
▁ven	-11272
howto	-11273
index	-11274
tuner	-11275
▁2222	-11276
▁burns	-11277
▁grate	-11278
▁scrib	-11279
▁timid	-11280
▁talkin	-11281
▁abandon	-11282
▁objects	-11283
▁optimal	-11284
▁movement	-11285
▁everthing	-11286
▁respective	-11287
-05	-11288
▁950	-11289
▁wot	-11290
archy	-11291
owing	-11292
▁syst	-11293
▁helix	-11294
▁sized	-11295
▁portug	-11296
▁reside	-11297
▁granted	-11298
▁noatime	-11299
▁iocharset	-11300
▁reverting	-11301
▁usability	-11302
▁ng	-11303
-16-	-11304
iest	-11305
ther	-11306
▁avg	-11307
▁ith	-11308
▁nar	-11309
ember	-11310
vidia	-11311
▁bank	-11312
▁warm	-11313
▁owners	-11314
▁settle	-11315
▁iptable	-11316
▁realvnc	-11317
▁unresol	-11318
▁worrying	-11319
everything	-11320
▁expertise	-11321
▁defragment	-11322
enu	-11323
jpkg	-11324
▁650	-11325
▁apr	-11326
▁zfs	-11327
entry	-11328
▁5500	-11329
▁blob	-11330
▁bond	-11331
▁rush	-11332
▁allot	-11333
▁maild	-11334
▁quota	-11335
▁libpng	-11336
▁pcspkr	-11337
▁retrie	-11338
▁greeter	-11339
▁performs	-11340
▁fluxbuntu	-11341
▁untrusted	-11342
▁downgraded	-11343
▁propritary	-11344
eh	-11345
zo	-11346
-07	-11347
▁76	-11348
azil	-11349
▁rpc	-11350
▁piii	-11351
▁ques	-11352
fiable	-11353
▁2.6.31-1	-11354
▁actively	-11355
▁eyecandy	-11356
▁pleasure	-11357
▁produced	-11358
▁scrolled	-11359
▁authority	-11360
▁disadvant	-11361
▁qualified	-11362
▁tremulous	-11363
▁aj	-11364
▁kv	-11365
acts	-11366
rete	-11367
▁0.7	-11368
▁gmt	-11369
▁rum	-11370
aully	-11371
witch	-11372
▁flgrx	-11373
▁plasma	-11374
▁proces	-11375
▁traces	-11376
firmware	-11377
▁beeping	-11378
▁germany	-11379
▁menubar	-11380
▁pertain	-11381
▁backslash	-11382
▁contribute	-11383
▁dhcpdiscover	-11384
foo	-11385
▁ai	-11386
ianl	-11387
raph	-11388
▁vag	-11389
coded	-11390
▁helo	-11391
▁10-15	-11392
▁fills	-11393
▁paint	-11394
▁briefly	-11395
▁concent	-11396
▁dumping	-11397
uninstall	-11398
▁gimpshop	-11399
▁specifies	-11400
▁compatable	-11401
08	-11402
aved	-11403
▁19'	-11404
antic	-11405
elect	-11406
speed	-11407
▁eleg	-11408
▁kppp	-11409
▁labs	-11410
▁plugs	-11411
▁userdir	-11412
▁breakage	-11413
▁listings	-11414
▁propably	-11415
▁mountable	-11416
▁scriptname	-11417
▁redirection	-11418
bon	-11419
upt	-11420
▁.1	-11421
abel	-11422
▁igp	-11423
lined	-11424
▁blew	-11425
scribe	-11426
▁maxtor	-11427
▁accross	-11428
▁haveing	-11429
▁invoking	-11430
▁privilege	-11431
▁downloader	-11432
▁unfortunate	-11433
bra	-11434
des	-11435
oin	-11436
sub	-11437
zvf	-11438
▁68	-11439
char	-11440
utal	-11441
▁tet	-11442
▁stef	-11443
demand	-11444
▁autos	-11445
▁bogus	-11446
▁puter	-11447
▁tehre	-11448
▁cdroms	-11449
▁pendri	-11450
▁engines	-11451
▁mystery	-11452
▁preffer	-11453
▁vanished	-11454
vb	-11455
321	-11456
spath	-11457
▁prec	-11458
▁vood	-11459
▁india	-11460
getting	-11461
▁blinks	-11462
▁mkswap	-11463
▁planet	-11464
▁tedious	-11465
▁electron	-11466
▁exported	-11467
▁postinst	-11468
▁unexpectedly	-11469
▁verification	-11470
mx	-11471
lig	-11472
nox	-11473
opy	-11474
▁aug	-11475
world	-11476
▁cruc	-11477
ledges	-11478
▁missp	-11479
chooser	-11480
▁faults	-11481
▁robust	-11482
▁inspect	-11483
▁mousepad	-11484
▁neighbor	-11485
▁titlebar	-11486
buildpackage	-11487
iu	-11488
long	-11489
vous	-11490
▁770	-11491
▁csh	-11492
aleon	-11493
▁bass	-11494
▁ples	-11495
▁appar	-11496
▁fried	-11497
▁myster	-11498
▁compact	-11499
▁growing	-11500
▁puzzled	-11501
▁science	-11502
▁survive	-11503
▁adminstr	-11504
▁malformed	-11505
▁redirects	-11506
ih	-11507
.'.	-11508
mpg	-11509
sch	-11510
4318	-11511
duct	-11512
▁cru	-11513
▁mgr	-11514
▁weir	-11515
broken	-11516
vision	-11517
wanted	-11518
▁camer	-11519
▁dasei	-11520
▁edges	-11521
▁mines	-11522
▁woody	-11523
▁diskspace	-11524
nl	-11525
pu	-11526
gts	-11527
upg	-11528
▁wp	-11529
▁4.5	-11530
▁mit	-11531
▁mtp	-11532
▁oyu	-11533
▁toy	-11534
gable	-11535
▁keyb	-11536
▁homes	-11537
▁sheet	-11538
▁monode	-11539
▁tinker	-11540
▁offense	-11541
▁securely	-11542
▁devilspie	-11543
▁downstairs	-11544
▁indicating	-11545
▁frustration	-11546
ook	-11547
empt	-11548
▁17'	-11549
▁7000	-11550
▁spins	-11551
▁watched	-11552
▁grepping	-11553
▁recommending	-11554
away	-11555
▁beac	-11556
▁falls	-11557
▁guard	-11558
▁lauch	-11559
▁plans	-11560
▁galeon	-11561
▁libusb	-11562
▁nessus	-11563
▁reaches	-11564
▁resuming	-11565
▁somesuch	-11566
▁terminator	-11567
▁dualbooting	-11568
▁transferred	-11569
cad	-11570
esd	-11571
▁ads	-11572
ional	-11573
leges	-11574
▁catal	-11575
▁giant	-11576
▁tilda	-11577
▁urban	-11578
netbook	-11579
ulating	-11580
▁crucial	-11581
▁dependec	-11582
▁equipment	-11583
▁automounts	-11584
▁firewalled	-11585
▁foreground	-11586
.13	-11587
2-9	-11588
▁5.5	-11589
▁cit	-11590
aimed	-11591
▁sore	-11592
▁trys	-11593
▁metal	-11594
▁pygtk	-11595
timeout	-11596
▁userid	-11597
▁differs	-11598
▁flawless	-11599
▁dimension	-11600
▁keystrokes	-11601
▁satisfiable	-11602
anb	-11603
▁zyk	-11604
eness	-11605
▁coin	-11606
▁hose	-11607
▁reps	-11608
garden	-11609
helper	-11610
turing	-11611
account	-11612
▁matrix	-11613
▁dekstop	-11614
▁intergr	-11615
▁utilize	-11616
▁floodbot	-11617
▁tsclient	-11618
▁unneeded	-11619
▁emulators	-11620
▁instructed	-11621
▁hv	-11622
into	-11623
sert	-11624
▁720	-11625
▁amb	-11626
▁lyx	-11627
▁gear	-11628
▁libv	-11629
▁semp	-11630
▁wolf	-11631
▁woot	-11632
▁forms	-11633
▁gthumb	-11634
▁matrox	-11635
▁appropri	-11636
▁geometry	-11637
▁aparently	-11638
▁indicated	-11639
▁licensing	-11640
▁recognises	-11641
ori	-11642
▁8-	-11643
▁outs	-11644
▁wana	-11645
▁xfix	-11646
hunter	-11647
▁radar	-11648
▁novell	-11649
▁octave	-11650
▁keycode	-11651
▁indirect	-11652
▁triggers	-11653
▁growisofs	-11654
▁foldername	-11655
mie	-11656
rub	-11657
▁74	-11658
edid	-11659
▁2002	-11660
▁hire	-11661
▁hpfs	-11662
▁mood	-11663
▁woah	-11664
▁hopes	-11665
▁wodim	-11666
▁turion	-11667
▁dialogs	-11668
▁inbuilt	-11669
▁invoked	-11670
▁differnet	-11671
▁starcraft	-11672
▁rd	-11673
-100	-11674
cond	-11675
ilty	-11676
paul	-11677
▁ssb	-11678
proof	-11679
▁9250	-11680
▁gnuc	-11681
▁bugged	-11682
▁laying	-11683
▁ruined	-11684
▁savage	-11685
▁delayed	-11686
▁himself	-11687
▁modinfo	-11688
▁moniter	-11689
▁behaving	-11690
▁discussed	-11691
▁hibernating	-11692
▁monodevelop	-11693
▁international	-11694
xv	-11695
dam	-11696
ader	-11697
▁spd	-11698
berry	-11699
boost	-11700
▁8500	-11701
▁arab	-11702
▁icer	-11703
▁kopt	-11704
▁mmmm	-11705
▁effic	-11706
▁persp	-11707
▁spoke	-11708
▁guests	-11709
▁pakage	-11710
▁voodoo	-11711
▁familar	-11712
▁livecds	-11713
bluetooth	-11714
▁adjusted	-11715
▁releasing	-11716
eto	-11717
▁ew	-11718
find	-11719
same	-11720
▁nik	-11721
▁stuf	-11722
▁xcom	-11723
▁father	-11724
▁perfer	-11725
▁remedy	-11726
▁routed	-11727
▁vector	-11728
▁10.04.1	-11729
▁chooser	-11730
▁runnign	-11731
▁blahblah	-11732
▁xbindkeys	-11733
1400	-11734
azor	-11735
▁cms	-11736
▁nerd	-11737
etwork	-11738
normal	-11739
▁awake	-11740
▁recur	-11741
▁mission	-11742
alsamixer	-11743
▁safemode	-11744
▁improvements	-11745
▁comprehensive	-11746
aj	-11747
▁77	-11748
3100	-11749
agre	-11750
dmrc	-11751
ique	-11752
▁104	-11753
▁cro	-11754
might	-11755
▁snow	-11756
▁thog	-11757
▁daugh	-11758
▁blurry	-11759
▁guitar	-11760
▁probel	-11761
▁adblock	-11762
▁gnucash	-11763
▁rootkit	-11764
interface	-11765
▁timidity	-11766
▁increased	-11767
▁verifying	-11768
▁192.168.1.	-11769
▁consumption	-11770
mmv	-11771
▁pst	-11772
▁tnt	-11773
arter	-11774
▁fvwm	-11775
▁succ	-11776
▁promt	-11777
▁concur	-11778
▁relies	-11779
▁thrott	-11780
▁placing	-11781
▁trashed	-11782
▁hedgehog	-11783
▁operator	-11784
xauthority	-11785
▁automagic	-11786
▁calculate	-11787
▁preparing	-11788
▁scrambled	-11789
▁untouched	-11790
▁aplication	-11791
▁discussing	-11792
▁recordmydesktop	-11793
dot	-11794
won	-11795
4306	-11796
wait	-11797
-8859	-11798
▁feet	-11799
intosh	-11800
▁-----	-11801
▁busid	-11802
▁jumped	-11803
▁served	-11804
▁antenna	-11805
▁icecast	-11806
▁planned	-11807
▁symptom	-11808
▁downside	-11809
▁subdomain	-11810
▁ubuntuone	-11811
▁rosegarden	-11812
▁tightvncserver	-11813
nr	-11814
.1-	-11815
▁ud	-11816
1.2-	-11817
▁pet	-11818
uting	-11819
▁chess	-11820
▁conen	-11821
▁ipsec	-11822
because	-11823
▁equally	-11824
▁variety	-11825
▁kcontrol	-11826
▁importing	-11827
▁parallels	-11828
▁registers	-11829
thunderbird	-11830
▁passwordless	-11831
bel	-11832
▁vn	-11833
redy	-11834
opard	-11835
▁2400	-11836
▁opps	-11837
▁grabs	-11838
▁udisks	-11839
▁privacy	-11840
▁valuable	-11841
▁brilliant	-11842
▁paragraph	-11843
▁triggered	-11844
02	-11845
shr	-11846
brew	-11847
▁nad	-11848
▁rly	-11849
actly	-11850
maker	-11851
xfree	-11852
▁gnea	-11853
▁plac	-11854
trying	-11855
▁aight	-11856
▁risks	-11857
▁exclud	-11858
▁iceroot	-11859
▁troublesome	-11860
gd	-11861
md	-11862
bie	-11863
▁cv	-11864
perm	-11865
▁unh	-11866
vided	-11867
▁gprs	-11868
▁uhhh	-11869
▁void	-11870
▁relax	-11871
▁indust	-11872
▁refres	-11873
▁actuall	-11874
▁verison	-11875
▁winbind	-11876
▁finishing	-11877
▁preferable	-11878
▁perspective	-11879
6.	-11880
'97	-11881
1.3	-11882
sim	-11883
sty	-11884
▁791	-11885
itary	-11886
▁7200	-11887
▁snmp	-11888
applic	-11889
haring	-11890
▁0.0'.	-11891
▁hides	-11892
▁vsftp	-11893
however	-11894
service	-11895
▁glance	-11896
▁killer	-11897
▁monkey	-11898
▁indexes	-11899
▁2.6.35-2	-11900
▁rendered	-11901
multiverse	-11902
▁fragmented	-11903
▁regression	-11904
▁specifications	-11905
-21	-11906
0.9	-11907
aft	-11908
equ	-11909
hot	-11910
sdk	-11911
asse	-11912
ends	-11913
▁nov	-11914
etime	-11915
▁bleh	-11916
▁ymmv	-11917
appers	-11918
cacher	-11919
▁excel	-11920
▁instl	-11921
▁unsuc	-11922
▁fellow	-11923
▁halted	-11924
▁remake	-11925
▁reverts	-11926
▁acceller	-11927
▁limiting	-11928
▁undelete	-11929
▁initscript	-11930
57	-11931
58	-11932
camp	-11933
matic	-11934
river	-11935
▁baff	-11936
▁eror	-11937
▁abuse	-11938
▁belie	-11939
▁chill	-11940
▁texas	-11941
▁metric	-11942
▁vorbis	-11943
▁buddies	-11944
▁falling	-11945
▁toolkit	-11946
▁addressed	-11947
▁mirroring	-11948
▁programms	-11949
▁mailserver	-11950
qq	-11951
▁72	-11952
logo	-11953
verb	-11954
▁ava	-11955
▁dex	-11956
▁glo	-11957
▁ink	-11958
▁ming	-11959
▁coudl	-11960
▁cyber	-11961
▁devic	-11962
▁heaps	-11963
▁hurts	-11964
▁respa	-11965
virtual	-11966
▁edbian	-11967
▁idleone	-11968
▁maildir	-11969
▁underst	-11970
▁adresses	-11971
▁emulated	-11972
▁glitches	-11973
▁mistyped	-11974
▁frequencies	-11975
▁ov	-11976
ppet	-11977
▁cel	-11978
▁pec	-11979
▁sex	-11980
▁yrs	-11981
emens	-11982
itool	-11983
samba	-11984
table	-11985
▁gift	-11986
▁kwin	-11987
▁moot	-11988
▁usin	-11989
omatic	-11990
▁remap	-11991
acodecs	-11992
▁helpme	-11993
▁webdav	-11994
▁material	-11995
▁peripher	-11996
▁policies	-11997
▁unzipped	-11998
compatible	-11999
▁exclusive	-12000
▁plaintext	-12001
▁descriptive	-12002
aed	-12003
duo	-12004
-1.9	-12005
erve	-12006
udge	-12007
▁aww	-12008
▁isc	-12009
▁ray	-12010
▁sue	-12011
▁tax	-12012
▁wed	-12013
otick	-12014
▁iost	-12015
▁udma	-12016
▁avast	-12017
▁meter	-12018
▁snort	-12019
▁2.6.28	-12020
▁campus	-12021
▁overly	-12022
▁hwclock	-12023
▁bandwith	-12024
▁brackets	-12025
▁mountall	-12026
▁synpatic	-12027
▁deborphan	-12028
▁navigator	-12029
▁continuous	-12030
cor	-12031
ica	-12032
oker	-12033
shit	-12034
▁4-5	-12035
▁cdr	-12036
▁mtr	-12037
break	-12038
cious	-12039
elines	-12040
▁10000	-12041
▁aptit	-12042
▁elses	-12043
▁meerk	-12044
▁vsync	-12045
▁blabla	-12046
▁crypto	-12047
▁dinner	-12048
▁loving	-12049
▁reread	-12050
▁sfdisk	-12051
▁yessir	-12052
▁gallery	-12053
▁hardisk	-12054
▁squeeze	-12055
▁grateful	-12056
▁migrated	-12057
▁impressive	-12058
▁statistics	-12059
▁interaction	-12060
▁programname	-12061
▁dia	-12062
▁mcp	-12063
▁wes	-12064
trans	-12065
▁hulu	-12066
▁afric	-12067
▁loops	-12068
▁rubyg	-12069
▁swith	-12070
▁wires	-12071
message	-12072
request	-12073
▁werent	-12074
▁animated	-12075
▁textfile	-12076
▁algorithm	-12077
▁christmas	-12078
▁extensive	-12079
▁seamonkey	-12080
sg	-12081
zzzz	-12082
▁gad	-12083
▁thu	-12084
shift	-12085
▁uber	-12086
▁cmake	-12087
▁whack	-12088
▁magnet	-12089
▁pastie	-12090
appiness	-12091
▁anacron	-12092
▁disaster	-12093
▁quickest	-12094
▁portugues	-12095
▁remembers	-12096
▁resolvconf	-12097
cgi	-12098
▁ky	-12099
abet	-12100
mand	-12101
▁dnt	-12102
▁xdg	-12103
▁9999	-12104
▁pink	-12105
▁xeon	-12106
attach	-12107
▁evdev	-12108
▁sourc	-12109
channel	-12110
compile	-12111
▁acknow	-12112
▁brazil	-12113
▁freely	-12114
▁social	-12115
▁totaly	-12116
guardian	-12117
▁lookups	-12118
▁shebang	-12119
▁claiming	-12120
▁reenable	-12121
▁identifying	-12122
▁inaccessible	-12123
▁masquerading	-12124
▁appropriately	-12125
ttf	-12126
▁dn	-12127
▁tg	-12128
qemu	-12129
▁nes	-12130
▁aval	-12131
▁bite	-12132
▁exha	-12133
▁chunk	-12134
▁grave	-12135
▁untick	-12136
▁xfonts	-12137
▁america	-12138
▁bootmgr	-12139
▁meerkat	-12140
▁numeric	-12141
▁outcome	-12142
▁someday	-12143
▁shipping	-12144
fsg	-12145
▁240	-12146
▁ffs	-12147
▁pda	-12148
▁7500	-12149
▁boom	-12150
▁cake	-12151
▁cous	-12152
efault	-12153
owness	-12154
▁synap	-12155
▁lasted	-12156
▁assembly	-12157
▁festival	-12158
▁understands	-12159
izi	-12160
rint	-12161
▁flu	-12162
▁hai	-12163
▁nmb	-12164
▁shm	-12165
▁sne	-12166
games	-12167
oward	-12168
▁canc	-12169
▁ints	-12170
▁evalu	-12171
▁memor	-12172
▁whant	-12173
ception	-12174
missing	-12175
▁awsome	-12176
▁gnomes	-12177
upgraded	-12178
▁dollars	-12179
▁infrast	-12180
▁nvidias	-12181
▁psmouse	-12182
▁suspending	-12183
.18	-12184
bcd	-12185
▁amp	-12186
▁gay	-12187
ricks	-12188
werty	-12189
▁peek	-12190
▁pine	-12191
▁sory	-12192
▁peace	-12193
▁rhyth	-12194
▁spdif	-12195
▁thoug	-12196
cessary	-12197
modeset	-12198
warning	-12199
▁noises	-12200
▁elegant	-12201
▁segment	-12202
▁children	-12203
▁zykotick	-12204
▁megabytes	-12205
▁philosophy	-12206
▁postscript	-12207
▁productive	-12208
▁definitions	-12209
▁filesharing	-12210
▁printscreen	-12211
ln	-12212
6.2	-12213
ahn	-12214
ota	-12215
▁-4	-12216
iday	-12217
ashed	-12218
iving	-12219
▁0.0'	-12220
▁epic	-12221
intern	-12222
▁synced	-12223
▁tether	-12224
▁deskbar	-12225
▁nervous	-12226
▁vinagre	-12227
▁avoiding	-12228
▁bootcamp	-12229
▁secondly	-12230
▁suprised	-12231
▁upstairs	-12232
extracodecs	-12233
▁determines	-12234
▁reinstalls	-12235
▁documentroot	-12236
ua	-12237
num	-12238
psk	-12239
▁6.1	-12240
▁uss	-12241
atalk	-12242
▁scun	-12243
▁subs	-12244
option	-12245
▁fired	-12246
▁halts	-12247
▁loved	-12248
▁ompaul	-12249
▁pastes	-12250
▁viewed	-12251
▁rotating	-12252
▁permision	-12253
▁presently	-12254
▁everythign	-12255
▁selections	-12256
▁persistence	-12257
ema	-12258
iff	-12259
sun	-12260
▁rk	-12261
jour	-12262
▁jst	-12263
▁lug	-12264
▁pvt	-12265
▁zim	-12266
▁ampl	-12267
▁dkpg	-12268
▁evey	-12269
▁xpdf	-12270
radeon	-12271
▁seams	-12272
hostname	-12273
ificates	-12274
▁cooling	-12275
▁defines	-12276
▁relatime	-12277
▁slowdown	-12278
lite	-12279
aired	-12280
otate	-12281
xserver	-12282
▁2.6.38	-12283
▁height	-12284
▁widely	-12285
▁excited	-12286
▁restate	-12287
▁sempron	-12288
▁webmail	-12289
▁electric	-12290
▁isolinux	-12291
▁methinks	-12292
▁synaptec	-12293
▁powerfull	-12294
▁continuing	-12295
▁systemwide	-12296
▁remembering	-12297
▁repartitioning	-12298
▁ja	-12299
▁tft	-12300
cards	-12301
sting	-12302
▁2600	-12303
import	-12304
recurs	-12305
▁bingo	-12306
▁infos	-12307
▁pipes	-12308
▁chattr	-12309
▁cookie	-12310
▁quanta	-12311
▁qwerty	-12312
▁discour	-12313
▁leopard	-12314
▁rollback	-12315
▁slowness	-12316
▁smallest	-12317
▁unwanted	-12318
▁relations	-12319
▁duplicates	-12320
▁diagnostics	-12321
pw	-12322
hip	-12323
▁jb	-12324
pmgr	-12325
▁hab	-12326
▁sud	-12327
oding	-12328
▁1001	-12329
▁1152	-12330
▁gona	-12331
▁appli	-12332
▁aprop	-12333
▁gears	-12334
▁peers	-12335
▁2.6.11	-12336
▁beware	-12337
▁decode	-12338
▁varies	-12339
▁kdebase	-12340
▁stalled	-12341
▁rubygems	-12342
▁repairing	-12343
▁aplications	-12344
▁redirecting	-12345
▁accessibility	-12346
nm	-12347
uk	-12348
rif	-12349
gged	-12350
▁003	-12351
▁965	-12352
▁jee	-12353
▁knw	-12354
odate	-12355
▁dive	-12356
▁gosh	-12357
▁voila	-12358
aliable	-12359
▁friggin	-12360
▁director	-12361
▁recognition	-12362
69	-12363
docs	-12364
▁ano	-12365
▁hil	-12366
▁hug	-12367
▁oce	-12368
conky	-12369
▁mast	-12370
▁exept	-12371
▁macro	-12372
formats	-12373
issions	-12374
▁breeze	-12375
▁noting	-12376
▁charset	-12377
▁drastic	-12378
▁toolbars	-12379
▁classpath	-12380
▁libnotify	-12381
▁spreadshe	-12382
▁corresponds	-12383
aku	-12384
ipv	-12385
▁swt	-12386
▁xkb	-12387
beros	-12388
obile	-12389
▁cash	-12390
▁feas	-12391
▁zcat	-12392
▁whirl	-12393
claimed	-12394
ichrome	-12395
▁insult	-12396
▁claimed	-12397
▁engineer	-12398
▁australia	-12399
▁2.6.22-14-	-12400
67	-12401
ov	-12402
sis	-12403
▁.2	-12404
aded	-12405
wlan	-12406
▁190	-12407
▁ufs	-12408
exant	-12409
rules	-12410
▁4318	-12411
▁6.04	-12412
▁6150	-12413
▁fwiw	-12414
▁nfts	-12415
adress	-12416
rently	-12417
▁ubntu	-12418
▁suffix	-12419
▁summer	-12420
▁svideo	-12421
▁bottlen	-12422
▁captive	-12423
▁netatalk	-12424
▁scheduler	-12425
▁similarly	-12426
▁refreshing	-12427
▁represents	-12428
▁maintaining	-12429
▁informations	-12430
83	-12431
.22	-12432
▁ae	-12433
desk	-12434
▁arn	-12435
▁chm	-12436
▁coo	-12437
▁ipp	-12438
▁tul	-12439
daily	-12440
▁8000	-12441
▁aaah	-12442
▁righ	-12443
▁uhci	-12444
▁worm	-12445
▁thnks	-12446
extract	-12447
▁dammit	-12448
▁ipmasq	-12449
▁stutter	-12450
▁sunbird	-12451
▁resulted	-12452
gie	-12453
obo	-12454
▁3-	-12455
8169	-12456
▁fist	-12457
▁magn	-12458
▁smeg	-12459
▁town	-12460
engine	-12461
ignore	-12462
▁drink	-12463
▁misle	-12464
▁wreck	-12465
▁amazed	-12466
▁intent	-12467
▁respos	-12468
▁awkward	-12469
▁botched	-12470
▁netowrk	-12471
▁surface	-12472
▁trident	-12473
▁expanded	-12474
▁managment	-12475
▁snapshots	-12476
▁checkboxes	-12477
▁unformatted	-12478
▁infrastructure	-12479
▁2-	-12480
gggg	-12481
kind	-12482
▁ale	-12483
▁asm	-12484
▁ave	-12485
-----	-12486
frame	-12487
virus	-12488
▁mart	-12489
▁1.0.7	-12490
▁contr	-12491
▁hated	-12492
▁kqemu	-12493
▁squir	-12494
▁theirs	-12495
▁endless	-12496
▁nightly	-12497
▁mainline	-12498
passphrase	-12499
▁nomachine	-12500
▁autodetected	-12501
▁5'	-12502
▁cg	-12503
akey	-12504
days	-12505
icky	-12506
izon	-12507
▁bag	-12508
▁kay	-12509
▁tan	-12510
apter	-12511
orent	-12512
▁adam	-12513
▁logr	-12514
parted	-12515
reboot	-12516
▁grasp	-12517
▁toast	-12518
▁hammer	-12519
▁rocket	-12520
▁ushare	-12521
▁responsi	-12522
javaplugin	-12523
▁wildcards	-12524
zb	-12525
▁wn	-12526
▁hae	-12527
▁nail	-12528
▁recy	-12529
▁zxvf	-12530
juicer	-12531
▁gtalk	-12532
▁heats	-12533
▁monit	-12534
▁okies	-12535
▁packe	-12536
artwork	-12537
▁employ	-12538
▁2.6.27-	-12539
▁painless	-12540
▁groupname	-12541
▁harddisks	-12542
▁webbrowser	-12543
▁initializing	-12544
8'	-12545
yl	-12546
elf	-12547
had	-12548
▁86	-12549
▁ux	-12550
▁aid	-12551
▁grid	-12552
▁grup	-12553
▁alltray	-12554
▁deselect	-12555
▁knetwork	-12556
▁semicond	-12557
▁trailing	-12558
▁xcompmgr	-12559
▁defaulted	-12560
▁definitly	-12561
▁hyperthread	-12562
-02	-12563
101	-12564
3.1	-12565
rus	-12566
fing	-12567
made	-12568
▁gbs	-12569
▁gif	-12570
▁rww	-12571
-686-	-12572
alias	-12573
uenig	-12574
▁acct	-12575
▁dchp	-12576
▁elev	-12577
▁june	-12578
▁recc	-12579
▁shap	-12580
liable	-12581
▁impat	-12582
▁sharp	-12583
▁bruenig	-12584
▁classes	-12585
▁insatll	-12586
▁penguin	-12587
▁phpinfo	-12588
▁scunizi	-12589
▁cracking	-12590
▁deciding	-12591
▁termianl	-12592
▁semicondu	-12593
▁dissapeared	-12594
▁486	-12595
▁caf	-12596
▁gri	-12597
oured	-12598
▁fond	-12599
▁halp	-12600
▁phen	-12601
▁pile	-12602
▁alike	-12603
▁cough	-12604
▁hallo	-12605
▁ocean	-12606
▁rusty	-12607
▁sweat	-12608
▁zeros	-12609
ackages	-12610
initely	-12611
▁proble	-12612
▁insists	-12613
▁stuffed	-12614
▁subdirs	-12615
▁millions	-12616
▁ondemand	-12617
▁sounding	-12618
▁organized	-12619
▁screenlet	-12620
▁unichrome	-12621
▁curiousity	-12622
▁deactivated	-12623
▁descriptions	-12624
▁disappointed	-12625
▁initialization	-12626
-08	-12627
320	-12628
flo	-12629
▁hs	-12630
586.	-12631
▁901	-12632
▁cad	-12633
▁sox	-12634
oster	-12635
▁eric	-12636
graded	-12637
▁convo	-12638
-2.6.12	-12639
▁reserve	-12640
recursive	-12641
▁goodness	-12642
▁bootstrap	-12643
▁transform	-12644
3.0	-12645
ece	-12646
ney	-12647
▁jp	-12648
lemm	-12649
oded	-12650
▁771	-12651
▁ast	-12652
86-64	-12653
pulse	-12654
stype	-12655
▁-2.0	-12656
▁1234	-12657
▁3306	-12658
▁alas	-12659
▁genu	-12660
▁publ	-12661
▁chuck	-12662
▁sparc	-12663
▁vmnet	-12664
ldonkey	-12665
▁2.6.22	-12666
▁hungry	-12667
▁reffer	-12668
▁xinput	-12669
activate	-12670
▁cracked	-12671
▁selects	-12672
▁silicon	-12673
▁harmless	-12674
▁optimize	-12675
▁connectors	-12676
▁extraction	-12677
▁vulnerable	-12678
▁authorization	-12679
240	-12680
▁ez	-12681
fall	-12682
▁7.4	-12683
▁rhyt	-12684
▁grubs	-12685
▁loged	-12686
▁sysfs	-12687
-------	-12688
▁alredy	-12689
▁privel	-12690
▁ripper	-12691
▁sebseb	-12692
▁unhide	-12693
▁altough	-12694
▁cameras	-12695
▁myspace	-12696
▁exporting	-12697
▁logrotate	-12698
▁descriptor	-12699
▁downloadable	-12700
79	-12701
860	-12702
hmm	-12703
irq	-12704
kar	-12705
ppa	-12706
who	-12707
▁ws	-12708
▁yr	-12709
airo	-12710
jjjj	-12711
▁mun	-12712
▁ric	-12713
▁sdx	-12714
▁ttl	-12715
ology	-12716
shome	-12717
▁vast	-12718
asking	-12719
burner	-12720
sector	-12721
verify	-12722
▁aimed	-12723
▁bless	-12724
▁inbox	-12725
devices	-12726
▁hanged	-12727
▁idiots	-12728
▁pseudo	-12729
▁roller	-12730
keyboard	-12731
▁appname	-12732
▁easytag	-12733
▁pending	-12734
▁charging	-12735
▁kerberos	-12736
▁192.168.1	-12737
dbg	-12738
wos	-12739
▁ea	-12740
dont	-12741
ptic	-12742
rick	-12743
▁eek	-12744
▁hol	-12745
▁cafe	-12746
▁dans	-12747
▁enum	-12748
▁mond	-12749
shrink	-12750
verbose	-12751
▁regret	-12752
▁stanza	-12753
▁scribus	-12754
▁concerns	-12755
▁windowed	-12756
▁artifacts	-12757
architecture	-12758
-'	-12759
sr	-12760
-17	-12761
cert	-12762
cifs	-12763
wrap	-12764
▁sof	-12765
▁ure	-12766
spire	-12767
▁5901	-12768
▁lscp	-12769
▁mous	-12770
▁paul	-12771
▁vital	-12772
meeting	-12773
▁appeare	-12774
▁siemens	-12775
▁overview	-12776
▁rotation	-12777
▁principle	-12778
▁worthless	-12779
▁introduced	-12780
▁unreliable	-12781
▁interfering	-12782
▁consistently	-12783
▁semiconductor	-12784
hk	-12785
gbs	-12786
lat	-12787
▁rp	-12788
iler	-12789
lags	-12790
▁aur	-12791
▁wii	-12792
watch	-12793
▁abot	-12794
▁cact	-12795
▁chun	-12796
▁emes	-12797
▁etho	-12798
▁savv	-12799
▁adven	-12800
▁miser	-12801
▁debain	-12802
▁hijack	-12803
▁stylus	-12804
▁tought	-12805
ulations	-12806
▁chkroot	-12807
▁verizon	-12808
▁migration	-12809
▁allocation	-12810
▁navigating	-12811
▁subjective	-12812
▁expressions	-12813
ctu	-12814
▁79	-12815
▁222	-12816
▁dip	-12817
▁roy	-12818
▁6667	-12819
▁anon	-12820
▁ibus	-12821
▁nali	-12822
▁rend	-12823
▁thick	-12824
▁numpad	-12825
▁freedos	-12826
▁shuffle	-12827
▁chatroom	-12828
▁confirms	-12829
▁probable	-12830
▁multicast	-12831
▁comparable	-12832
▁destroying	-12833
▁guarantees	-12834
▁priveleges	-12835
▁winetricks	-12836
49	-12837
360	-12838
arts	-12839
uego	-12840
zing	-12841
▁kar	-12842
▁kool	-12843
▁brave	-12844
▁chris	-12845
▁datac	-12846
▁devfs	-12847
▁iotop	-12848
▁arabic	-12849
▁pubkey	-12850
etection	-12851
▁bothers	-12852
▁architec	-12853
▁eeebuntu	-12854
▁assistant	-12855
environment	-12856
▁clearlooks	-12857
▁meaningful	-12858
▁simplicity	-12859
.19	-12860
die	-12861
uer	-12862
▁dp	-12863
▁eq	-12864
logd	-12865
pcap	-12866
rite	-12867
than	-12868
▁han	-12869
▁tid	-12870
alloc	-12871
otify	-12872
storm	-12873
▁9500	-12874
▁exer	-12875
▁pear	-12876
▁wack	-12877
coming	-12878
static	-12879
▁crank	-12880
▁doest	-12881
between	-12882
▁polish	-12883
▁analyze	-12884
▁knowled	-12885
▁libgpod	-12886
▁reviews	-12887
▁someway	-12888
blacklist	-12889
▁doubtful	-12890
▁defective	-12891
▁instaling	-12892
▁additionally	-12893
87	-12894
510	-12895
has	-12896
▁wt	-12897
-173	-12898
anth	-12899
clip	-12900
▁130	-12901
▁384	-12902
▁tam	-12903
▁unk	-12904
▁9550	-12905
▁mile	-12906
▁vost	-12907
▁woke	-12908
cprobe	-12909
reader	-12910
verter	-12911
▁boxen	-12912
▁freec	-12913
▁girls	-12914
▁mknod	-12915
looking	-12916
aaaaaaaa	-12917
▁caution	-12918
alternate	-12919
▁daughter	-12920
▁libmysql	-12921
▁motorola	-12922
▁powering	-12923
▁avaliable	-12924
▁xulrunner	-12925
▁overclocking	-12926
kt	-12927
squ	-12928
768'	-12929
▁bod	-12930
icted	-12931
▁insu	-12932
▁lend	-12933
racted	-12934
▁north	-12935
▁digits	-12936
▁logoff	-12937
▁polite	-12938
▁reburn	-12939
▁billion	-12940
▁easybcd	-12941
▁flashed	-12942
▁foremost	-12943
▁scanners	-12944
▁numbering	-12945
▁derivative	-12946
▁identifies	-12947
hrs	-12948
lad	-12949
1211	-12950
orig	-12951
uage	-12952
walk	-12953
yeah	-12954
▁ine	-12955
▁oic	-12956
▁ppd	-12957
▁sse	-12958
▁wik	-12959
▁maya	-12960
▁netf	-12961
▁pade	-12962
▁roms	-12963
▁align	-12964
▁instll	-12965
▁multis	-12966
▁wastrel	-12967
▁gnutella	-12968
▁organize	-12969
▁hierarchy	-12970
▁primaries	-12971
▁sebsebseb	-12972
.20	-12973
blk	-12974
ivi	-12975
sus	-12976
▁ml	-12977
gian	-12978
▁101	-12979
▁drum	-12980
▁evms	-12981
▁gett	-12982
▁ides	-12983
▁rxvt	-12984
▁ubub	-12985
▁yast	-12986
berish	-12987
▁ooops	-12988
▁packed	-12989
▁retype	-12990
▁terror	-12991
activity	-12992
existing	-12993
ssssssss	-12994
▁doesnot	-12995
▁nalioth	-12996
▁voltage	-12997
▁hardwire	-12998
▁linspire	-12999
▁uvcvideo	-13000
▁symlinked	-13001
▁transport	-13002
▁firewalling	-13003
▁installtion	-13004
▁streamtuner	-13005
jav	-13006
unct	-13007
▁10'	-13008
▁acls	-13009
▁cust	-13010
▁guyz	-13011
▁debate	-13012
▁disown	-13013
▁insall	-13014
▁suspic	-13015
▁wicked	-13016
▁amongst	-13017
▁freezed	-13018
▁hcitool	-13019
▁overlap	-13020
▁pasword	-13021
▁extracts	-13022
▁installl	-13023
▁teaching	-13024
▁appending	-13025
▁calculator	-13026
▁interpreted	-13027
▁referencing	-13028
bby	-13029
bes	-13030
efi	-13031
itz	-13032
▁62	-13033
ists	-13034
lest	-13035
▁bra	-13036
▁saa	-13037
esity	-13038
▁11.4	-13039
▁geez	-13040
▁kios	-13041
▁libm	-13042
▁miro	-13043
ptions	-13044
▁hesit	-13045
▁rigth	-13046
▁chooses	-13047
▁unaware	-13048
▁wrongly	-13049
▁alphabet	-13050
▁presents	-13051
▁unsuccess	-13052
▁registration	-13053
▁ka	-13054
attr	-13055
ride	-13056
▁550	-13057
▁9.4	-13058
▁sno	-13059
field	-13060
▁cree	-13061
header	-13062
▁grief	-13063
▁infer	-13064
▁progr	-13065
▁sansa	-13066
▁stale	-13067
console	-13068
▁autofs	-13069
▁partly	-13070
▁rolled	-13071
▁vesafb	-13072
▁nothign	-13073
▁anyother	-13074
▁repaired	-13075
▁makefiles	-13076
▁intentionally	-13077
hdd	-13078
wma	-13079
▁frm	-13080
arena	-13081
▁food	-13082
▁blown	-13083
▁jedit	-13084
convert	-13085
▁commad	-13086
▁invite	-13087
▁league	-13088
▁libata	-13089
▁noobie	-13090
▁assigns	-13091
▁guesses	-13092
▁linuxes	-13093
▁relates	-13094
▁conexant	-13095
▁visually	-13096
kl	-13097
uy	-13098
-96	-13099
gid	-13100
▁nf	-13101
amer	-13102
rock	-13103
rxvt	-13104
▁cfg	-13105
▁cha	-13106
usive	-13107
ensors	-13108
monkey	-13109
though	-13110
▁12345	-13111
▁canad	-13112
▁harsh	-13113
▁noisy	-13114
limited	-13115
▁linuxm	-13116
▁makers	-13117
▁monday	-13118
▁opport	-13119
▁vostro	-13120
▁emesene	-13121
▁keylogg	-13122
▁utterly	-13123
▁checksums	-13124
▁unclaimed	-13125
850	-13126
aud	-13127
gtx	-13128
uct	-13129
▁pp	-13130
anda	-13131
▁444	-13132
▁doo	-13133
▁emm	-13134
▁ens	-13135
▁loo	-13136
▁nin	-13137
▁prt	-13138
ample	-13139
▁josh	-13140
▁reso	-13141
▁tour	-13142
▁tyvm	-13143
▁vars	-13144
▁mailx	-13145
-2.6.20	-13146
scanner	-13147
secured	-13148
▁soreau	-13149
▁coincid	-13150
▁operand	-13151
▁blanking	-13152
▁frequent	-13153
▁partners	-13154
▁splitting	-13155
▁subsequent	-13156
4_	-13157
-177	-13158
-2.4	-13159
flac	-13160
fuly	-13161
iong	-13162
laim	-13163
pref	-13164
amond	-13165
first	-13166
▁2500	-13167
▁crop	-13168
▁konw	-13169
▁thnk	-13170
▁prett	-13171
▁solely	-13172
▁tryied	-13173
▁cryptic	-13174
▁lockups	-13175
▁persons	-13176
▁probelm	-13177
▁reduced	-13178
▁vboxdrv	-13179
▁analysis	-13180
▁reaching	-13181
▁intermedi	-13182
▁defoptions	-13183
▁portuguese	-13184
▁savedefault	-13185
uri	-13186
late	-13187
▁cub	-13188
▁tue	-13189
▁lisp	-13190
▁woul	-13191
bility	-13192
▁hitch	-13193
▁progg	-13194
▁scand	-13195
▁shots	-13196
▁stdio	-13197
▁young	-13198
▁annoys	-13199
▁hostap	-13200
▁chicken	-13201
▁consume	-13202
▁defeats	-13203
▁walking	-13204
▁mkinitrd	-13205
▁umounted	-13206
▁shrinking	-13207
▁chkrootkit	-13208
▁guidelines	-13209
▁association	-13210
350	-13211
iva	-13212
raf	-13213
.0-0	-13214
illo	-13215
mart	-13216
pent	-13217
▁dry	-13218
▁tia	-13219
tions	-13220
uster	-13221
versa	-13222
▁albe	-13223
▁fade	-13224
writer	-13225
▁gunna	-13226
▁padev	-13227
▁updat	-13228
running	-13229
▁pauses	-13230
▁phenom	-13231
▁equivil	-13232
▁meeting	-13233
▁mldonkey	-13234
▁unlocked	-13235
▁variants	-13236
modaliases	-13237
▁blackberry	-13238
▁mysqladmin	-13239
.0_	-13240
oon	-13241
▁1-	-13242
-4.1	-13243
▁kal	-13244
oenix	-13245
▁cast	-13246
▁ency	-13247
▁fuss	-13248
▁konq	-13249
▁lolz	-13250
▁rant	-13251
▁snes	-13252
andros	-13253
umbers	-13254
▁feeds	-13255
▁inapp	-13256
▁moron	-13257
▁pysdm	-13258
▁relog	-13259
▁scrap	-13260
▁turbo	-13261
▁witht	-13262
▁flying	-13263
▁hellow	-13264
▁trojan	-13265
▁diagram	-13266
▁hunting	-13267
▁probing	-13268
▁shadows	-13269
▁keypress	-13270
▁countries	-13271
▁thumbnail	-13272
▁reccommend	-13273
420	-13274
dle	-13275
fill	-13276
otes	-13277
poll	-13278
site	-13279
iable	-13280
ioned	-13281
▁crit	-13282
▁hola	-13283
▁mbps	-13284
▁mong	-13285
▁slice	-13286
▁trade	-13287
▁wonky	-13288
startup	-13289
▁gmount	-13290
▁learnt	-13291
▁virgin	-13292
▁isolate	-13293
▁nividia	-13294
▁treated	-13295
▁defining	-13296
▁rhytmbox	-13297
▁impatient	-13298
-2.6.22-14-	-13299
▁beautifully	-13300
thx	-13301
▁neo	-13302
▁wud	-13303
▁dram	-13304
▁leds	-13305
▁sums	-13306
▁arena	-13307
▁dudes	-13308
▁steve	-13309
▁bundle	-13310
▁connet	-13311
▁mshome	-13312
▁defunct	-13313
▁destruct	-13314
▁foomatic	-13315
▁freeware	-13316
▁toolchain	-13317
▁bookmarked	-13318
▁overlapping	-13319
▁padevchooser	-13320
-.	-13321
iges	-13322
▁naw	-13323
▁phy	-13324
▁4200	-13325
▁club	-13326
▁gunt	-13327
▁spew	-13328
▁cacti	-13329
▁geeks	-13330
▁piped	-13331
▁judging	-13332
▁accesses	-13333
▁spitting	-13334
▁publickey	-13335
▁whereever	-13336
▁apparantly	-13337
47	-13338
ipt	-13339
ivo	-13340
▁71	-13341
antu	-13342
ivel	-13343
ogle	-13344
uuuu	-13345
were	-13346
▁270	-13347
▁acr	-13348
▁inn	-13349
▁oot	-13350
cated	-13351
▁6100	-13352
▁7800	-13353
▁pins	-13354
▁sexy	-13355
▁yaku	-13356
▁grade	-13357
▁tulip	-13358
ensions	-13359
▁driven	-13360
▁gentle	-13361
▁legend	-13362
▁viable	-13363
▁anythin	-13364
▁pacakges	-13365
▁polished	-13366
▁silently	-13367
▁abilities	-13368
▁multiboot	-13369
▁unlimited	-13370
▁bottleneck	-13371
▁directorys	-13372
▁improperly	-13373
▁recreating	-13374
▁throughput	-13375
▁spreadsheet	-13376
gon	-13377
9999	-13378
▁ger	-13379
▁ies	-13380
▁ios	-13381
▁1100	-13382
▁tomm	-13383
before	-13384
▁drunk	-13385
▁ioctl	-13386
artment	-13387
bernate	-13388
▁beauty	-13389
▁fesity	-13390
▁cafuego	-13391
▁circles	-13392
▁readout	-13393
▁windwos	-13394
▁stations	-13395
▁compliant	-13396
▁unchanged	-13397
▁experiance	-13398
▁mainstream	-13399
chm	-13400
ablo	-13401
orad	-13402
▁113	-13403
▁feb	-13404
▁feh	-13405
▁ina	-13406
▁mdf	-13407
▁mne	-13408
ottle	-13409
▁misc	-13410
▁spat	-13411
▁crawl	-13412
▁pirate	-13413
▁ticket	-13414
▁autogen	-13415
▁focused	-13416
▁marking	-13417
▁reprodu	-13418
▁governor	-13419
▁existence	-13420
▁internets	-13421
▁fontconfig	-13422
▁virtualhost	-13423
vr	-13424
byte	-13425
inet	-13426
ingu	-13427
▁260	-13428
▁gal	-13429
range	-13430
▁-386	-13431
▁airo	-13432
▁libe	-13433
▁trml	-13434
▁sight	-13435
▁urxvt	-13436
▁winex	-13437
develop	-13438
▁flakey	-13439
▁moblin	-13440
▁remark	-13441
faulting	-13442
launcher	-13443
▁enought	-13444
▁newuser	-13445
▁propose	-13446
▁yakuake	-13447
▁likewise	-13448
▁textmode	-13449
▁netfilter	-13450
▁privilages	-13451
▁manufacture	-13452
▁reccomended	-13453
▁customizable	-13454
1.9	-13455
3.4	-13456
idi	-13457
ctly	-13458
gzoo	-13459
▁gos	-13460
▁mik	-13461
▁sco	-13462
stack	-13463
▁acet	-13464
▁1.0.4	-13465
without	-13466
▁aptget	-13467
▁bugfix	-13468
▁proftp	-13469
▁tzdata	-13470
missions	-13471
▁direcot	-13472
▁enlarge	-13473
▁sucking	-13474
▁autohide	-13475
▁filesize	-13476
▁evidently	-13477
▁generator	-13478
▁gibberish	-13479
▁specialized	-13480
▁inappropriate	-13481
xd	-13482
010	-13483
ady	-13484
tux	-13485
▁pf	-13486
▁xc	-13487
▁lun	-13488
▁ske	-13489
▁wih	-13490
▁wpc	-13491
▁amen	-13492
▁anot	-13493
86_64.	-13494
dering	-13495
▁norwe	-13496
▁unatt	-13497
stalled	-13498
▁arrive	-13499
▁dvdrip	-13500
▁expans	-13501
▁libpam	-13502
▁margin	-13503
▁punctu	-13504
▁netflix	-13505
▁canadian	-13506
▁ddcprobe	-13507
▁editting	-13508
▁evidence	-13509
▁netscape	-13510
▁propriat	-13511
▁viewable	-13512
▁attribute	-13513
▁capturing	-13514
▁equalizer	-13515
▁keystroke	-13516
▁published	-13517
▁rectangle	-13518
▁unsecured	-13519
▁unconfigured	-13520
▁conversations	-13521
-2.	-13522
tih	-13523
▁7'	-13524
▁rj	-13525
▁mbs	-13526
▁2.14	-13527
▁lied	-13528
▁budget	-13529
▁hashes	-13530
▁mathem	-13531
▁takers	-13532
▁vhosts	-13533
▁conserv	-13534
▁twitter	-13535
▁facility	-13536
▁stupidly	-13537
▁bittorent	-13538
▁excessive	-13539
▁suffering	-13540
▁exceptions	-13541
▁distupgrade	-13542
▁windowmanager	-13543
lss	-13544
oob	-13545
▁jk	-13546
arly	-13547
note	-13548
▁8.2	-13549
▁giz	-13550
▁cart	-13551
▁lapp	-13552
▁spca	-13553
▁zend	-13554
▁overs	-13555
▁resid	-13556
▁shold	-13557
theless	-13558
▁layers	-13559
▁retail	-13560
▁legally	-13561
▁appended	-13562
▁guntbert	-13563
▁throttle	-13564
▁continued	-13565
▁correcting	-13566
▁gsynaptics	-13567
▁inactivity	-13568
▁throttling	-13569
▁desperately	-13570
▁continuously	-13571
▁hyperthreading	-13572
▁incompatibility	-13573
door	-13574
uter	-13575
▁15'	-13576
▁crc	-13577
▁twm	-13578
tings	-13579
▁chew	-13580
▁role	-13581
▁thks	-13582
▁tone	-13583
export	-13584
velope	-13585
engines	-13586
▁daniel	-13587
▁fixres	-13588
▁rating	-13589
▁rootfs	-13590
▁topics	-13591
▁frogzoo	-13592
▁modeset	-13593
▁isolated	-13594
▁quitting	-13595
▁runnning	-13596
▁squirrel	-13597
▁notebooks	-13598
▁pavillion	-13599
▁foundation	-13600
▁noticeable	-13601
▁doubleclick	-13602
▁certificates	-13603
63	-13604
432	-13605
bey	-13606
oft	-13607
uxe	-13608
1950	-13609
▁bay	-13610
owned	-13611
hidden	-13612
opengl	-13613
▁dvdrw	-13614
▁iscsi	-13615
▁loves	-13616
▁rearr	-13617
▁tiger	-13618
▁union	-13619
-2.6.32	-13620
routing	-13621
▁enters	-13622
▁orphan	-13623
▁arround	-13624
▁blueman	-13625
▁compose	-13626
▁flagged	-13627
▁tapping	-13628
▁xandros	-13629
▁debugger	-13630
▁erroring	-13631
▁gateways	-13632
▁simplify	-13633
▁usbstick	-13634
▁introduce	-13635
▁categories	-13636
▁conditions	-13637
▁redundancy	-13638
▁malfunction	-13639
▁segfaulting	-13640
▁virtualized	-13641
▁intermittent	-13642
▁relationship	-13643
oz	-13644
▁gx	-13645
cted	-13646
gate	-13647
geek	-13648
okay	-13649
uuid	-13650
▁040	-13651
▁gno	-13652
▁req	-13653
▁grin	-13654
associ	-13655
iation	-13656
▁dated	-13657
▁views	-13658
velinux	-13659
▁2.6.30	-13660
▁resist	-13661
▁cleanup	-13662
▁crippled	-13663
▁discovery	-13664
▁installin	-13665
▁metapackages	-13666
▁splashscreen	-13667
gun	-13668
ipp	-13669
mes	-13670
pls	-13671
▁hg	-13672
eded	-13673
▁gap	-13674
chunk	-13675
front	-13676
whats	-13677
▁shou	-13678
▁blues	-13679
▁equivel	-13680
▁folding	-13681
▁visited	-13682
▁inclined	-13683
▁norwegian	-13684
▁providers	-13685
▁xorgconfig	-13686
▁disappearing	-13687
cv	-13688
ams	-13689
hoo	-13690
swf	-13691
wei	-13692
▁61	-13693
2.4-	-13694
dddd	-13695
join	-13696
lank	-13697
plow	-13698
rdao	-13699
▁ark	-13700
▁ish	-13701
▁lok	-13702
▁nbr	-13703
▁unde	-13704
▁haupp	-13705
▁padsp	-13706
▁stefg	-13707
▁stone	-13708
▁toler	-13709
mounter	-13710
removal	-13711
▁popups	-13712
▁apropos	-13713
▁expired	-13714
▁phoenix	-13715
▁tracert	-13716
▁editable	-13717
▁incorpor	-13718
▁laserjet	-13719
▁oldconfig	-13720
▁sentences	-13721
▁seperated	-13722
▁templates	-13723
▁occasional	-13724
▁throughout	-13725
▁restrictive	-13726
▁reconnecting	-13727
3_	-13728
-22	-13729
bob	-13730
▁ej	-13731
2870	-13732
ando	-13733
▁105	-13734
▁bli	-13735
▁gsm	-13736
▁ham	-13737
▁les	-13738
▁lou	-13739
lucid	-13740
▁4965	-13741
▁argu	-13742
▁fift	-13743
▁gest	-13744
▁mbox	-13745
▁tmux	-13746
▁yall	-13747
▁yout	-13748
▁apear	-13749
▁jacks	-13750
clients	-13751
▁jackal	-13752
▁ndiswr	-13753
▁nearby	-13754
▁stages	-13755
▁xvideo	-13756
aldomain	-13757
▁artwork	-13758
▁efforts	-13759
▁ejected	-13760
▁finnish	-13761
▁pleased	-13762
▁submenu	-13763
▁teminal	-13764
▁usbcore	-13765
▁designer	-13766
▁navigation	-13767
▁pastebinned	-13768
▁nevertheless	-13769
▁pendrivelinux	-13770
▁specification	-13771
quis	-13772
ssid	-13773
▁chn	-13774
▁crw	-13775
▁smc	-13776
▁une	-13777
▁zon	-13778
bably	-13779
thank	-13780
▁alco	-13781
▁vagu	-13782
ission	-13783
▁draws	-13784
▁etter	-13785
▁albeit	-13786
▁antial	-13787
▁dollar	-13788
▁quadro	-13789
▁travel	-13790
▁pluggin	-13791
▁squares	-13792
▁wrapped	-13793
▁envelope	-13794
▁labelled	-13795
▁somwhere	-13796
▁struggle	-13797
▁yourfile	-13798
▁presuming	-13799
▁suspended	-13800
▁punctuation	-13801
▁synchronize	-13802
▁adminstration	-13803
960	-13804
awk	-13805
misc	-13806
snap	-13807
▁-15	-13808
▁ima	-13809
▁rul	-13810
▁dled	-13811
▁west	-13812
nvidia	-13813
router	-13814
▁raids	-13815
▁sshed	-13816
▁ubunu	-13817
▁units	-13818
▁8.04.2	-13819
▁connec	-13820
▁graphs	-13821
▁newegg	-13822
▁printf	-13823
▁crystal	-13824
▁hahahah	-13825
▁looping	-13826
▁michael	-13827
▁premium	-13828
▁tunnels	-13829
▁feasible	-13830
▁logfiles	-13831
▁diffrence	-13832
▁everyting	-13833
▁macintosh	-13834
▁drwxrwxrwx	-13835
▁modulename	-13836
▁incremental	-13837
▁sucessfully	-13838
133	-13839
ige	-13840
igg	-13841
lah	-13842
nds	-13843
alib	-13844
▁scd	-13845
▁wxp	-13846
orted	-13847
▁negot	-13848
▁ooooo	-13849
▁usbfs	-13850
privile	-13851
▁2.6.31	-13852
▁runnig	-13853
▁threat	-13854
▁tuning	-13855
▁unkown	-13856
▁weekly	-13857
checking	-13858
defaults	-13859
▁liblame	-13860
▁whining	-13861
▁exploits	-13862
▁rkhunter	-13863
▁training	-13864
▁untarred	-13865
▁agreement	-13866
▁speedstep	-13867
▁timestamps	-13868
▁determining	-13869
▁communicating	-13870
ij	-13871
-24	-13872
gcc	-13873
▁ore	-13874
cmail	-13875
▁1300	-13876
▁dban	-13877
▁kore	-13878
▁adequ	-13879
▁backt	-13880
▁clips	-13881
▁errno	-13882
▁monos	-13883
▁poker	-13884
▁spect	-13885
▁stumb	-13886
minutes	-13887
▁cdrdao	-13888
▁pitivi	-13889
▁webkit	-13890
▁modular	-13891
▁predict	-13892
▁overcome	-13893
▁pipeline	-13894
▁reattach	-13895
▁seamless	-13896
▁playlists	-13897
▁appearence	-13898
▁postrouting	-13899
-64	-13900
hen	-13901
ivly	-13902
utor	-13903
vesa	-13904
▁mfc	-13905
ategy	-13906
menus	-13907
quiet	-13908
stein	-13909
▁bulk	-13910
▁sarc	-13911
▁sbin	-13912
▁yank	-13913
struct	-13914
▁balls	-13915
▁dells	-13916
▁prone	-13917
▁proto	-13918
▁addres	-13919
▁aspell	-13920
▁famous	-13921
▁freind	-13922
▁sooooo	-13923
▁licence	-13924
▁definatly	-13925
▁producing	-13926
▁programmed	-13927
▁flexibility	-13928
▁independently	-13929
hg	-13930
511	-13931
8.4	-13932
arg	-13933
dig	-13934
ham	-13935
▁84	-13936
▁oi	-13937
2.2-	-13938
oted	-13939
▁fot	-13940
▁jut	-13941
▁mah	-13942
▁mpc	-13943
conds	-13944
▁abou	-13945
▁film	-13946
▁ntsc	-13947
▁whos	-13948
coding	-13949
▁scree	-13950
▁apears	-13951
▁appric	-13952
▁outage	-13953
▁resemb	-13954
▁tester	-13955
▁upside	-13956
▁semicol	-13957
▁staring	-13958
▁bootload	-13959
▁inconven	-13960
▁unsecure	-13961
▁userland	-13962
▁advertise	-13963
▁winetools	-13964
▁neccessary	-13965
▁overlooked	-13966
▁opportunity	-13967
▁insufficient	-13968
lh	-13969
sb	-13970
xs	-13971
mbs	-13972
uls	-13973
▁94	-13974
▁wb	-13975
8859	-13976
adda	-13977
atim	-13978
naut	-13979
noth	-13980
▁210	-13981
▁855	-13982
▁eht	-13983
▁sau	-13984
anbul	-13985
route	-13986
▁burg	-13987
▁htat	-13988
▁ntop	-13989
tables	-13990
▁drawn	-13991
▁kmail	-13992
▁polit	-13993
conkyrc	-13994
▁spring	-13995
▁whould	-13996
notifier	-13997
▁vaguely	-13998
▁misleading	-13999
▁variations	-14000
.15	-14001
256	-14002
azz	-14003
fan	-14004
oder	-14005
▁125	-14006
eling	-14007
▁9700	-14008
▁acut	-14009
▁arse	-14010
▁ogle	-14011
▁pdft	-14012
▁xfwm	-14013
▁zope	-14014
remote	-14015
unless	-14016
▁acron	-14017
▁encry	-14018
▁notor	-14019
▁roomm	-14020
burning	-14021
▁alread	-14022
▁chanel	-14023
▁discon	-14024
snapshot	-14025
▁arguing	-14026
▁cursors	-14027
▁fuseblk	-14028
▁googles	-14029
[...]
