<pad>	0
<unk>	0
<sos>	0
<eos>	0
▁__url__	0
▁__path__	0
▁__ip__	0
▁__eot__	0
▁__user__	0
▁i	-0
▁t	-1
▁a	-2
▁th	-3
▁s	-4
▁w	-5
in	-6
er	-7
ou	-8
▁d	-9
▁the	-10
on	-11
▁c	-12
re	-13
▁m	-14
at	-15
▁n	-16
▁h	-17
or	-18
▁f	-19
▁b	-20
▁to	-21
st	-22
▁.	-23
▁y	-24
an	-25
ll	-26
ing	-27
▁p	-28
▁it	-29
ot	-30
▁u	-31
▁you	-32
▁an	-33
▁in	-34
es	-35
ed	-36
▁is	-37
▁l	-38
en	-39
▁g	-40
ow	-41
et	-42
om	-43
it	-44
▁wh	-45
ve	-46
▁do	-47
▁o	-48
▁ha	-49
▁and	-50
le	-51
▁not	-52
▁that	-53
ut	-54
all	-55
ar	-56
▁on	-57
▁re	-58
un	-59
se	-60
ion	-61
ic	-62
▁have	-63
ver	-64
▁can	-65
▁r	-66
ld	-67
▁e	-68
ac	-69
stall	-70
is	-71
▁for	-72
tu	-73
ay	-74
▁be	-75
id	-76
▁of	-77
▁k	-78
ere	-79
▁what	-80
ro	-81
▁install	-82
▁su	-83
ith	-84
▁fi	-85
▁but	-86
as	-87
ad	-88
▁tr	-89
▁with	-90
▁my	-91
ould	-92
pt	-93
ec	-94
al	-95
el	-96
▁us	-97
am	-98
ill	-99
bun	-100
buntu	-101
ig	-102
ork	-103
▁j	-104
ble	-105
▁-	-106
▁any	-107
▁me	-108
out	-109
▁if	-110
▁ne	-111
ke	-112
▁pro	-113
▁lo	-114
▁how	-115
ust	-116
▁ubuntu	-117
ly	-118
▁li	-119
ri	-120
▁com	-121
ag	-122
▁st	-123
▁sh	-124
▁so	-125
▁are	-126
ind	-127
▁just	-128
▁or	-129
▁se	-130
▁ch	-131
art	-132
▁am	-133
▁work	-134
ome	-135
▁up	-136
▁try	-137
oun	-138
▁as	-139
pp	-140
ent	-141
▁there	-142
▁your	-143
od	-144
ess	-145
em	-146
▁get	-147
▁this	-148
oot	-149
ack	-150
▁will	-151
rom	-152
▁con	-153
▁does	-154
▁no	-155
hing	-156
ter	-157
op	-158
▁use	-159
▁v	-160
▁from	-161
▁then	-162
▁kn	-163
▁al	-164
do	-165
ht	-166
ch	-167
one	-168
▁know	-169
▁de	-170
▁go	-171
▁run	-172
▁ex	-173
ant	-174
▁dri	-175
ell	-176
▁lin	-177
▁x	-178
▁need	-179
and	-180
▁did	-181
▁sudo	-182
▁un	-183
▁all	-184
▁at	-185
im	-186
▁ma	-187
ally	-188
ate	-189
▁when	-190
ight	-191
il	-192
her	-193
ce	-194
▁some	-195
ore	-196
ame	-197
ct	-198
▁di	-199
▁want	-200
▁like	-201
age	-202
▁1	-203
▁one	-204
▁sy	-205
▁would	-206
ows	-207
ect	-208
▁file	-209
▁should	-210
ks	-211
▁comp	-212
▁out	-213
blem	-214
▁problem	-215
ul	-216
▁ad	-217
▁see	-218
▁now	-219
ine	-220
elp	-221
▁was	-222
ount	-223
▁help	-224
▁sc	-225
▁apt	-226
ort	-227
▁wind	-228
ard	-229
de	-230
▁using	-231
▁part	-232
lo	-233
other	-234
gr	-235
▁than	-236
vers	-237
▁set	-238
▁comm	-239
ation	-240
ab	-241
ur	-242
ound	-243
own	-244
▁boot	-245
ink	-246
ang	-247
os	-248
est	-249
ff	-250
are	-251
▁ok	-252
so	-253
▁ac	-254
▁installed	-255
ast	-256
▁ab	-257
ok	-258
oug	-259
▁pack	-260
▁make	-261
qu	-262
pen	-263
ition	-264
stem	-265
get	-266
▁its	-267
erm	-268
▁gr	-269
▁think	-270
▁command	-271
▁windows	-272
▁man	-273
▁pl	-274
able	-275
not	-276
▁find	-277
pe	-278
les	-279
▁ser	-280
very	-281
▁er	-282
ux	-283
nt	-284
fig	-285
▁cannot	-286
▁say	-287
con	-288
ror	-289
us	-290
▁mount	-291
▁about	-292
ain	-293
ont	-294
▁im	-295
▁yes	-296
▁dis	-297
▁partition	-298
ir	-299
pl	-300
▁rem	-301
▁som	-302
▁gu	-303
▁error	-304
▁only	-305
▁2	-306
▁system	-307
▁int	-308
ach	-309
rect	-310
▁somet	-311
ning	-312
ting	-313
▁cd	-314
▁app	-315
▁could	-316
um	-317
ich	-318
▁add	-319
▁linux	-320
▁sure	-321
▁en	-322
ox	-323
ough	-324
ase	-325
▁right	-326
ied	-327
▁which	-328
ap	-329
▁way	-330
ers	-331
▁anyone	-332
thing	-333
▁has	-334
ia	-335
eck	-336
▁net	-337
▁why	-338
▁files	-339
nel	-340
our	-341
▁look	-342
▁chang	-343
▁other	-344
▁we	-345
▁he	-346
ub	-347
li	-348
▁something	-349
res	-350
nect	-351
▁qu	-352
ions	-353
▁new	-354
▁mod	-355
▁by	-356
▁check	-357
ice	-358
ult	-359
▁open	-360
▁back	-361
▁trying	-362
ick	-363
00	-364
▁log	-365
reen	-366
der	-367
▁where	-368
▁mean	-369
ol	-370
▁them	-371
▁connect	-372
▁start	-373
▁server	-374
▁more	-375
rd	-376
ure	-377
ost	-378
ive	-379
▁thing	-380
▁may	-381
apt	-382
▁down	-383
inal	-384
▁well	-385
▁got	-386
▁ty	-387
ide	-388
▁tim	-389
▁upd	-390
▁tried	-391
ry	-392
ash	-393
▁term	-394
cess	-395
▁running	-396
▁af	-397
au	-398
if	-399
▁still	-400
▁same	-401
▁they	-402
▁hard	-403
▁package	-404
▁screen	-405
up	-406
▁here	-407
▁card	-408
▁user	-409
ail	-410
ug	-411
▁sp	-412
work	-413
▁drive	-414
top	-415
ck	-416
ware	-417
▁ag	-418
▁gn	-419
sh	-420
▁root	-421
▁terminal	-422
.0	-423
esk	-424
▁ke	-425
▁thanks	-426
ory	-427
load	-428
iz	-429
▁fo	-430
▁network	-431
▁sa	-432
ite	-433
be	-434
ist	-435
▁after	-436
ire	-437
.1	-438
▁ker	-439
▁wr	-440
▁ye	-441
▁every	-442
esktop	-443
ace	-444
ade	-445
▁vers	-446
▁3	-447
ause	-448
ong	-449
▁kernel	-450
ue	-451
▁gnome	-452
ove	-453
▁tell	-454
▁dont	-455
▁time	-456
▁into	-457
▁rec	-458
▁grub	-459
▁read	-460
▁driver	-461
▁rep	-462
lease	-463
▁direct	-464
▁def	-465
▁sound	-466
per	-467
▁past	-468
▁config	-469
▁pre	-470
▁et	-471
ile	-472
▁working	-473
sw	-474
install	-475
▁ev	-476
ose	-477
▁fir	-478
▁also	-479
▁works	-480
vid	-481
tern	-482
▁type	-483
▁good	-484
▁anything	-485
ord	-486
▁supp	-487
▁bec	-488
▁version	-489
▁ed	-490
▁rest	-491
ages	-492
▁ide	-493
less	-494
▁change	-495
▁seem	-496
ated	-497
▁says	-498
way	-499
▁first	-500
▁opt	-501
end	-502
▁le	-503
▁had	-504
▁--	-505
ving	-506
▁ip	-507
ah	-508
ault	-509
▁download	-510
ies	-511
▁cl	-512
gram	-513
▁really	-514
▁stu	-515
▁desktop	-516
▁comput	-517
ft	-518
▁program	-519
▁update	-520
▁again	-521
▁live	-522
▁fire	-523
▁line	-524
▁because	-525
ree	-526
read	-527
▁paste	-528
▁fix	-529
▁too	-530
▁even	-531
▁sour	-532
fs	-533
act	-534
int	-535
▁diff	-536
▁res	-537
▁used	-538
vice	-539
▁nvid	-540
▁drivers	-541
▁bet	-542
▁please	-543
▁nvidia	-544
ress	-545
▁iss	-546
ity	-547
▁might	-548
▁ask	-549
▁list	-550
▁pas	-551
▁upgr	-552
fore	-553
▁under	-554
▁off	-555
▁aut	-556
▁6	-557
▁default	-558
iss	-559
▁mach	-560
config	-561
▁usb	-562
▁quest	-563
orry	-564
▁before	-565
▁fl	-566
▁put	-567
▁hi	-568
put	-569
og	-570
mm	-571
▁sw	-572
▁let	-573
.10	-574
orm	-575
ager	-576
▁play	-577
▁computer	-578
▁sec	-579
▁ext	-580
ep	-581
.04	-582
itor	-583
▁ar	-584
ready	-585
▁fe	-586
▁ssh	-587
▁differ	-588
▁maybe	-589
▁remove	-590
▁though	-591
boot	-592
▁hd	-593
▁already	-594
▁cor	-595
▁8	-596
▁sorry	-597
ip	-598
ys	-599
▁fine	-600
▁prob	-601
▁mess	-602
xt	-603
▁bl	-604
▁wire	-605
▁gre	-606
▁support	-607
▁access	-608
▁inst	-609
▁give	-610
▁br	-611
▁fold	-612
si	-613
▁load	-614
▁cont	-615
org	-616
▁happ	-617
▁show	-618
▁question	-619
▁nothing	-620
▁cre	-621
▁mu	-622
▁10	-623
ves	-624
th	-625
ak	-626
▁directory	-627
▁machine	-628
ty	-629
ript	-630
▁setting	-631
▁someone	-632
▁passw	-633
▁men	-634
▁much	-635
aptop	-636
app	-637
ces	-638
ary	-639
▁another	-640
ely	-641
▁laptop	-642
▁without	-643
bo	-644
▁bot	-645
▁syn	-646
▁able	-647
▁yeah	-648
▁ls	-649
play	-650
▁output	-651
▁0	-652
ably	-653
▁disk	-654
▁packages	-655
▁loc	-656
▁cant	-657
▁ent	-658
bin	-659
av	-660
▁name	-661
▁stuff	-662
▁been	-663
▁found	-664
▁rout	-665
▁happen	-666
▁thr	-667
fox	-668
▁wireless	-669
▁bu	-670
ber	-671
▁key	-672
▁po	-673
▁restart	-674
▁going	-675
▁cr	-676
lic	-677
▁over	-678
▁password	-679
▁4	-680
▁installing	-681
▁firefox	-682
▁reboot	-683
▁script	-684
▁probably	-685
▁menu	-686
▁bit	-687
dis	-688
▁device	-689
▁9	-690
▁seems	-691
▁thats	-692
▁5	-693
▁web	-694
▁vide	-695
▁actu	-696
▁deb	-697
ake	-698
ution	-699
▁click	-700
▁folder	-701
▁issue	-702
▁source	-703
▁eas	-704
▁pos	-705
▁lib	-706
▁7	-707
▁very	-708
▁spec	-709
ull	-710
▁repos	-711
▁manager	-712
ial	-713
conf	-714
▁tw	-715
pend	-716
ple	-717
▁old	-718
▁idea	-719
▁option	-720
ever	-721
▁edit	-722
▁done	-723
fer	-724
▁xorg	-725
kg	-726
▁upgrade	-727
aptic	-728
ually	-729
▁having	-730
▁correct	-731
▁perm	-732
ser	-733
▁pc	-734
▁cop	-735
▁different	-736
▁said	-737
▁per	-738
▁those	-739
▁doing	-740
▁synaptic	-741
▁box	-742
rent	-743
▁wrong	-744
▁getting	-745
di	-746
▁guess	-747
▁never	-748
▁sim	-749
ically	-750
▁intern	-751
▁fail	-752
▁sear	-753
▁possi	-754
▁port	-755
▁everything	-756
sol	-757
ous	-758
urn	-759
lf	-760
ie	-761
ata	-762
▁things	-763
▁through	-764
ond	-765
▁video	-766
▁who	-767
▁pastebin	-768
▁inf	-769
pkg	-770
▁pr	-771
ead	-772
▁flash	-773
ix	-774
▁el	-775
let	-776
▁login	-777
▁reinstall	-778
ache	-779
▁del	-780
▁plug	-781
ubuntu	-782
▁link	-783
▁better	-784
▁oh	-785
▁dpkg	-786
gg	-787
▁soft	-788
ual	-789
mod	-790
▁both	-791
▁hell	-792
▁os	-793
▁actually	-794
ince	-795
led	-796
min	-797
▁copy	-798
▁looking	-799
mb	-800
▁router	-801
▁exact	-802
▁point	-803
▁nt	-804
▁acc	-805
▁software	-806
▁etc	-807
▁te	-808
▁since	-809
▁search	-810
ize	-811
▁problems	-812
▁else	-813
ither	-814
▁gi	-815
▁cur	-816
▁permiss	-817
▁cli	-818
▁sl	-819
▁mon	-820
ge	-821
apper	-822
gl	-823
▁depend	-824
wh	-825
▁grep	-826
ence	-827
name	-828
▁home	-829
▁goog	-830
▁em	-831
ody	-832
▁ph	-833
▁resol	-834
▁av	-835
aph	-836
▁lot	-837
▁gui	-838
▁specif	-839
▁two	-840
▁settings	-841
rl	-842
▁possible	-843
ought	-844
▁free	-845
▁process	-846
▁hey	-847
self	-848
▁dist	-849
ild	-850
▁chan	-851
▁form	-852
ved	-853
▁ap	-854
▁min	-855
lect	-856
ways	-857
▁delet	-858
▁graph	-859
▁via	-860
▁hello	-861
▁take	-862
▁lol	-863
▁applic	-864
body	-865
▁connection	-866
▁window	-867
▁internet	-868
cd	-869
▁keep	-870
oks	-871
ude	-872
▁while	-873
▁own	-874
server	-875
▁call	-876
▁application	-877
▁inter	-878
▁most	-879
ish	-880
▁worked	-881
▁sugg	-882
▁ntfs	-883
ci	-884
▁suggest	-885
▁pe	-886
▁hardware	-887
▁mode	-888
▁graphic	-889
▁create	-890
▁norm	-891
▁doesnt	-892
▁autom	-893
▁monitor	-894
▁sol	-895
▁instead	-896
▁pat	-897
▁mo	-898
▁setup	-899
▁either	-900
▁ho	-901
▁hmm	-902
▁guys	-903
▁bro	-904
▁configure	-905
▁test	-906
▁bad	-907
▁64	-908
ave	-909
▁wine	-910
▁last	-911
▁ah	-912
▁eth	-913
vd	-914
▁kind	-915
▁looks	-916
box	-917
itt	-918
▁long	-919
ian	-920
▁second	-921
dio	-922
▁address	-923
▁select	-924
▁det	-925
▁such	-926
▁bas	-927
▁being	-928
sa	-929
king	-930
▁xp	-931
ason	-932
▁foll	-933
ars	-934
board	-935
▁ass	-936
▁current	-937
▁kde	-938
▁vir	-939
▁were	-940
▁partitions	-941
stand	-942
itch	-943
▁google	-944
ment	-945
ener	-946
▁peop	-947
▁top	-948
▁inc	-949
▁compiz	-950
▁cho	-951
▁mounted	-952
▁always	-953
▁people	-954
▁write	-955
▁str	-956
dm	-957
▁follow	-958
▁reason	-959
▁yet	-960
▁kill	-961
▁shows	-962
ates	-963
▁bug	-964
▁ati	-965
ule	-966
ted	-967
▁format	-968
▁cp	-969
▁admin	-970
ious	-971
▁thought	-972
▁share	-973
▁exactly	-974
▁errors	-975
▁space	-976
▁sd	-977
▁display	-978
rc	-979
disk	-980
▁proper	-981
▁installation	-982
▁understand	-983
▁message	-984
▁wa	-985
▁gp	-986
▁sm	-987
ume	-988
▁tool	-989
ower	-990
oo	-991
ns	-992
port	-993
ava	-994
ating	-995
wr	-996
gb	-997
cp	-998
aut	-999
bit	-1000
▁data	-1001
▁build	-1002
▁few	-1003
▁channel	-1004
▁options	-1005
pro	-1006
abled	-1007
▁lu	-1008
▁cod	-1009
▁client	-1010
▁host	-1011
▁remo	-1012
aun	-1013
▁co	-1014
nc	-1015
▁full	-1016
▁clo	-1017
▁prefer	-1018
oup	-1019
▁cle	-1020
▁dvd	-1021
▁switch	-1022
▁fig	-1023
▁post	-1024
▁contro	-1025
▁best	-1026
▁manually	-1027
▁au	-1028
▁debian	-1029
▁iso	-1030
▁page	-1031
▁pan	-1032
▁automat	-1033
▁okay	-1034
where	-1035
tual	-1036
▁local	-1037
▁pret	-1038
ru	-1039
▁wait	-1040
▁alt	-1041
▁ct	-1042
▁avail	-1043
▁swap	-1044
▁whats	-1045
ues	-1046
▁text	-1047
▁many	-1048
86	-1049
▁exist	-1050
▁stop	-1051
ouse	-1052
ba	-1053
▁win	-1054
▁once	-1055
ird	-1056
omm	-1057
▁interf	-1058
▁ram	-1059
▁dh	-1060
▁pretty	-1061
▁virtual	-1062
▁around	-1063
▁real	-1064
▁enter	-1065
to	-1066
net	-1067
▁mat	-1068
▁ping	-1069
▁ideas	-1070
▁miss	-1071
▁users	-1072
▁pri	-1073
we	-1074
▁turn	-1075
▁spe	-1076
▁easy	-1077
▁info	-1078
▁conf	-1079
▁icon	-1080
sole	-1081
▁figure	-1082
▁typ	-1083
▁ctrl	-1084
ystem	-1085
ote	-1086
▁sam	-1087
.6	-1088
▁id	-1089
▁anyway	-1090
ifi	-1091
▁end	-1092
▁permissions	-1093
aid	-1094
▁happens	-1095
sp	-1096
▁sounds	-1097
vel	-1098
▁called	-1099
▁easi	-1100
▁exec	-1101
▁requ	-1102
▁sources	-1103
▁module	-1104
ames	-1105
▁normal	-1106
set	-1107
▁complet	-1108
tp	-1109
▁thank	-1110
▁group	-1111
▁11	-1112
▁livecd	-1113
▁remem	-1114
▁resolution	-1115
▁available	-1116
▁reg	-1117
▁delete	-1118
▁configur	-1119
▁java	-1120
▁answ	-1121
enc	-1122
ged	-1123
no	-1124
▁upgrad	-1125
▁console	-1126
configure	-1127
list	-1128
▁dm	-1129
ios	-1130
▁remember	-1131
▁appe	-1132
▁vm	-1133
itude	-1134
▁apache	-1135
▁come	-1136
player	-1137
▁gener	-1138
▁tal	-1139
til	-1140
▁reco	-1141
ign	-1142
▁gdm	-1143
ric	-1144
▁enable	-1145
▁means	-1146
ouble	-1147
ittle	-1148
▁act	-1149
▁their	-1150
▁hand	-1151
▁must	-1152
▁little	-1153
▁gives	-1154
gin	-1155
▁naut	-1156
arted	-1157
▁mult	-1158
▁wont	-1159
▁dev	-1160
▁shell	-1161
ical	-1162
sy	-1163
▁compile	-1164
▁mem	-1165
.2	-1166
▁tab	-1167
▁press	-1168
▁aptitude	-1169
▁mouse	-1170
stab	-1171
ilus	-1172
▁case	-1173
ffect	-1174
▁filesystem	-1175
▁these	-1176
zy	-1177
▁day	-1178
▁graphics	-1179
iew	-1180
▁panel	-1181
▁made	-1182
▁samba	-1183
ton	-1184
▁num	-1185
na	-1186
▁nautilus	-1187
▁execut	-1188
ession	-1189
▁uses	-1190
▁next	-1191
▁late	-1192
▁bios	-1193
man	-1194
'.	-1195
▁stat	-1196
▁head	-1197
ob	-1198
▁backup	-1199
ices	-1200
▁path	-1201
resh	-1202
▁32	-1203
▁uninstall	-1204
▁won	-1205
aps	-1206
▁whatever	-1207
▁issues	-1208
tem	-1209
▁image	-1210
ance	-1211
▁answer	-1212
▁audio	-1213
▁fr	-1214
fe	-1215
ful	-1216
▁intel	-1217
▁tar	-1218
▁dir	-1219
ules	-1220
▁mac	-1221
▁didnt	-1222
▁plugin	-1223
ward	-1224
▁exam	-1225
ences	-1226
▁compil	-1227
▁site	-1228
iv	-1229
▁gparted	-1230
▁dual	-1231
▁changed	-1232
▁programs	-1233
mount	-1234
gy	-1235
▁beli	-1236
ise	-1237
▁fun	-1238
▁hop	-1239
▁expl	-1240
▁exper	-1241
ans	-1242
▁black	-1243
▁specific	-1244
▁dhcp	-1245
▁fstab	-1246
▁power	-1247
eve	-1248
▁installer	-1249
side	-1250
▁fdisk	-1251
▁far	-1252
cc	-1253
cept	-1254
▁chmod	-1255
▁button	-1256
▁sort	-1257
▁connected	-1258
▁hdd	-1259
▁met	-1260
▁commands	-1261
desktop	-1262
▁anybody	-1263
verse	-1264
▁prom	-1265
▁extern	-1266
ents	-1267
▁cat	-1268
▁big	-1269
▁drives	-1270
▁dapper	-1271
▁alsa	-1272
▁saying	-1273
▁wonder	-1274
▁auto	-1275
▁brows	-1276
dd	-1277
ken	-1278
▁wifi	-1279
▁apps	-1280
▁interface	-1281
▁extr	-1282
▁choose	-1283
▁enough	-1284
▁external	-1285
ens	-1286
▁kubuntu	-1287
▁usually	-1288
▁slow	-1289
▁init	-1290
lock	-1291
▁hit	-1292
▁booting	-1293
kes	-1294
ween	-1295
▁nice	-1296
▁account	-1297
▁keyboard	-1298
ular	-1299
▁fast	-1300
▁automatically	-1301
▁move	-1302
ommend	-1303
▁configuration	-1304
▁believe	-1305
▁burn	-1306
inter	-1307
▁wi	-1308
▁between	-1309
▁cpu	-1310
▁ndis	-1311
▁downloaded	-1312
ricted	-1313
▁ifconfig	-1314
ql	-1315
yth	-1316
▁whole	-1317
aces	-1318
▁bash	-1319
32	-1320
tur	-1321
▁asking	-1322
▁10.04	-1323
▁save	-1324
▁tak	-1325
▁allow	-1326
▁distro	-1327
▁least	-1328
▁altern	-1329
ange	-1330
▁failed	-1331
▁main	-1332
▁recommend	-1333
▁cause	-1334
▁broken	-1335
▁place	-1336
▁fs	-1337
▁great	-1338
--	-1339
▁doc	-1340
▁example	-1341
ative	-1342
▁enabled	-1343
▁however	-1344
▁latest	-1345
▁unless	-1346
day	-1347
▁each	-1348
▁needs	-1349
ss	-1350
▁told	-1351
▁luck	-1352
pci	-1353
▁remote	-1354
ify	-1355
▁php	-1356
▁enc	-1357
▁z	-1358
-1	-1359
▁env	-1360
line	-1361
pa	-1362
wrapper	-1363
▁goes	-1364
▁less	-1365
▁lines	-1366
▁repl	-1367
file	-1368
▁times	-1369
manager	-1370
▁ref	-1371
edia	-1372
▁dns	-1373
ather	-1374
com	-1375
▁dr	-1376
▁detect	-1377
iverse	-1378
▁applications	-1379
▁sub	-1380
▁prompt	-1381
▁comes	-1382
▁laun	-1383
▁updates	-1384
esg	-1385
▁ever	-1386
▁send	-1387
rypt	-1388
▁perf	-1389
▁vol	-1390
▁star	-1391
▁dmesg	-1392
ime	-1393
▁incl	-1394
osed	-1395
haps	-1396
book	-1397
▁bin	-1398
▁makes	-1399
▁ndiswrapper	-1400
▁simple	-1401
igh	-1402
▁missing	-1403
rop	-1404
▁session	-1405
tk	-1406
▁ro	-1407
▁minut	-1408
▁player	-1409
▁pers	-1410
▁perhaps	-1411
▁mb	-1412
▁ive	-1413
64	-1414
ables	-1415
▁xserver	-1416
▁disable	-1417
▁control	-1418
▁ill	-1419
▁effect	-1420
▁100	-1421
▁lspci	-1422
▁step	-1423
edit	-1424
▁lear	-1425
plug	-1426
▁crash	-1427
▁des	-1428
▁shut	-1429
▁depends	-1430
▁weird	-1431
▁isnt	-1432
ream	-1433
me	-1434
▁mys	-1435
ert	-1436
▁exp	-1437
▁result	-1438
▁launch	-1439
▁recovery	-1440
▁left	-1441
tup	-1442
▁raid	-1443
▁ran	-1444
▁gl	-1445
▁checked	-1446
▁preferences	-1447
▁hang	-1448
▁stand	-1449
vious	-1450
wall	-1451
ee	-1452
▁rel	-1453
▁memory	-1454
deb	-1455
▁quite	-1456
ching	-1457
▁retur	-1458
▁quick	-1459
pid	-1460
▁gave	-1461
▁clean	-1462
▁mp	-1463
▁mplayer	-1464
▁webs	-1465
▁startup	-1466
▁suc	-1467
▁wanted	-1468
▁code	-1469
▁hardy	-1470
▁8.04	-1471
riend	-1472
sc	-1473
▁browser	-1474
ud	-1475
▁sk	-1476
▁ago	-1477
▁supported	-1478
root	-1479
ogn	-1480
▁started	-1481
▁solution	-1482
lan	-1483
▁disc	-1484
▁12	-1485
▁ones	-1486
.4	-1487
▁mine	-1488
itory	-1489
▁es	-1490
▁matter	-1491
▁rather	-1492
▁somewhere	-1493
▁properly	-1494
▁nope	-1495
▁added	-1496
itories	-1497
▁sda	-1498
▁dec	-1499
ruct	-1500
ask	-1501
▁bree	-1502
▁talking	-1503
▁gedit	-1504
80	-1505
▁inform	-1506
ts	-1507
gn	-1508
▁needed	-1509
uring	-1510
dev	-1511
▁repositories	-1512
▁mysql	-1513
▁non	-1514
ouch	-1515
▁explain	-1516
▁wor	-1517
lc	-1518
▁number	-1519
▁cool	-1520
▁chip	-1521
▁firewall	-1522
▁breezy	-1523
▁forum	-1524
▁ps	-1525
arm	-1526
▁vnc	-1527
▁irc	-1528
▁username	-1529
down	-1530
▁hope	-1531
▁release	-1532
▁oper	-1533
xx	-1534
▁gets	-1535
▁trans	-1536
▁recogn	-1537
▁stick	-1538
▁9.10	-1539
10	-1540
ging	-1541
▁sect	-1542
▁fat	-1543
dri	-1544
▁permission	-1545
▁trouble	-1546
istr	-1547
▁changes	-1548
▁lock	-1549
▁printer	-1550
for	-1551
▁removed	-1552
▁heh	-1553
▁close	-1554
full	-1555
▁went	-1556
▁currently	-1557
▁report	-1558
▁lat	-1559
▁repo	-1560
▁vmware	-1561
▁hold	-1562
ml	-1563
ph	-1564
ista	-1565
▁service	-1566
▁cert	-1567
how	-1568
ourse	-1569
▁vlc	-1570
▁arch	-1571
▁wlan	-1572
▁until	-1573
ention	-1574
▁vista	-1575
▁instruct	-1576
▁2.6	-1577
ling	-1578
▁volume	-1579
ank	-1580
▁friend	-1581
-2	-1582
▁view	-1583
ari	-1584
grade	-1585
▁resp	-1586
▁correctly	-1587
imes	-1588
▁9.04	-1589
oc	-1590
used	-1591
ible	-1592
log	-1593
▁restricted	-1594
▁fresh	-1595
▁itself	-1596
▁iw	-1597
▁xf	-1598
rx	-1599
▁everyone	-1600
.5	-1601
▁sit	-1602
▁information	-1603
isty	-1604
▁runs	-1605
▁difference	-1606
▁experi	-1607
cli	-1608
▁updated	-1609
▁pur	-1610
▁administr	-1611
▁simil	-1612
atch	-1613
▁modem	-1614
▁website	-1615
but	-1616
▁myself	-1617
▁ob	-1618
▁mom	-1619
ense	-1620
ator	-1621
▁repository	-1622
▁edgy	-1623
more	-1624
▁sometimes	-1625
▁listed	-1626
reconfigure	-1627
ently	-1628
idd	-1629
oub	-1630
▁xubuntu	-1631
▁dependenc	-1632
cho	-1633
▁ca	-1634
▁easier	-1635
glrx	-1636
▁_	-1637
pped	-1638
ga	-1639
▁gut	-1640
▁seen	-1641
▁following	-1642
▁asked	-1643
▁size	-1644
▁small	-1645
▁starting	-1646
cache	-1647
▁course	-1648
▁guide	-1649
plash	-1650
▁feisty	-1651
11	-1652
▁bt	-1653
▁media	-1654
▁created	-1655
▁modpro	-1656
▁supposed	-1657
▁pid	-1658
ex	-1659
▁fin	-1660
▁lik	-1661
▁par	-1662
▁anymore	-1663
▁bo	-1664
host	-1665
ines	-1666
▁person	-1667
ass	-1668
▁amd	-1669
▁ether	-1670
▁ht	-1671
▁short	-1672
▁entry	-1673
▁similar	-1674
▁speed	-1675
▁certain	-1676
▁yep	-1677
orrent	-1678
▁care	-1679
ksu	-1680
▁adv	-1681
ject	-1682
ython	-1683
▁fil	-1684
▁fixed	-1685
ps	-1686
▁gutsy	-1687
▁knows	-1688
▁ftp	-1689
ery	-1690
▁ms	-1691
▁gksu	-1692
▁q	-1693
▁appear	-1694
▁ver	-1695
back	-1696
▁meant	-1697
▁hour	-1698
▁modprobe	-1699
ized	-1700
▁devices	-1701
▁theme	-1702
cl	-1703
▁loaded	-1704
▁learn	-1705
▁inside	-1706
▁making	-1707
▁touch	-1708
50	-1709
▁hoary	-1710
▁tells	-1711
▁during	-1712
▁forward	-1713
▁priv	-1714
▁bar	-1715
▁require	-1716
▁instructions	-1717
time	-1718
▁editor	-1719
▁reading	-1720
▁strange	-1721
.3	-1722
▁wondering	-1723
ument	-1724
▁ethernet	-1725
ility	-1726
eres	-1727
air	-1728
▁10.10	-1729
▁8.10	-1730
▁fglrx	-1731
ark	-1732
▁upgraded	-1733
▁rm	-1734
ction	-1735
▁blank	-1736
▁unable	-1737
urity	-1738
▁python	-1739
ced	-1740
▁model	-1741
▁moment	-1742
nd	-1743
▁except	-1744
▁font	-1745
▁yea	-1746
▁scan	-1747
▁order	-1748
▁inv	-1749
▁wan	-1750
arent	-1751
▁modules	-1752
▁ipt	-1753
▁completely	-1754
ately	-1755
-3	-1756
▁chroot	-1757
▁mus	-1758
▁manag	-1759
ulse	-1760
▁fsck	-1761
▁freez	-1762
▁happened	-1763
velop	-1764
▁thinking	-1765
▁sing	-1766
ations	-1767
▁cons	-1768
▁likely	-1769
pty	-1770
▁mail	-1771
▁200	-1772
▁opens	-1773
aw	-1774
chat	-1775
▁messages	-1776
▁high	-1777
▁pulse	-1778
▁import	-1779
▁tools	-1780
ilt	-1781
▁ya	-1782
▁loading	-1783
ixer	-1784
▁smb	-1785
▁days	-1786
▁based	-1787
▁url	-1788
▁music	-1789
▁speak	-1790
▁mic	-1791
▁cards	-1792
▁encrypt	-1793
▁includ	-1794
▁starts	-1795
ply	-1796
ories	-1797
ustom	-1798
▁dd	-1799
iron	-1800
▁single	-1801
fully	-1802
▁print	-1803
▁iptables	-1804
▁empty	-1805
illa	-1806
▁bre	-1807
ename	-1808
▁minutes	-1809
xorg	-1810
▁security	-1811
▁col	-1812
▁20	-1813
▁servers	-1814
▁away	-1815
▁gtk	-1816
▁lang	-1817
▁changing	-1818
erest	-1819
▁lost	-1820
▁contain	-1821
vm	-1822
▁entire	-1823
ture	-1824
▁force	-1825
upgrade	-1826
▁bus	-1827
▁odd	-1828
▁folders	-1829
▁gcc	-1830
▁standard	-1831
▁static	-1832
▁lan	-1833
ential	-1834
▁mind	-1835
12	-1836
▁safe	-1837
▁manual	-1838
▁mounting	-1839
▁interest	-1840
▁configured	-1841
▁mention	-1842
▁md	-1843
ech	-1844
ten	-1845
▁cable	-1846
ying	-1847
▁fam	-1848
user	-1849
▁basically	-1850
ki	-1851
▁block	-1852
ors	-1853
▁universe	-1854
▁ir	-1855
▁others	-1856
▁val	-1857
▁custom	-1858
right	-1859
▁nic	-1860
▁totem	-1861
▁word	-1862
▁mk	-1863
▁controll	-1864
▁names	-1865
▁administration	-1866
pad	-1867
.'	-1868
▁game	-1869
▁related	-1870
▁defin	-1871
▁rele	-1872
gz	-1873
▁prop	-1874
▁came	-1875
▁sto	-1876
▁sever	-1877
▁aw	-1878
▁unity	-1879
▁sense	-1880
▁pass	-1881
▁jo	-1882
▁showing	-1883
▁takes	-1884
▁simply	-1885
▁btw	-1886
▁vis	-1887
ek	-1888
▁dam	-1889
24	-1890
▁alternate	-1891
ger	-1892
▁heard	-1893
▁fre	-1894
▁beh	-1895
▁develop	-1896
fo	-1897
▁fails	-1898
▁versions	-1899
adeon	-1900
▁assum	-1901
▁fact	-1902
▁xchat	-1903
▁dun	-1904
▁links	-1905
par	-1906
▁theres	-1907
xy	-1908
▁later	-1909
▁stuck	-1910
▁normally	-1911
▁side	-1912
▁none	-1913
ner	-1914
▁gon	-1915
vert	-1916
▁section	-1917
rew	-1918
▁pres	-1919
cut	-1920
▁refer	-1921
mp	-1922
▁sys	-1923
▁feat	-1924
▁thx	-1925
▁built	-1926
ource	-1927
▁80	-1928
ax	-1929
roll	-1930
▁radeon	-1931
▁cou	-1932
▁ear	-1933
▁flo	-1934
▁stable	-1935
hh	-1936
off	-1937
▁typing	-1938
▁gb	-1939
▁tot	-1940
▁return	-1941
ven	-1942
▁feel	-1943
▁libr	-1944
▁virtualbox	-1945
▁clear	-1946
▁machines	-1947
▁bun	-1948
zilla	-1949
▁auth	-1950
▁assume	-1951
▁pop	-1952
▁xfce	-1953
▁computers	-1954
ype	-1955
plugin	-1956
du	-1957
vent	-1958
ode	-1959
key	-1960
▁his	-1961
▁years	-1962
▁directly	-1963
▁langu	-1964
ides	-1965
▁chipset	-1966
▁splash	-1967
▁input	-1968
▁games	-1969
▁unmount	-1970
▁logged	-1971
iple	-1972
▁chown	-1973
ftp	-1974
mit	-1975
ano	-1976
▁ur	-1977
▁dunno	-1978
▁tem	-1979
▁mbr	-1980
ecs	-1981
▁writ	-1982
uid	-1983
▁experience	-1984
▁da	-1985
▁gonna	-1986
▁broad	-1987
▁replace	-1988
▁detail	-1989
▁super	-1990
▁drop	-1991
▁keys	-1992
▁forums	-1993
▁sata	-1994
iar	-1995
▁today	-1996
rupt	-1997
600	-1998
▁cent	-1999
▁00	-2000
▁effects	-2001
ironment	-2002
▁bott	-2003
▁looked	-2004
▁core	-2005
aunty	-2006
▁appears	-2007
▁cdrom	-2008
got	-2009
▁echo	-2010
▁wiki	-2011
▁yourself	-2012
▁several	-2013
▁logs	-2014
▁downloading	-2015
▁orig	-2016
▁reset	-2017
ication	-2018
ased	-2019
▁jaunty	-2020
▁pm	-2021
▁ports	-2022
▁dependencies	-2023
▁sun	-2024
▁ff	-2025
use	-2026
essential	-2027
▁applet	-2028
▁attem	-2029
▁older	-2030
▁karm	-2031
▁den	-2032
▁wanna	-2033
drive	-2034
▁light	-2035
▁adding	-2036
▁regular	-2037
start	-2038
ider	-2039
term	-2040
▁cu	-2041
▁environment	-2042
▁faster	-2043
▁binary	-2044
most	-2045
▁7.10	-2046
▁front	-2047
▁document	-2048
▁inde	-2049
▁dell	-2050
▁function	-2051
▁11.04	-2052
▁separ	-2053
wise	-2054
▁actual	-2055
▁keeps	-2056
▁gate	-2057
ew	-2058
▁true	-2059
▁checking	-2060
▁nat	-2061
▁karmic	-2062
▁attempt	-2063
▁extract	-2064
▁bery	-2065
▁ign	-2066
▁leave	-2067
▁execute	-2068
client	-2069
ement	-2070
▁expect	-2071
cid	-2072
force	-2073
▁bottom	-2074
▁util	-2075
▁beryl	-2076
▁tut	-2077
▁mir	-2078
▁playing	-2079
▁disabled	-2080
▁war	-2081
▁rid	-2082
▁dial	-2083
▁att	-2084
▁questions	-2085
▁hear	-2086
43	-2087
▁lets	-2088
lin	-2089
▁ppa	-2090
▁solve	-2091
▁resize	-2092
▁perfect	-2093
▁messed	-2094
ext	-2095
▁booted	-2096
▁iwconfig	-2097
▁alth	-2098
▁gksudo	-2099
▁screw	-2100
▁gone	-2101
dir	-2102
stream	-2103
▁sign	-2104
▁pic	-2105
▁meth	-2106
▁previous	-2107
usb	-2108
▁note	-2109
vide	-2110
▁deleted	-2111
▁nm	-2112
▁networking	-2113
▁prim	-2114
▁wub	-2115
▁cap	-2116
▁don	-2117
▁success	-2118
▁internal	-2119
▁nano	-2120
▁begin	-2121
▁gent	-2122
hz	-2123
▁mov	-2124
lier	-2125
▁vim	-2126
▁multiple	-2127
using	-2128
▁somehow	-2129
▁pidgin	-2130
▁language	-2131
ppy	-2132
▁results	-2133
audio	-2134
▁boots	-2135
▁break	-2136
▁famil	-2137
aim	-2138
ially	-2139
▁within	-2140
▁ren	-2141
▁gateway	-2142
▁vga	-2143
▁removing	-2144
▁online	-2145
▁forgot	-2146
▁wubi	-2147
▁stupid	-2148
▁controller	-2149
▁couple	-2150
▁listen	-2151
▁onto	-2152
▁pick	-2153
ared	-2154
bu	-2155
▁chat	-2156
bly	-2157
esa	-2158
▁complete	-2159
▁clos	-2160
ons	-2161
▁systems	-2162
▁almost	-2163
▁shutdown	-2164
▁restore	-2165
▁method	-2166
▁although	-2167
▁perform	-2168
▁activ	-2169
▁mont	-2170
▁giving	-2171
orth	-2172
ries	-2173
▁hours	-2174
▁saw	-2175
▁earlier	-2176
▁lucid	-2177
▁longer	-2178
▁gig	-2179
▁graphical	-2180
▁skype	-2181
▁adapt	-2182
tar	-2183
▁store	-2184
fort	-2185
▁upgrading	-2186
▁gentoo	-2187
▁newer	-2188
▁alright	-2189
ether	-2190
lib	-2191
▁suggestions	-2192
▁double	-2193
▁hah	-2194
▁kinda	-2195
acity	-2196
▁minim	-2197
▁route	-2198
orial	-2199
ump	-2200
ooth	-2201
▁bunch	-2202
▁special	-2203
▁um	-2204
ground	-2205
▁plugged	-2206
▁somebody	-2207
▁localhost	-2208
era	-2209
iso	-2210
▁wired	-2211
▁compat	-2212
▁compiling	-2213
▁location	-2214
68	-2215
▁places	-2216
ases	-2217
▁glx	-2218
▁familiar	-2219
▁extra	-2220
▁netbook	-2221
▁tutorial	-2222
▁otherwise	-2223
pn	-2224
▁proxy	-2225
▁exit	-2226
▁patch	-2227
▁als	-2228
sl	-2229
▁nec	-2230
▁rw	-2231
pi	-2232
▁basic	-2233
▁lar	-2234
pr	-2235
▁tv	-2236
cm	-2237
▁month	-2238
▁bring	-2239
▁job	-2240
▁provid	-2241
▁above	-2242
sd	-2243
▁installs	-2244
aring	-2245
▁extens	-2246
▁telling	-2247
edi	-2248
▁record	-2249
▁lots	-2250
▁desc	-2251
▁seeing	-2252
▁finish	-2253
▁important	-2254
▁him	-2255
▁11.10	-2256
▁partic	-2257
aries	-2258
▁suppose	-2259
▁locate	-2260
▁consider	-2261
▁wget	-2262
▁scroll	-2263
▁scripts	-2264
▁15	-2265
▁rand	-2266
arently	-2267
▁primary	-2268
▁specify	-2269
▁low	-2270
▁wish	-2271
connect	-2272
lst	-2273
cam	-2274
card	-2275
▁separate	-2276
▁comment	-2277
▁22	-2278
-0	-2279
▁worth	-2280
any	-2281
▁assuming	-2282
view	-2283
por	-2284
▁typed	-2285
loc	-2286
▁prot	-2287
▁stay	-2288
▁ge	-2289
▁max	-2290
▁cam	-2291
▁uuid	-2292
▁background	-2293
▁pulseaudio	-2294
▁contents	-2295
▁editing	-2296
ester	-2297
▁connecting	-2298
glx	-2299
▁uname	-2300
▁16	-2301
▁denied	-2302
su	-2303
kn	-2304
▁directories	-2305
info	-2306
▁yup	-2307
ai	-2308
▁newb	-2309
▁red	-2310
▁anywhere	-2311
▁19	-2312
▁hda	-2313
omain	-2314
▁table	-2315
ath	-2316
▁general	-2317
▁particular	-2318
▁reinstalling	-2319
▁propri	-2320
▁shortcut	-2321
▁random	-2322
▁whether	-2323
▁disks	-2324
▁date	-2325
emon	-2326
▁du	-2327
▁pci	-2328
▁40	-2329
▁shared	-2330
▁executable	-2331
77	-2332
▁forget	-2333
▁apparently	-2334
yn	-2335
386	-2336
ring	-2337
▁icons	-2338
mail	-2339
▁lsmod	-2340
▁ie	-2341
ora	-2342
▁seconds	-2343
icial	-2344
▁vari	-2345
umb	-2346
red	-2347
▁obvious	-2348
pm	-2349
▁compiled	-2350
gener	-2351
▁tty	-2352
▁filename	-2353
▁ipod	-2354
▁wants	-2355
▁arg	-2356
▁loop	-2357
urning	-2358
ib	-2359
df	-2360
▁che	-2361
▁gim	-2362
rib	-2363
▁necess	-2364
▁wow	-2365
▁limit	-2366
▁corrupt	-2367
irc	-2368
etary	-2369
▁talk	-2370
pping	-2371
▁hehe	-2372
▁mirror	-2373
▁deal	-2374
▁recently	-2375
▁compl	-2376
tf	-2377
ww	-2378
free	-2379
pack	-2380
ended	-2381
ups	-2382
tr	-2383
▁hp	-2384
▁ident	-2385
mms	-2386
▁ali	-2387
▁original	-2388
▁soon	-2389
ties	-2390
▁fed	-2391
▁plugins	-2392
▁sent	-2393
▁30	-2394
▁wpa	-2395
▁nfs	-2396
screen	-2397
generic	-2398
setting	-2399
ures	-2400
▁rebooted	-2401
fix	-2402
▁inser	-2403
▁http	-2404
▁hmmm	-2405
▁doub	-2406
▁dos	-2407
▁watch	-2408
▁asks	-2409
▁tun	-2410
▁noob	-2411
▁turned	-2412
▁modify	-2413
▁yester	-2414
▁restarted	-2415
▁yesterday	-2416
grub	-2417
▁tho	-2418
▁clue	-2419
▁char	-2420
▁alot	-2421
▁loads	-2422
▁love	-2423
streamer	-2424
▁inte	-2425
zip	-2426
▁pub	-2427
▁amar	-2428
pc	-2429
▁recover	-2430
▁interesting	-2431
amed	-2432
▁arr	-2433
▁useful	-2434
▁complain	-2435
▁lay	-2436
▁connections	-2437
▁followed	-2438
rw	-2439
▁confused	-2440
▁bootable	-2441
sync	-2442
shot	-2443
ross	-2444
uses	-2445
settings	-2446
ster	-2447
▁umount	-2448
▁convert	-2449
ffic	-2450
▁detected	-2451
▁proprietary	-2452
▁xmms	-2453
▁ado	-2454
▁domain	-2455
▁export	-2456
urt	-2457
▁level	-2458
▁25	-2459
▁ignore	-2460
▁email	-2461
▁busy	-2462
▁damn	-2463
000	-2464
▁intre	-2465
▁multiverse	-2466
▁cut	-2467
▁stopped	-2468
▁crashes	-2469
idden	-2470
▁anno	-2471
image	-2472
▁passwd	-2473
peg	-2474
▁accept	-2475
▁task	-2476
amixer	-2477
▁amarok	-2478
▁ind	-2479
▁flux	-2480
▁webcam	-2481
▁lts	-2482
▁fedora	-2483
▁given	-2484
▁nv	-2485
▁supports	-2486
▁torrent	-2487
▁serious	-2488
▁troub	-2489
▁synt	-2490
▁ath	-2491
▁serv	-2492
▁advice	-2493
▁alternative	-2494
▁notic	-2495
▁half	-2496
▁tech	-2497
▁known	-2498
pos	-2499
▁cron	-2500
▁hm	-2501
▁beta	-2502
▁mis	-2503
▁purge	-2504
▁dig	-2505
▁details	-2506
uh	-2507
▁integr	-2508
▁transfer	-2509
ta	-2510
fortun	-2511
▁blu	-2512
▁dat	-2513
▁rh	-2514
linux	-2515
under	-2516
raid	-2517
▁adapter	-2518
.8	-2519
▁doubt	-2520
olution	-2521
▁rt	-2522
▁intrepid	-2523
▁drag	-2524
▁adobe	-2525
▁unfortun	-2526
▁rebooting	-2527
only	-2528
add	-2529
▁nick	-2530
▁harddrive	-2531
▁official	-2532
▁unkn	-2533
come	-2534
ky	-2535
▁track	-2536
light	-2537
60	-2538
olic	-2539
▁often	-2540
▁everytime	-2541
▁alsamixer	-2542
▁vi	-2543
po	-2544
▁outside	-2545
▁codecs	-2546
loader	-2547
▁addition	-2548
amp	-2549
▁room	-2550
▁troubles	-2551
.06	-2552
▁contin	-2553
▁gstreamer	-2554
▁syntax	-2555
ised	-2556
ero	-2557
▁syml	-2558
just	-2559
▁broadcom	-2560
ms	-2561
▁hangs	-2562
ires	-2563
admin	-2564
▁pages	-2565
▁1024	-2566
its	-2567
itten	-2568
▁opened	-2569
▁7.04	-2570
▁figured	-2571
▁hot	-2572
▁sur	-2573
▁archive	-2574
reci	-2575
▁interfaces	-2576
▁exists	-2577
▁fonts	-2578
▁buy	-2579
▁helps	-2580
▁guest	-2581
▁trick	-2582
.9	-2583
▁freezes	-2584
▁startx	-2585
▁three	-2586
▁easily	-2587
what	-2588
utions	-2589
ister	-2590
ording	-2591
▁choice	-2592
▁floppy	-2593
▁engl	-2594
▁lvm	-2595
▁whenever	-2596
▁took	-2597
▁defaults	-2598
direct	-2599
▁active	-2600
▁usage	-2601
▁phone	-2602
▁unknown	-2603
comm	-2604
alt	-2605
▁bat	-2606
▁private	-2607
▁sdb	-2608
▁rc	-2609
cod	-2610
▁crap	-2611
▁haha	-2612
▁chance	-2613
ters	-2614
▁lists	-2615
ium	-2616
▁shot	-2617
▁bcm	-2618
▁stream	-2619
eler	-2620
avi	-2621
▁np	-2622
▁handle	-2623
▁pi	-2624
tube	-2625
▁vesa	-2626
▁mentioned	-2627
▁mother	-2628
oid	-2629
▁brb	-2630
▁equ	-2631
▁evolution	-2632
▁selected	-2633
click	-2634
▁logging	-2635
▁themes	-2636
200	-2637
▁status	-2638
etooth	-2639
▁happening	-2640
▁fro	-2641
▁according	-2642
▁services	-2643
▁center	-2644
my	-2645
▁gaim	-2646
ze	-2647
▁mark	-2648
mbox	-2649
▁wel	-2650
▁pull	-2651
▁mv	-2652
▁request	-2653
▁noticed	-2654
▁english	-2655
▁uh	-2656
▁hostname	-2657
fl	-2658
head	-2659
▁plan	-2660
gs	-2661
▁repe	-2662
▁howto	-2663
▁minute	-2664
xp	-2665
ified	-2666
▁occ	-2667
urs	-2668
▁param	-2669
▁appreci	-2670
▁render	-2671
▁err	-2672
▁native	-2673
▁videos	-2674
▁youtube	-2675
▁eh	-2676
▁phys	-2677
▁taking	-2678
▁testing	-2679
inks	-2680
uge	-2681
ports	-2682
▁restarting	-2683
▁kernels	-2684
▁mut	-2685
▁produ	-2686
▁due	-2687
▁possibly	-2688
▁include	-2689
▁world	-2690
▁recognize	-2691
▁6.06	-2692
▁newest	-2693
▁overwr	-2694
▁seper	-2695
▁closed	-2696
▁feature	-2697
▁processor	-2698
▁mkdir	-2699
bird	-2700
rest	-2701
▁isp	-2702
▁acpi	-2703
ny	-2704
ient	-2705
▁requires	-2706
▁searching	-2707
▁night	-2708
ift	-2709
▁hidden	-2710
▁curs	-2711
ives	-2712
▁writing	-2713
▁sus	-2714
of	-2715
▁existing	-2716
▁public	-2717
az	-2718
▁var	-2719
▁processes	-2720
▁sharing	-2721
▁utility	-2722
▁bluetooth	-2723
▁warning	-2724
▁brow	-2725
▁replac	-2726
▁fair	-2727
omp	-2728
▁required	-2729
▁pain	-2730
▁tail	-2731
stat	-2732
▁mist	-2733
▁worry	-2734
▁common	-2735
▁owner	-2736
cue	-2737
ssi	-2738
▁match	-2739
▁respond	-2740
gtk	-2741
▁huh	-2742
▁along	-2743
▁fluxbox	-2744
▁groups	-2745
▁her	-2746
▁performance	-2747
pur	-2748
▁sync	-2749
▁monitors	-2750
▁browse	-2751
▁updating	-2752
io	-2753
▁resolve	-2754
starter	-2755
▁networks	-2756
ops	-2757
▁returns	-2758
rec	-2759
▁irssi	-2760
bar	-2761
▁properties	-2762
▁entries	-2763
▁plz	-2764
▁dialog	-2765
ffer	-2766
▁welcome	-2767
▁mozilla	-2768
source	-2769
▁named	-2770
▁daemon	-2771
ythmbox	-2772
icult	-2773
ale	-2774
abling	-2775
▁regard	-2776
inting	-2777
ols	-2778
▁havent	-2779
▁suspend	-2780
▁annoying	-2781
the	-2782
▁fan	-2783
20	-2784
▁firestarter	-2785
he	-2786
▁totally	-2787
mware	-2788
▁ways	-2789
▁programm	-2790
usion	-2791
▁cups	-2792
▁refresh	-2793
▁necessary	-2794
▁opening	-2795
▁df	-2796
▁dest	-2797
▁specifically	-2798
▁guy	-2799
▁finding	-2800
arty	-2801
▁hate	-2802
▁definit	-2803
▁neither	-2804
▁coming	-2805
▁metacity	-2806
▁difficult	-2807
▁movie	-2808
▁state	-2809
40	-2810
bern	-2811
▁ahh	-2812
▁join	-2813
45	-2814
rm	-2815
▁unfortunately	-2816
▁trash	-2817
▁provide	-2818
▁project	-2819
▁respon	-2820
▁apply	-2821
▁ess	-2822
▁sn	-2823
ontab	-2824
▁creating	-2825
▁50	-2826
▁wm	-2827
ned	-2828
▁stra	-2829
▁datab	-2830
azy	-2831
leep	-2832
▁behind	-2833
ng	-2834
▁tel	-2835
run	-2836
▁sshd	-2837
▁authent	-2838
▁screens	-2839
▁packag	-2840
ident	-2841
▁large	-2842
▁class	-2843
▁reinstalled	-2844
page	-2845
ality	-2846
▁bel	-2847
▁grab	-2848
▁curi	-2849
▁week	-2850
▁pls	-2851
▁crontab	-2852
▁documentation	-2853
▁fault	-2854
▁killall	-2855
▁dhclient	-2856
▁images	-2857
▁flag	-2858
▁secure	-2859
▁mag	-2860
▁wat	-2861
▁compatible	-2862
▁ins	-2863
purge	-2864
cs	-2865
▁perfectly	-2866
▁rsync	-2867
▁cds	-2868
▁present	-2869
▁easiest	-2870
▁bootloader	-2871
▁motherboard	-2872
br	-2873
▁suggested	-2874
▁sucks	-2875
▁located	-2876
space	-2877
▁assign	-2878
6-	-2879
▁stor	-2880
▁book	-2881
▁cache	-2882
torrent	-2883
800	-2884
▁onboard	-2885
▁vpn	-2886
▁atm	-2887
you	-2888
core	-2889
▁straight	-2890
▁bes	-2891
▁library	-2892
▁guessing	-2893
ormat	-2894
▁lem	-2895
arch	-2896
▁cm	-2897
▁master	-2898
▁smart	-2899
supp	-2900
java	-2901
anced	-2902
▁steps	-2903
▁screenshot	-2904
▁firmware	-2905
te	-2906
▁allows	-2907
▁gimp	-2908
restricted	-2909
▁bind	-2910
▁hack	-2911
▁months	-2912
bl	-2913
▁generic	-2914
andr	-2915
ily	-2916
▁hibern	-2917
▁imag	-2918
▁oss	-2919
▁batter	-2920
▁indeed	-2921
▁recommended	-2922
▁newbie	-2923
▁17	-2924
bers	-2925
▁encrypted	-2926
▁scr	-2927
aa	-2928
▁disconnect	-2929
▁hor	-2930
ges	-2931
▁nor	-2932
▁www	-2933
▁distros	-2934
▁manage	-2935
▁lsusb	-2936
wards	-2937
▁incre	-2938
▁ppp	-2939
▁seperate	-2940
▁paramet	-2941
office	-2942
▁saved	-2943
▁buttons	-2944
check	-2945
bash	-2946
▁headers	-2947
▁packet	-2948
▁exc	-2949
▁openssh	-2950
▁putting	-2951
init	-2952
▁putty	-2953
▁contains	-2954
▁gconf	-2955
▁hal	-2956
▁geforce	-2957
▁copied	-2958
▁office	-2959
▁menus	-2960
▁13	-2961
▁rece	-2962
▁nobody	-2963
▁near	-2964
▁lose	-2965
▁cursor	-2966
▁snd	-2967
▁mob	-2968
▁she	-2969
▁count	-2970
▁definitely	-2971
▁written	-2972
ashing	-2973
▁extension	-2974
▁upload	-2975
ef	-2976
▁register	-2977
gether	-2978
▁screwed	-2979
▁rev	-2980
▁rename	-2981
▁including	-2982
▁extended	-2983
wire	-2984
▁reconfigure	-2985
▁suggestion	-2986
▁blue	-2987
applet	-2988
ete	-2989
fat	-2990
▁tries	-2991
▁sleep	-2992
▁lemme	-2993
▁instance	-2994
▁edition	-2995
▁missed	-2996
▁vbox	-2997
▁burning	-2998
▁formatted	-2999
▁susp	-3000
▁ret	-3001
▁esc	-3002
arily	-3003
▁forwarding	-3004
▁string	-3005
▁charac	-3006
▁libraries	-3007
data	-3008
▁causing	-3009
alid	-3010
rem	-3011
▁clients	-3012
▁quot	-3013
▁obviously	-3014
2-	-3015
▁aud	-3016
▁xd	-3017
▁insert	-3018
▁helping	-3019
▁64-	-3020
▁our	-3021
▁blacklist	-3022
▁reload	-3023
▁prog	-3024
irm	-3025
▁unix	-3026
gnome	-3027
▁moving	-3028
▁battery	-3029
▁clicking	-3030
acs	-3031
▁2.6.2	-3032
▁advanced	-3033
ific	-3034
▁ready	-3035
▁area	-3036
▁jack	-3037
96	-3038
aik	-3039
iet	-3040
▁afraid	-3041
▁stops	-3042
▁warty	-3043
▁hone	-3044
▁generally	-3045
▁awes	-3046
▁aware	-3047
mc	-3048
▁docs	-3049
▁opera	-3050
▁affect	-3051
▁pastebinit	-3052
▁umm	-3053
▁hoping	-3054
pan	-3055
rome	-3056
▁invalid	-3057
▁item	-3058
▁shares	-3059
ape	-3060
util	-3061
▁year	-3062
▁happy	-3063
▁waiting	-3064
▁mad	-3065
▁debug	-3066
▁storage	-3067
▁afaik	-3068
▁fully	-3069
▁numbers	-3070
▁database	-3071
ones	-3072
-2.6	-3073
▁fol	-3074
▁micro	-3075
▁included	-3076
▁800	-3077
▁development	-3078
izing	-3079
▁life	-3080
▁notice	-3081
appe	-3082
▁honest	-3083
▁avoid	-3084
▁awesome	-3085
▁mor	-3086
▁acceler	-3087
▁6.10	-3088
▁unplug	-3089
▁symlink	-3090
▁layout	-3091
▁management	-3092
▁encryption	-3093
▁lsh	-3094
▁automatic	-3095
▁rules	-3096
▁bother	-3097
▁thread	-3098
▁rhythmbox	-3099
fw	-3100
▁indic	-3101
▁vs	-3102
iddle	-3103
▁logical	-3104
uments	-3105
▁brand	-3106
ra	-3107
55	-3108
ness	-3109
▁copying	-3110
▁anyways	-3111
▁base	-3112
terminal	-3113
▁commun	-3114
ood	-3115
▁conc	-3116
modules	-3117
▁yah	-3118
▁flashplugin	-3119
▁tra	-3120
dk	-3121
▁features	-3122
▁managed	-3123
▁quit	-3124
▁doesn	-3125
fil	-3126
▁loader	-3127
▁confirm	-3128
▁14	-3129
▁lab	-3130
▁pay	-3131
▁leg	-3132
▁operating	-3133
ached	-3134
vn	-3135
▁partitioning	-3136
▁gnu	-3137
▁rpm	-3138
▁art	-3139
oud	-3140
▁shift	-3141
▁lshw	-3142
▁repair	-3143
▁conflic	-3144
▁phot	-3145
path	-3146
▁launcher	-3147
sible	-3148
▁db	-3149
▁dude	-3150
▁lower	-3151
▁cy	-3152
underbird	-3153
rar	-3154
ification	-3155
▁speakers	-3156
▁sites	-3157
▁mostly	-3158
aming	-3159
▁helpful	-3160
exe	-3161
▁dead	-3162
▁tcp	-3163
▁recent	-3164
▁minimal	-3165
▁broke	-3166
▁posted	-3167
erver	-3168
▁uni	-3169
▁medi	-3170
ected	-3171
▁telnet	-3172
urther	-3173
by	-3174
ube	-3175
▁integrated	-3176
ftpd	-3177
lex	-3178
▁verify	-3179
▁iirc	-3180
▁total	-3181
▁further	-3182
ities	-3183
▁fut	-3184
build	-3185
txt	-3186
▁polic	-3187
▁fore	-3188
▁gotta	-3189
.7	-3190
▁squ	-3191
▁rescue	-3192
headers	-3193
▁winxp	-3194
▁physical	-3195
ram	-3196
▁xgl	-3197
▁pdf	-3198
▁twice	-3199
▁ban	-3200
▁sudd	-3201
▁crashed	-3202
pse	-3203
▁offer	-3204
2.1	-3205
▁color	-3206
utils	-3207
▁dependency	-3208
▁60	-3209
common	-3210
▁continue	-3211
▁quiet	-3212
▁response	-3213
▁agree	-3214
▁googling	-3215
▁msg	-3216
panel	-3217
pre	-3218
▁automount	-3219
▁hopefully	-3220
▁variable	-3221
press	-3222
▁emul	-3223
▁emacs	-3224
alk	-3225
▁wouldnt	-3226
▁released	-3227
point	-3228
▁failing	-3229
▁ubun	-3230
sum	-3231
▁valid	-3232
▁moved	-3233
15	-3234
768	-3235
ired	-3236
gu	-3237
▁situ	-3238
▁profile	-3239
non	-3240
ane	-3241
hr	-3242
▁bugs	-3243
▁wrote	-3244
▁esp	-3245
▁---	-3246
▁recognized	-3247
sn	-3248
▁1280	-3249
hoot	-3250
▁umask	-3251
▁az	-3252
▁kon	-3253
▁knew	-3254
▁hig	-3255
version	-3256
▁beginning	-3257
▁folks	-3258
▁curious	-3259
▁blah	-3260
ips	-3261
level	-3262
▁thunderbird	-3263
▁additional	-3264
▁fu	-3265
▁libc	-3266
▁absol	-3267
▁locked	-3268
saver	-3269
itching	-3270
30	-3271
▁solved	-3272
▁soundcard	-3273
▁troubleshoot	-3274
▁mounts	-3275
▁sudden	-3276
▁huge	-3277
▁besides	-3278
ush	-3279
▁twe	-3280
▁ug	-3281
▁backports	-3282
▁ipv	-3283
▁pasted	-3284
▁absolut	-3285
▁protoc	-3286
▁op	-3287
▁together	-3288
▁envy	-3289
▁switched	-3290
5-	-3291
mpeg	-3292
▁500	-3293
pas	-3294
▁couldnt	-3295
▁finished	-3296
jor	-3297
▁ln	-3298
▁traffic	-3299
▁512	-3300
▁configuring	-3301
kill	-3302
▁policy	-3303
▁tempor	-3304
soft	-3305
▁white	-3306
▁edited	-3307
essions	-3308
▁24	-3309
▁camera	-3310
▁higher	-3311
▁openoffice	-3312
▁uninstalled	-3313
▁rate	-3314
stable	-3315
▁dv	-3316
▁inet	-3317
▁wep	-3318
vant	-3319
cast	-3320
ledge	-3321
▁signal	-3322
▁stored	-3323
▁lamp	-3324
▁symb	-3325
▁determ	-3326
▁remot	-3327
▁rendering	-3328
▁initrd	-3329
▁successfully	-3330
▁swe	-3331
da	-3332
over	-3333
▁sel	-3334
▁addresses	-3335
▁recall	-3336
▁target	-3337
place	-3338
▁777	-3339
▁repeat	-3340
acy	-3341
ability	-3342
▁future	-3343
▁mix	-3344
▁uid	-3345
▁learning	-3346
▁foo	-3347
▁libs	-3348
▁switching	-3349
nal	-3350
isk	-3351
▁netstat	-3352
▁ecli	-3353
ounter	-3354
▁yours	-3355
ede	-3356
▁personal	-3357
▁points	-3358
ided	-3359
▁kno	-3360
▁scp	-3361
▁major	-3362
▁vfat	-3363
▁personally	-3364
icks	-3365
▁complic	-3366
▁plus	-3367
▁depending	-3368
▁hum	-3369
▁chrome	-3370
▁funny	-3371
row	-3372
▁eclipse	-3373
▁unet	-3374
▁adjust	-3375
▁bought	-3376
aper	-3377
topic	-3378
ker	-3379
pg	-3380
▁building	-3381
ources	-3382
▁opengl	-3383
▁remount	-3384
ma	-3385
▁visual	-3386
▁third	-3387
extr	-3388
▁downloads	-3389
▁cmd	-3390
▁initial	-3391
▁amount	-3392
▁1.5	-3393
nonfree	-3394
▁prevent	-3395
▁mistake	-3396
anger	-3397
fg	-3398
▁middle	-3399
▁quotes	-3400
▁sessions	-3401
▁natty	-3402
▁disappe	-3403
bootin	-3404
▁fet	-3405
▁expert	-3406
▁song	-3407
▁1000	-3408
erald	-3409
▁essid	-3410
▁xr	-3411
▁operation	-3412
▁reformat	-3413
▁resolutions	-3414
ites	-3415
▁activate	-3416
▁2.6.1	-3417
illy	-3418
▁fairly	-3419
cle	-3420
▁value	-3421
▁reply	-3422
▁sees	-3423
ics	-3424
▁cube	-3425
▁seg	-3426
▁owned	-3427
▁shall	-3428
▁instal	-3429
ino	-3430
▁situation	-3431
▁tit	-3432
▁unstable	-3433
▁boxes	-3434
release	-3435
▁showed	-3436
aker	-3437
▁espec	-3438
13	-3439
▁design	-3440
db	-3441
▁lag	-3442
▁uncom	-3443
▁suspect	-3444
ony	-3445
▁knowledge	-3446
ne	-3447
▁compiler	-3448
▁pkg	-3449
▁experienc	-3450
▁trust	-3451
▁ic	-3452
▁perman	-3453
▁till	-3454
▁against	-3455
▁cuz	-3456
test	-3457
▁xterm	-3458
mo	-3459
▁perl	-3460
miss	-3461
▁esd	-3462
▁recomp	-3463
ii	-3464
▁unetbootin	-3465
session	-3466
▁equiv	-3467
▁xrandr	-3468
▁emerald	-3469
▁fill	-3470
atives	-3471
▁returned	-3472
▁pw	-3473
ceed	-3474
dvd	-3475
la	-3476
▁corrupted	-3477
▁networkmanager	-3478
▁crazy	-3479
ency	-3480
▁become	-3481
ively	-3482
▁brid	-3483
70	-3484
ital	-3485
▁finally	-3486
▁content	-3487
▁meaning	-3488
▁freen	-3489
▁accident	-3490
ropri	-3491
▁touchpad	-3492
▁wee	-3493
▁wall	-3494
▁morning	-3495
▁ot	-3496
▁gf	-3497
wind	-3498
▁dsl	-3499
▁glad	-3500
▁thru	-3501
▁behavi	-3502
▁sudoers	-3503
▁lcd	-3504
▁hosts	-3505
▁mixer	-3506
▁syslog	-3507
▁across	-3508
sure	-3509
▁cal	-3510
▁eg	-3511
▁tunnel	-3512
▁1.0	-3513
▁ter	-3514
▁words	-3515
▁sens	-3516
▁scratch	-3517
686	-3518
▁god	-3519
date	-3520
▁especially	-3521
▁remov	-3522
▁hw	-3523
▁listening	-3524
str	-3525
locks	-3526
ecks	-3527
▁reports	-3528
▁hun	-3529
rf	-3530
▁ffmpeg	-3531
▁imm	-3532
▁allowed	-3533
oooo	-3534
▁complicated	-3535
aq	-3536
antly	-3537
appy	-3538
▁teh	-3539
ried	-3540
support	-3541
▁freeze	-3542
▁dro	-3543
▁various	-3544
▁notebook	-3545
▁5.10	-3546
-4	-3547
▁persist	-3548
▁topic	-3549
▁appreciate	-3550
▁oops	-3551
▁microsoft	-3552
▁clock	-3553
▁azure	-3554
▁highlight	-3555
▁alias	-3556
▁dl	-3557
pace	-3558
xr	-3559
▁upon	-3560
aks	-3561
▁thumb	-3562
▁sat	-3563
▁displays	-3564
▁magic	-3565
icd	-3566
▁authentication	-3567
▁maint	-3568
▁ss	-3569
cy	-3570
▁hibernate	-3571
ros	-3572
▁suse	-3573
▁spl	-3574
uc	-3575
▁weeks	-3576
▁wast	-3577
▁maxim	-3578
▁32-	-3579
uss	-3580
ings	-3581
▁friends	-3582
▁define	-3583
▁azureus	-3584
map	-3585
▁subnet	-3586
▁reader	-3587
safe	-3588
▁aux	-3589
▁clicked	-3590
▁eject	-3591
▁tweak	-3592
▁rese	-3593
▁rub	-3594
▁ton	-3595
▁provided	-3596
▁remotely	-3597
izes	-3598
▁readme	-3599
▁concer	-3600
▁glxinfo	-3601
▁wicd	-3602
▁ben	-3603
hone	-3604
▁ahead	-3605
▁fetch	-3606
▁sch	-3607
▁rule	-3608
form	-3609
▁programming	-3610
▁array	-3611
▁corpor	-3612
▁mate	-3613
▁imagine	-3614
cket	-3615
▁frame	-3616
16	-3617
▁ather	-3618
▁codec	-3619
lly	-3620
▁messing	-3621
▁fixes	-3622
ye	-3623
▁om	-3624
ats	-3625
group	-3626
▁protocol	-3627
▁osx	-3628
▁oo	-3629
▁unre	-3630
▁burned	-3631
▁checks	-3632
chool	-3633
▁deleting	-3634
▁shown	-3635
▁killed	-3636
▁nmap	-3637
▁xine	-3638
ropriate	-3639
▁remain	-3640
▁compress	-3641
codecs	-3642
▁gotten	-3643
▁slower	-3644
▁channels	-3645
edega	-3646
▁atheros	-3647
''	-3648
aster	-3649
ron	-3650
▁saf	-3651
block	-3652
ribut	-3653
▁thanx	-3654
▁assist	-3655
----	-3656
▁pressing	-3657
cks	-3658
▁udev	-3659
▁board	-3660
ocated	-3661
mi	-3662
soci	-3663
▁headph	-3664
▁descript	-3665
▁backspace	-3666
500	-3667
▁range	-3668
▁cedega	-3669
▁action	-3670
▁18	-3671
▁clone	-3672
▁lack	-3673
▁shit	-3674
▁laptops	-3675
▁locally	-3676
driver	-3677
▁chose	-3678
files	-3679
▁seemed	-3680
itive	-3681
avig	-3682
vnc	-3683
▁ips	-3684
▁label	-3685
ls	-3686
▁dep	-3687
▁prior	-3688
-8	-3689
fault	-3690
▁shouldnt	-3691
rr	-3692
▁progress	-3693
▁upgrades	-3694
cont	-3695
editor	-3696
▁runlevel	-3697
▁movies	-3698
ersh	-3699
▁caused	-3700
oke	-3701
icate	-3702
▁ut	-3703
▁everybody	-3704
▁dvds	-3705
erd	-3706
▁distrib	-3707
like	-3708
ments	-3709
wifi	-3710
▁mar	-3711
▁ifup	-3712
▁kdm	-3713
▁wanting	-3714
▁tested	-3715
▁interested	-3716
tually	-3717
ict	-3718
▁self	-3719
▁html	-3720
extras	-3721
xine	-3722
▁helped	-3723
▁plain	-3724
▁partit	-3725
ustr	-3726
▁multi	-3727
▁picture	-3728
▁fixing	-3729
co	-3730
▁plays	-3731
▁usual	-3732
▁crashing	-3733
▁silly	-3734
▁certainly	-3735
▁overwrite	-3736
▁ll	-3737
▁filter	-3738
aly	-3739
▁logout	-3740
can	-3741
▁ld	-3742
uf	-3743
▁invol	-3744
▁school	-3745
▁classic	-3746
sel	-3747
▁failure	-3748
▁regarding	-3749
▁rights	-3750
▁21	-3751
iter	-3752
▁ee	-3753
▁resources	-3754
▁wasnt	-3755
▁reasons	-3756
▁acceleration	-3757
▁hist	-3758
▁iwlist	-3759
local	-3760
▁dump	-3761
▁turns	-3762
▁impos	-3763
22	-3764
▁index	-3765
▁title	-3766
▁shortcuts	-3767
new	-3768
▁tray	-3769
▁releases	-3770
ball	-3771
▁256	-3772
video	-3773
▁lea	-3774
replace	-3775
ination	-3776
▁conver	-3777
▁pointer	-3778
help	-3779
▁wipe	-3780
sec	-3781
▁2.0	-3782
▁hint	-3783
go	-3784
▁lilo	-3785
▁searched	-3786
▁conky	-3787
▁equival	-3788
ompl	-3789
▁playback	-3790
inking	-3791
bashrc	-3792
▁seriously	-3793
keys	-3794
▁passwords	-3795
▁ant	-3796
▁incor	-3797
▁party	-3798
▁associ	-3799
▁gpg	-3800
▁resource	-3801
▁dock	-3802
▁gigs	-3803
▁qt	-3804
zz	-3805
▁opp	-3806
▁wtf	-3807
oring	-3808
18	-3809
4-	-3810
mode	-3811
pose	-3812
iser	-3813
▁techn	-3814
▁bootup	-3815
▁distribution	-3816
▁appropriate	-3817
▁adduser	-3818
▁disabling	-3819
▁panic	-3820
▁libdvd	-3821
▁reference	-3822
▁acer	-3823
mission	-3824
zen	-3825
▁immedi	-3826
▁unm	-3827
▁fav	-3828
▁impro	-3829
nx	-3830
▁relevant	-3831
rive	-3832
▁walk	-3833
stood	-3834
here	-3835
▁slight	-3836
▁smaller	-3837
▁beep	-3838
▁scsi	-3839
▁redirect	-3840
artition	-3841
▁dyn	-3842
0'	-3843
▁postfix	-3844
▁photos	-3845
▁car	-3846
▁corporation	-3847
look	-3848
▁bigger	-3849
▁split	-3850
▁specified	-3851
▁capture	-3852
▁privile	-3853
▁automatix	-3854
tes	-3855
▁linksys	-3856
kernel	-3857
▁frequ	-3858
reinstall	-3859
__	-3860
▁argument	-3861
▁absolutely	-3862
▁dumb	-3863
▁suck	-3864
▁tree	-3865
ization	-3866
package	-3867
▁ste	-3868
▁kept	-3869
ese	-3870
▁asus	-3871
▁glib	-3872
▁tran	-3873
▁rar	-3874
▁confusing	-3875
▁desktops	-3876
hrase	-3877
▁decent	-3878
1-	-3879
▁svn	-3880
▁hook	-3881
▁impossible	-3882
ho	-3883
▁entirely	-3884
▁yo	-3885
ism	-3886
▁-9	-3887
▁determine	-3888
▁launchpad	-3889
▁commandline	-3890
▁team	-3891
99	-3892
▁attempting	-3893
▁equivalent	-3894
▁extensions	-3895
▁opin	-3896
▁alone	-3897
▁cross	-3898
▁corner	-3899
▁msn	-3900
▁dynam	-3901
▁throw	-3902
▁sftp	-3903
▁final	-3904
arth	-3905
▁tend	-3906
base	-3907
▁thinks	-3908
▁coll	-3909
▁avi	-3910
▁rad	-3911
▁unrar	-3912
▁willing	-3913
▁synaptics	-3914
▁ppl	-3915
▁screensaver	-3916
▁cf	-3917
kb	-3918
▁tom	-3919
▁eng	-3920
▁specs	-3921
▁serial	-3922
▁ul	-3923
▁answers	-3924
icated	-3925
▁slack	-3926
▁640	-3927
▁navig	-3928
▁increase	-3929
▁hy	-3930
▁incorrect	-3931
iting	-3932
-5	-3933
▁pa	-3934
based	-3935
▁parted	-3936
▁documents	-3937
▁canon	-3938
▁ve	-3939
▁mobile	-3940
▁maver	-3941
100	-3942
▁mint	-3943
ership	-3944
▁har	-3945
script	-3946
▁ccs	-3947
flash	-3948
system	-3949
▁chrom	-3950
▁reach	-3951
ppix	-3952
type	-3953
▁tru	-3954
▁decided	-3955
ribe	-3956
▁buggy	-3957
gig	-3958
installed	-3959
▁ccsm	-3960
▁madwifi	-3961
▁suddenly	-3962
well	-3963
rwx	-3964
▁limited	-3965
tures	-3966
▁tryed	-3967
ibility	-3968
▁notification	-3969
ramfs	-3970
▁makefile	-3971
▁generate	-3972
passw	-3973
around	-3974
▁youre	-3975
bz	-3976
▁recei	-3977
▁unpack	-3978
iba	-3979
▁vo	-3980
▁parameters	-3981
▁downgrade	-3982
auth	-3983
▁3.0	-3984
did	-3985
▁direction	-3986
▁gpu	-3987
▁backups	-3988
▁grey	-3989
rible	-3990
▁virus	-3991
▁sed	-3992
▁prefs	-3993
▁ub	-3994
▁googled	-3995
90	-3996
▁printing	-3997
▁worse	-3998
▁history	-3999
▁series	-4000
▁ruby	-4001
ection	-4002
▁yahoo	-4003
php	-4004
▁parts	-4005
▁jump	-4006
▁expected	-4007
▁bits	-4008
▁useless	-4009
▁compare	-4010
▁quality	-4011
▁flood	-4012
▁maverick	-4013
▁guides	-4014
▁partion	-4015
▁maintain	-4016
▁characters	-4017
tek	-4018
vs	-4019
aged	-4020
open	-4021
▁amsn	-4022
▁purpose	-4023
▁accessing	-4024
▁manuf	-4025
▁chromium	-4026
▁kick	-4027
▁linked	-4028
lob	-4029
▁knoppix	-4030
eld	-4031
▁reli	-4032
▁.'	-4033
xxx	-4034
▁hrm	-4035
order	-4036
▁transp	-4037
▁shr	-4038
▁temp	-4039
▁alien	-4040
mon	-4041
▁muted	-4042
ins	-4043
emu	-4044
sof	-4045
▁sry	-4046
▁causes	-4047
osing	-4048
▁uncomment	-4049
▁vid	-4050
3-	-4051
▁medibuntu	-4052
link	-4053
▁logo	-4054
▁accounts	-4055
▁transmission	-4056
wm	-4057
▁forever	-4058
▁pu	-4059
2.0	-4060
bsd	-4061
▁entered	-4062
ier	-4063
▁author	-4064
intel	-4065
itec	-4066
▁connects	-4067
▁idk	-4068
▁destination	-4069
ghz	-4070
900	-4071
▁autore	-4072
▁packets	-4073
dp	-4074
▁thingy	-4075
▁mm	-4076
3'	-4077
▁manufac	-4078
▁afterwards	-4079
▁mountpoint	-4080
hat	-4081
comp	-4082
▁128	-4083
▁contact	-4084
▁filesystems	-4085
▁const	-4086
ute	-4087
▁panels	-4088
▁stage	-4089
ik	-4090
▁ownership	-4091
▁nameserver	-4092
▁pipe	-4093
▁bey	-4094
▁spam	-4095
▁band	-4096
▁lsb	-4097
▁sad	-4098
▁wich	-4099
▁rebuild	-4100
-10	-4101
▁fuse	-4102
word	-4103
▁bookm	-4104
▁frustr	-4105
▁attached	-4106
▁community	-4107
▁field	-4108
▁blocks	-4109
▁mkfs	-4110
▁reiser	-4111
▁careful	-4112
▁tarball	-4113
▁typo	-4114
▁mer	-4115
▁transl	-4116
▁dot	-4117
css	-4118
▁combin	-4119
▁recompile	-4120
▁piec	-4121
▁discuss	-4122
▁tor	-4123
66	-4124
▁sweet	-4125
vo	-4126
ool	-4127
▁gfx	-4128
▁reported	-4129
▁mini	-4130
icon	-4131
▁news	-4132
▁unall	-4133
▁gmail	-4134
▁identify	-4135
▁ii	-4136
ances	-4137
resp	-4138
▁replaced	-4139
▁map	-4140
enty	-4141
▁failsafe	-4142
▁memtest	-4143
▁realtek	-4144
▁speaker	-4145
▁hav	-4146
▁hence	-4147
▁apple	-4148
▁beyond	-4149
pri	-4150
exec	-4151
▁git	-4152
▁assigned	-4153
▁workaround	-4154
oney	-4155
▁opinion	-4156
▁quickly	-4157
oss	-4158
▁previously	-4159
odes	-4160
▁lsof	-4161
▁lic	-4162
▁simpl	-4163
move	-4164
▁smp	-4165
pathy	-4166
▁appearance	-4167
rol	-4168
iment	-4169
▁bright	-4170
▁imple	-4171
pth	-4172
▁creates	-4173
▁jre	-4174
▁roll	-4175
idth	-4176
▁compos	-4177
▁thus	-4178
▁blocked	-4179
▁len	-4180
▁artic	-4181
▁gt	-4182
▁bridge	-4183
▁product	-4184
▁resolv	-4185
▁blinking	-4186
▁zip	-4187
▁provides	-4188
▁tosh	-4189
▁played	-4190
fi	-4191
iny	-4192
▁unus	-4193
▁immediately	-4194
▁accidentally	-4195
▁sending	-4196
▁caps	-4197
▁erase	-4198
▁visible	-4199
▁worried	-4200
ds	-4201
1024	-4202
▁gen	-4203
that	-4204
agn	-4205
▁rom	-4206
▁green	-4207
▁money	-4208
▁realize	-4209
▁routers	-4210
write	-4211
▁formatting	-4212
▁killing	-4213
▁blocking	-4214
quer	-4215
mentation	-4216
▁appreciated	-4217
▁unallocated	-4218
▁uninstalling	-4219
▁eventually	-4220
▁mobo	-4221
▁webserver	-4222
tht	-4223
mask	-4224
setup	-4225
▁lead	-4226
▁pppo	-4227
▁engine	-4228
▁describ	-4229
▁research	-4230
▁fatal	-4231
parm	-4232
xconfig	-4233
cise	-4234
▁values	-4235
unk	-4236
▁experienced	-4237
ience	-4238
▁finds	-4239
▁enabling	-4240
▁extracted	-4241
▁modes	-4242
▁turning	-4243
▁taken	-4244
▁xin	-4245
ipped	-4246
ieve	-4247
▁refused	-4248
▁activated	-4249
lets	-4250
▁fusion	-4251
▁modified	-4252
▁loss	-4253
atic	-4254
▁resume	-4255
▁company	-4256
jo	-4257
dy	-4258
vv	-4259
▁ppc	-4260
▁advise	-4261
cfg	-4262
▁autoremove	-4263
▁skip	-4264
▁handy	-4265
▁0'	-4266
▁colors	-4267
▁randomly	-4268
shee	-4269
▁los	-4270
▁fuck	-4271
▁pointing	-4272
▁understanding	-4273
▁proc	-4274
▁honestly	-4275
▁binaries	-4276
▁2.4	-4277
▁checkinstall	-4278
tools	-4279
▁spaces	-4280
▁ugly	-4281
▁ufw	-4282
yle	-4283
17	-4284
▁banshee	-4285
thtv	-4286
▁viewer	-4287
▁isntall	-4288
▁privileges	-4289
▁saving	-4290
bind	-4291
omes	-4292
▁ability	-4293
adm	-4294
▁sitting	-4295
▁reads	-4296
▁gw	-4297
▁empathy	-4298
▁description	-4299
▁stays	-4300
▁wierd	-4301
▁possib	-4302
▁toshiba	-4303
▁hide	-4304
imedia	-4305
▁danger	-4306
▁players	-4307
▁routing	-4308
54	-4309
▁displayed	-4310
unes	-4311
▁configs	-4312
▁temporarily	-4313
▁dem	-4314
▁four	-4315
▁risk	-4316
▁mythtv	-4317
ising	-4318
▁referring	-4319
▁bittorrent	-4320
▁optim	-4321
▁uncheck	-4322
▁ra	-4323
▁socket	-4324
▁harddisk	-4325
▁ep	-4326
▁sets	-4327
omplish	-4328
▁locale	-4329
▁describe	-4330
▁sir	-4331
▁utf	-4332
▁debs	-4333
installer	-4334
▁js	-4335
▁phpmy	-4336
▁twin	-4337
▁fing	-4338
▁recurs	-4339
control	-4340
▁plenty	-4341
▁unmounted	-4342
▁fullscreen	-4343
▁phpmyadmin	-4344
itecture	-4345
▁cheap	-4346
login	-4347
▁mins	-4348
orrow	-4349
▁surpr	-4350
▁solutions	-4351
▁smooth	-4352
▁header	-4353
▁upstart	-4354
▁appro	-4355
▁indi	-4356
altern	-4357
▁alph	-4358
▁mono	-4359
▁pen	-4360
udo	-4361
ifs	-4362
▁parameter	-4363
▁functionality	-4364
▁fit	-4365
viewer	-4366
iod	-4367
▁cases	-4368
▁mid	-4369
▁insp	-4370
▁pent	-4371
outh	-4372
▁revert	-4373
▁unt	-4374
▁tick	-4375
▁burner	-4376
cing	-4377
▁packagename	-4378
kid	-4379
▁compon	-4380
▁bandw	-4381
▁browsing	-4382
fficient	-4383
1'	-4384
rag	-4385
▁worries	-4386
ama	-4387
arely	-4388
wl	-4389
▁legacy	-4390
▁termin	-4391
▁asp	-4392
▁3.5	-4393
▁poor	-4394
▁ntp	-4395
▁keyring	-4396
▁accomplish	-4397
▁loopback	-4398
gest	-4399
itted	-4400
▁macbook	-4401
▁freenode	-4402
480	-4403
▁listing	-4404
▁executed	-4405
▁goto	-4406
▁controls	-4407
▁itunes	-4408
▁hurt	-4409
ctl	-4410
als	-4411
▁kb	-4412
▁items	-4413
▁below	-4414
▁hdb	-4415
▁nah	-4416
▁multimedia	-4417
af	-4418
▁tabs	-4419
station	-4420
▁lame	-4421
▁dynamic	-4422
▁rmm	-4423
▁pend	-4424
dc	-4425
▁somewhat	-4426
▁administrator	-4427
▁pops	-4428
▁vert	-4429
rip	-4430
▁character	-4431
omet	-4432
▁lubuntu	-4433
▁univers	-4434
▁manufactur	-4435
▁fall	-4436
▁scanner	-4437
iness	-4438
▁ach	-4439
▁conflict	-4440
▁lyn	-4441
▁complaining	-4442
▁mass	-4443
▁arrow	-4444
▁friendly	-4445
▁libdvdcss	-4446
▁headphones	-4447
▁lx	-4448
▁websites	-4449
▁idle	-4450
ren	-4451
▁rmmod	-4452
▁spend	-4453
▁selecting	-4454
▁nom	-4455
gears	-4456
▁90	-4457
▁pure	-4458
▁hdparm	-4459
▁includes	-4460
▁coz	-4461
ited	-4462
▁ns	-4463
▁slackware	-4464
▁expand	-4465
▁tips	-4466
▁arent	-4467
mind	-4468
▁anal	-4469
▁claim	-4470
▁wallp	-4471
2'	-4472
▁cfdisk	-4473
▁frozen	-4474
eme	-4475
▁ta	-4476
▁zero	-4477
▁defined	-4478
del	-4479
▁advant	-4480
▁clearly	-4481
▁kk	-4482
least	-4483
▁remix	-4484
▁house	-4485
ision	-4486
▁glob	-4487
tb	-4488
▁frontend	-4489
▁ment	-4490
▁pract	-4491
▁hitting	-4492
now	-4493
▁audacity	-4494
onf	-4495
▁outputs	-4496
▁pcs	-4497
▁pcmc	-4498
▁scanning	-4499
ko	-4500
▁buffer	-4501
licant	-4502
▁period	-4503
iled	-4504
ined	-4505
▁hanging	-4506
▁smbfs	-4507
▁terms	-4508
▁answered	-4509
▁push	-4510
▁taskbar	-4511
▁encounter	-4512
▁ti	-4513
▁experiment	-4514
▁registered	-4515
▁knowing	-4516
19	-4517
▁700	-4518
▁verb	-4519
▁000	-4520
▁slightly	-4521
▁755	-4522
▁sho	-4523
▁unzip	-4524
▁mdadm	-4525
▁microp	-4526
▁blkid	-4527
▁disconnected	-4528
▁spot	-4529
▁usplash	-4530
▁pcmcia	-4531
▁atleast	-4532
▁responding	-4533
▁crt	-4534
▁lynx	-4535
▁brings	-4536
▁larger	-4537
reate	-4538
profile	-4539
▁tutorials	-4540
print	-4541
vf	-4542
orn	-4543
▁unlock	-4544
ev	-4545
▁amaz	-4546
▁developers	-4547
umes	-4548
cutter	-4549
▁considering	-4550
aug	-4551
▁types	-4552
▁precise	-4553
▁acces	-4554
▁hfs	-4555
▁draw	-4556
▁meta	-4557
compl	-4558
▁openbox	-4559
▁processing	-4560
▁bur	-4561
▁encod	-4562
jdk	-4563
asing	-4564
▁thinkpad	-4565
▁tag	-4566
▁2.6.3	-4567
apic	-4568
▁express	-4569
dos	-4570
▁chain	-4571
▁timeout	-4572
▁delay	-4573
▁extrem	-4574
▁freezing	-4575
▁eff	-4576
arks	-4577
▁digital	-4578
▁cros	-4579
▁didn	-4580
▁receive	-4581
fold	-4582
▁clam	-4583
▁webmin	-4584
▁pentium	-4585
▁sector	-4586
▁pref	-4587
▁ib	-4588
esty	-4589
▁erm	-4590
▁techno	-4591
▁tre	-4592
select	-4593
2.	-4594
▁usr	-4595
▁usable	-4596
▁upper	-4597
▁ipw	-4598
▁origin	-4599
▁directions	-4600
mhz	-4601
▁complains	-4602
▁impress	-4603
tab	-4604
▁feed	-4605
forward	-4606
eg	-4607
▁dbus	-4608
yes	-4609
▁distribut	-4610
▁dangerous	-4611
-386	-4612
▁heck	-4613
▁commented	-4614
▁secondary	-4615
supported	-4616
▁stock	-4617
▁compared	-4618
▁300	-4619
▁ahhh	-4620
▁loose	-4621
▁diagn	-4622
▁01	-4623
▁exe	-4624
▁isn	-4625
28	-4626
▁tip	-4627
ering	-4628
etect	-4629
▁microphone	-4630
▁colum	-4631
gt	-4632
▁blo	-4633
97	-4634
▁refuses	-4635
hop	-4636
sover	-4637
▁apart	-4638
▁192.1	-4639
▁spell	-4640
ret	-4641
▁dark	-4642
▁glxgears	-4643
ilities	-4644
▁invoke	-4645
▁air	-4646
▁decide	-4647
▁23	-4648
▁chk	-4649
▁article	-4650
grad	-4651
▁ooo	-4652
▁letters	-4653
▁face	-4654
▁belong	-4655
945	-4656
cel	-4657
va	-4658
img	-4659
▁individ	-4660
▁nevermind	-4661
▁cos	-4662
▁eee	-4663
▁1'	-4664
tain	-4665
▁earth	-4666
▁tired	-4667
▁cheers	-4668
cent	-4669
400	-4670
ivity	-4671
▁wid	-4672
rs	-4673
▁192.168	-4674
▁architecture	-4675
html	-4676
▁pcm	-4677
▁newly	-4678
▁pictures	-4679
▁resizing	-4680
▁fiesty	-4681
▁parent	-4682
rel	-4683
▁horiz	-4684
▁navigate	-4685
▁thoughts	-4686
▁iam	-4687
▁marked	-4688
▁entering	-4689
▁gar	-4690
▁edge	-4691
▁ther	-4692
▁calls	-4693
men	-4694
anks	-4695
▁mot	-4696
cial	-4697
▁rot	-4698
aced	-4699
▁crossover	-4700
25	-4701
sphrase	-4702
.0.	-4703
iro	-4704
▁nc	-4705
▁gid	-4706
▁keeping	-4707
entially	-4708
▁puts	-4709
▁crack	-4710
▁indicator	-4711
▁slave	-4712
▁van	-4713
▁adress	-4714
▁redhat	-4715
▁10.4	-4716
ature	-4717
▁feeling	-4718
▁broadcast	-4719
▁die	-4720
▁defrag	-4721
will	-4722
▁gain	-4723
▁relative	-4724
▁extremely	-4725
▁qemu	-4726
ded	-4727
▁complex	-4728
▁generated	-4729
▁accessories	-4730
▁mmm	-4731
logies	-4732
ca	-4733
ung	-4734
duce	-4735
86_	-4736
▁bras	-4737
▁understood	-4738
▁bytes	-4739
▁gimme	-4740
kit	-4741
▁ssd	-4742
▁breaks	-4743
▁mirrors	-4744
▁libg	-4745
▁detects	-4746
▁twinview	-4747
▁troubleshooting	-4748
▁emulator	-4749
▁parition	-4750
enger	-4751
▁wip	-4752
▁webpage	-4753
passwd	-4754
bb	-4755
▁0.0	-4756
▁bandwidth	-4757
▁sil	-4758
▁patches	-4759
▁2.2	-4760
▁jsut	-4761
atform	-4762
eel	-4763
▁bork	-4764
▁desk	-4765
inf	-4766
while	-4767
▁cvs	-4768
▁backed	-4769
▁letter	-4770
▁pressed	-4771
▁brightness	-4772
▁favor	-4773
▁destro	-4774
▁offline	-4775
▁reverse	-4776
▁prefix	-4777
▁nix	-4778
▁piece	-4779
▁600	-4780
▁mesa	-4781
lish	-4782
▁interrupt	-4783
▁locks	-4784
▁formats	-4785
urses	-4786
font	-4787
▁leaving	-4788
▁mainly	-4789
▁2.1	-4790
▁occur	-4791
▁pinging	-4792
ler	-4793
ison	-4794
▁containing	-4795
igr	-4796
▁considered	-4797
ifier	-4798
▁si	-4799
▁ded	-4800
apping	-4801
▁spin	-4802
▁excell	-4803
▁dma	-4804
▁restric	-4805
tv	-4806
▁attention	-4807
oming	-4808
▁adsl	-4809
▁ends	-4810
cha	-4811
386.	-4812
▁dropped	-4813
▁rip	-4814
▁alpha	-4815
▁initramfs	-4816
▁imo	-4817
▁lxde	-4818
▁catch	-4819
active	-4820
▁ended	-4821
▁tight	-4822
rt	-4823
▁partitioned	-4824
▁sdc	-4825
▁pin	-4826
▁behavior	-4827
▁flick	-4828
▁workgroup	-4829
alternatives	-4830
window	-4831
▁letting	-4832
98	-4833
▁slot	-4834
directory	-4835
▁permanent	-4836
▁studio	-4837
▁fps	-4838
▁lucky	-4839
▁tomorrow	-4840
buffer	-4841
shell	-4842
▁managers	-4843
▁spent	-4844
▁windo	-4845
▁proced	-4846
▁accessible	-4847
plugins	-4848
▁printers	-4849
▁safely	-4850
▁alter	-4851
▁io	-4852
then	-4853
▁selection	-4854
▁dash	-4855
▁mal	-4856
▁htop	-4857
▁busybox	-4858
▁dar	-4859
win	-4860
86_64	-4861
▁notes	-4862
▁yu	-4863
▁dirs	-4864
▁excl	-4865
▁iface	-4866
fusion	-4867
▁raw	-4868
▁hub	-4869
▁wide	-4870
▁workstation	-4871
33	-4872
▁brasero	-4873
▁symbolic	-4874
dep	-4875
▁nx	-4876
▁cs	-4877
ming	-4878
▁designed	-4879
▁drw	-4880
ums	-4881
▁planning	-4882
▁jdk	-4883
▁hdmi	-4884
▁watching	-4885
▁emb	-4886
▁escape	-4887
▁proceed	-4888
▁shoot	-4889
▁associated	-4890
▁bs	-4891
▁comfort	-4892
▁readable	-4893
▁somthing	-4894
▁switches	-4895
▁excellent	-4896
▁probs	-4897
▁partiton	-4898
▁removable	-4899
ctions	-4900
▁sshfs	-4901
▁noise	-4902
▁waste	-4903
▁shrink	-4904
▁testdisk	-4905
▁canonical	-4906
▁wo	-4907
▁radio	-4908
▁undo	-4909
▁nicely	-4910
▁compatibility	-4911
▁visudo	-4912
awn	-4913
asks	-4914
▁ble	-4915
mozilla	-4916
▁append	-4917
▁crappy	-4918
▁vncserver	-4919
1.	-4920
▁wif	-4921
hand	-4922
88	-4923
lied	-4924
▁spare	-4925
▁style	-4926
▁sectors	-4927
▁ogg	-4928
▁fancy	-4929
▁recording	-4930
▁cost	-4931
▁ak	-4932
▁fn	-4933
▁ui	-4934
▁germ	-4935
▁cifs	-4936
▁freak	-4937
▁404	-4938
▁becomes	-4939
lik	-4940
▁surely	-4941
▁explains	-4942
▁conv	-4943
▁ignored	-4944
▁1.1	-4945
▁losing	-4946
raft	-4947
▁joy	-4948
▁strong	-4949
▁terminals	-4950
▁span	-4951
▁capable	-4952
code	-4953
eric	-4954
▁torrents	-4955
▁typically	-4956
▁kernal	-4957
▁jour	-4958
▁photoshop	-4959
ern	-4960
diot	-4961
illion	-4962
▁brother	-4963
▁someth	-4964
▁freebsd	-4965
▁unsupported	-4966
▁aha	-4967
▁candid	-4968
▁family	-4969
py	-4970
▁kvm	-4971
▁802.1	-4972
▁sequ	-4973
jre	-4974
fre	-4975
▁cover	-4976
lx	-4977
▁identical	-4978
inst	-4979
ha	-4980
▁suit	-4981
aby	-4982
▁ohh	-4983
que	-4984
▁vend	-4985
▁pix	-4986
▁heron	-4987
▁preference	-4988
▁discover	-4989
▁packaged	-4990
yng	-4991
▁behaviour	-4992
▁sb	-4993
▁400	-4994
auto	-4995
▁clar	-4996
▁therefore	-4997
▁wallpaper	-4998
▁symlinks	-4999
▁surprised	-5000
offtopic	-5001
bex	-5002
▁permanently	-5003
▁volumes	-5004
proper	-5005
.10-	-5006
▁wise	-5007
download	-5008
▁handles	-5009
▁sid	-5010
process	-5011
▁gd	-5012
▁comments	-5013
▁ages	-5014
▁circ	-5015
▁userm	-5016
▁mistak	-5017
▁detecting	-5018
300	-5019
▁deluge	-5020
▁query	-5021
▁stopping	-5022
xe	-5023
▁passphrase	-5024
▁tmp	-5025
▁daily	-5026
acer	-5027
▁bars	-5028
▁cheese	-5029
▁prolly	-5030
acing	-5031
▁gaming	-5032
▁foc	-5033
▁tons	-5034
▁nearly	-5035
▁streaming	-5036
avy	-5037
oking	-5038
▁forced	-5039
▁agp	-5040
▁5.04	-5041
▁reboots	-5042
▁sar	-5043
ender	-5044
▁sony	-5045
▁elsewhere	-5046
▁developer	-5047
versation	-5048
▁xxx	-5049
▁died	-5050
▁liter	-5051
▁strace	-5052
▁backing	-5053
gre	-5054
▁backport	-5055
▁ssid	-5056
▁gm	-5057
cur	-5058
▁std	-5059
▁reiserfs	-5060
▁implement	-5061
abor	-5062
▁awn	-5063
▁learned	-5064
▁popular	-5065
▁removal	-5066
▁tiny	-5067
▁explan	-5068
95	-5069
ssl	-5070
▁compizconfig	-5071
810	-5072
▁1.4	-5073
aling	-5074
address	-5075
default	-5076
▁froze	-5077
▁offtopic	-5078
▁budd	-5079
▁matters	-5080
▁concerned	-5081
▁flags	-5082
▁awk	-5083
▁crypt	-5084
▁oct	-5085
track	-5086
▁ice	-5087
▁nut	-5088
▁anim	-5089
▁excuse	-5090
▁necessarily	-5091
▁xdm	-5092
▁suggests	-5093
▁decor	-5094
▁ifdown	-5095
▁choices	-5096
▁migr	-5097
▁scripting	-5098
ples	-5099
▁autod	-5100
▁1.2	-5101
▁ensure	-5102
▁happend	-5103
pass	-5104
▁hash	-5105
▁mand	-5106
▁802.11	-5107
▁holding	-5108
▁verbose	-5109
▁speaking	-5110
record	-5111
▁messenger	-5112
▁reconnect	-5113
▁fx	-5114
▁tb	-5115
iph	-5116
▁dosent	-5117
▁99	-5118
▁flaw	-5119
▁libx	-5120
▁squid	-5121
▁struc	-5122
▁xbox	-5123
▁envyng	-5124
opt	-5125
with	-5126
▁combination	-5127
avail	-5128
▁node	-5129
▁worst	-5130
▁replacing	-5131
▁possibility	-5132
omb	-5133
▁originally	-5134
▁aswell	-5135
▁regardless	-5136
▁lazy	-5137
▁386	-5138
▁manpage	-5139
▁improve	-5140
qt	-5141
▁apo	-5142
▁executing	-5143
▁ata	-5144
▁250	-5145
▁idiot	-5146
▁tricky	-5147
▁omg	-5148
▁wiz	-5149
▁proftpd	-5150
ept	-5151
▁bum	-5152
▁overr	-5153
▁superblock	-5154
▁gee	-5155
ulate	-5156
▁pac	-5157
▁hat	-5158
▁slowly	-5159
▁aim	-5160
tim	-5161
▁2.5	-5162
▁effort	-5163
▁konquer	-5164
▁variables	-5165
icit	-5166
▁nvm	-5167
▁assumed	-5168
▁workspace	-5169
▁paths	-5170
old	-5171
▁ple	-5172
▁platform	-5173
▁forwarded	-5174
▁temporary	-5175
logy	-5176
▁gnash	-5177
▁cables	-5178
els	-5179
gen	-5180
▁yeh	-5181
▁closing	-5182
▁frequency	-5183
▁alternatives	-5184
ali	-5185
▁vsftpd	-5186
-2.6.2	-5187
▁pendrive	-5188
▁differently	-5189
tion	-5190
▁analog	-5191
▁usermod	-5192
ously	-5193
▁dies	-5194
▁candidate	-5195
▁framebuffer	-5196
▁position	-5197
likely	-5198
▁minimize	-5199
leg	-5200
▁ax	-5201
▁manufacturer	-5202
lon	-5203
▁procedure	-5204
9660	-5205
▁harder	-5206
▁hex	-5207
▁comfortable	-5208
▁benef	-5209
▁depth	-5210
▁respect	-5211
▁restarts	-5212
▁fw	-5213
▁damage	-5214
▁heres	-5215
▁transparent	-5216
oul	-5217
▁ec	-5218
▁faq	-5219
aching	-5220
▁ibm	-5221
▁bout	-5222
▁snap	-5223
▁everywhere	-5224
aste	-5225
▁upt	-5226
▁human	-5227
▁choosing	-5228
▁dependan	-5229
▁updatedb	-5230
aff	-5231
▁allready	-5232
eeee	-5233
▁event	-5234
▁logon	-5235
▁netmask	-5236
ets	-5237
▁wins	-5238
▁tasks	-5239
▁jav	-5240
itical	-5241
▁43	-5242
▁runn	-5243
ipping	-5244
▁differences	-5245
gan	-5246
▁object	-5247
itech	-5248
▁dedicated	-5249
▁70	-5250
▁hooked	-5251
supplicant	-5252
▁surf	-5253
▁dupl	-5254
properties	-5255
iphany	-5256
▁hahah	-5257
▁story	-5258
▁achieve	-5259
▁plugging	-5260
jpg	-5261
▁sym	-5262
▁arguments	-5263
ater	-5264
▁gir	-5265
mouth	-5266
ague	-5267
▁thnx	-5268
▁httpd	-5269
▁sig	-5270
▁realplayer	-5271
apack	-5272
▁songs	-5273
windows	-5274
▁copies	-5275
▁prompts	-5276
ockey	-5277
▁elabor	-5278
▁bsd	-5279
▁destroy	-5280
▁activity	-5281
uz	-5282
clock	-5283
▁needing	-5284
dump	-5285
owser	-5286
▁patience	-5287
oh	-5288
▁ssl	-5289
▁removes	-5290
▁bookmarks	-5291
▁dum	-5292
▁perms	-5293
proxy	-5294
▁writes	-5295
selves	-5296
▁dualboot	-5297
▁inspiron	-5298
7-	-5299
▁imho	-5300
▁duo	-5301
▁pav	-5302
▁replacement	-5303
ecrypt	-5304
ulting	-5305
▁speeds	-5306
▁involved	-5307
▁goal	-5308
▁sensors	-5309
▁led	-5310
▁xfs	-5311
respond	-5312
▁pot	-5313
▁mask	-5314
▁xv	-5315
fire	-5316
▁prof	-5317
▁postg	-5318
▁reconfig	-5319
▁hotplug	-5320
▁sits	-5321
▁encountered	-5322
▁compaq	-5323
▁sql	-5324
▁ply	-5325
phigh	-5326
▁extras	-5327
▁misunder	-5328
hq	-5329
daemon	-5330
ands	-5331
▁global	-5332
▁advance	-5333
▁suggesting	-5334
pod	-5335
▁uhm	-5336
▁konqueror	-5337
---	-5338
▁layer	-5339
names	-5340
▁pol	-5341
▁myth	-5342
▁aplay	-5343
▁enlight	-5344
mas	-5345
▁gam	-5346
▁mpeg	-5347
▁reliable	-5348
sys	-5349
▁trig	-5350
▁sched	-5351
scan	-5352
▁fal	-5353
▁xen	-5354
▁simpler	-5355
▁disappeared	-5356
▁heavy	-5357
activ	-5358
▁themselves	-5359
libs	-5360
▁mute	-5361
▁taht	-5362
-2.6.1	-5363
▁flashing	-5364
▁received	-5365
▁successful	-5366
▁5.1	-5367
dated	-5368
▁openv	-5369
▁posts	-5370
▁column	-5371
▁browsers	-5372
▁symbol	-5373
▁correspond	-5374
enable	-5375
▁context	-5376
▁epiphany	-5377
▁horrible	-5378
▁elaborate	-5379
ercial	-5380
▁cancel	-5381
▁eye	-5382
▁recom	-5383
▁wizard	-5384
▁powerful	-5385
iric	-5386
▁libgtk	-5387
▁provider	-5388
48	-5389
ored	-5390
▁preferred	-5391
inux	-5392
▁0.9	-5393
▁examples	-5394
erama	-5395
change	-5396
▁pppoe	-5397
▁metapack	-5398
▁scrolling	-5399
▁aig	-5400
vest	-5401
ails	-5402
pper	-5403
▁explicit	-5404
-6	-5405
▁tee	-5406
▁minimum	-5407
available	-5408
▁business	-5409
▁structure	-5410
▁pow	-5411
▁aint	-5412
▁jockey	-5413
▁wild	-5414
▁postgres	-5415
▁priority	-5416
▁tablet	-5417
doc	-5418
▁wheel	-5419
▁allowing	-5420
▁opensource	-5421
oute	-5422
ured	-5423
▁tex	-5424
75	-5425
▁mobility	-5426
acting	-5427
▁windoze	-5428
▁xfree	-5429
rwxrwx	-5430
update	-5431
▁creator	-5432
▁preview	-5433
▁harm	-5434
▁pasting	-5435
▁686	-5436
▁gur	-5437
▁gray	-5438
▁athlon	-5439
▁headset	-5440
▁pwd	-5441
access	-5442
▁attempted	-5443
tle	-5444
▁vt	-5445
▁archives	-5446
▁unlikely	-5447
▁pad	-5448
weight	-5449
▁clues	-5450
backports	-5451
▁functions	-5452
atly	-5453
▁rock	-5454
▁lately	-5455
▁prep	-5456
▁recreate	-5457
▁interpre	-5458
▁aiglx	-5459
▁sell	-5460
▁described	-5461
annel	-5462
onsive	-5463
▁locales	-5464
author	-5465
▁rates	-5466
omething	-5467
▁journal	-5468
gi	-5469
arant	-5470
▁voice	-5471
▁120	-5472
▁individual	-5473
partition	-5474
▁shoud	-5475
▁highly	-5476
cop	-5477
gui	-5478
▁sis	-5479
▁oneiric	-5480
clean	-5481
▁acro	-5482
▁garb	-5483
▁invest	-5484
▁calling	-5485
ises	-5486
▁quake	-5487
▁gotcha	-5488
▁ultim	-5489
browser	-5490
▁prompted	-5491
▁thin	-5492
▁colour	-5493
▁estab	-5494
▁member	-5495
▁hosting	-5496
orer	-5497
▁libgl	-5498
▁remind	-5499
▁cc	-5500
uing	-5501
▁offers	-5502
▁physically	-5503
▁hass	-5504
▁shad	-5505
▁forth	-5506
▁damaged	-5507
▁xinerama	-5508
ued	-5509
▁solid	-5510
▁enjo	-5511
▁german	-5512
▁approach	-5513
▁segfault	-5514
▁brain	-5515
▁nu	-5516
▁grow	-5517
▁among	-5518
menu	-5519
▁aver	-5520
▁1.6	-5521
acious	-5522
▁repartition	-5523
▁plymouth	-5524
5-2	-5525
▁hte	-5526
▁borked	-5527
▁ubunut	-5528
▁freed	-5529
▁pam	-5530
error	-5531
▁customize	-5532
73	-5533
▁license	-5534
▁dong	-5535
▁pointed	-5536
apache	-5537
▁2007	-5538
▁ou	-5539
▁automag	-5540
▁advantage	-5541
mbr	-5542
poses	-5543
▁stud	-5544
▁sendmail	-5545
fonts	-5546
backup	-5547
▁logitech	-5548
▁essential	-5549
23	-5550
▁ignoring	-5551
44	-5552
stu	-5553
hda	-5554
lab	-5555
bing	-5556
▁detailed	-5557
gear	-5558
iga	-5559
▁dvi	-5560
▁adds	-5561
▁ibex	-5562
▁statement	-5563
▁winehq	-5564
▁methods	-5565
▁vendor	-5566
apped	-5567
▁chances	-5568
▁libst	-5569
spe	-5570
stick	-5571
▁attach	-5572
▁unsure	-5573
laptop	-5574
▁purposes	-5575
▁child	-5576
▁pkill	-5577
61	-5578
rpm	-5579
▁02	-5580
▁supply	-5581
▁lm	-5582
fwcutter	-5583
▁lime	-5584
▁applets	-5585
live	-5586
usty	-5587
veau	-5588
hd	-5589
▁unload	-5590
▁clarify	-5591
▁wmv	-5592
▁constantly	-5593
▁definition	-5594
▁gzip	-5595
▁embed	-5596
31	-5597
▁drops	-5598
▁theory	-5599
username	-5600
▁amazing	-5601
▁160	-5602
▁noone	-5603
▁clamav	-5604
▁picked	-5605
▁faker	-5606
▁greet	-5607
▁sequence	-5608
▁tt	-5609
▁yay	-5610
▁gdesk	-5611
▁locking	-5612
▁gv	-5613
▁noauto	-5614
▁mx	-5615
▁sorts	-5616
▁presume	-5617
▁pxe	-5618
▁kidd	-5619
▁alloc	-5620
▁recognizes	-5621
asion	-5622
▁levels	-5623
▁truecrypt	-5624
yy	-5625
▁vino	-5626
▁ghost	-5627
▁realy	-5628
▁requirements	-5629
cript	-5630
▁troll	-5631
fsck	-5632
roid	-5633
▁breaking	-5634
▁wife	-5635
▁persistent	-5636
ays	-5637
cat	-5638
strap	-5639
▁libflash	-5640
▁sr	-5641
odeset	-5642
▁inserted	-5643
tool	-5644
alled	-5645
▁buddy	-5646
mer	-5647
▁wl	-5648
▁prints	-5649
ssh	-5650
tun	-5651
▁evening	-5652
▁guarant	-5653
▁outdated	-5654
▁pip	-5655
ario	-5656
▁instances	-5657
repos	-5658
▁xml	-5659
▁jobs	-5660
▁audacious	-5661
▁permitted	-5662
▁nou	-5663
paces	-5664
▁nomodeset	-5665
▁konsole	-5666
▁fy	-5667
▁75	-5668
▁rtl	-5669
mark	-5670
▁badly	-5671
▁cell	-5672
▁2008	-5673
▁displaying	-5674
ensive	-5675
▁requests	-5676
▁enlighten	-5677
▁fly	-5678
▁passed	-5679
▁creative	-5680
▁composite	-5681
lu	-5682
▁irq	-5683
▁nas	-5684
arrow	-5685
baker	-5686
src	-5687
vol	-5688
▁teach	-5689
▁experiencing	-5690
acom	-5691
▁wake	-5692
▁round	-5693
▁rog	-5694
books	-5695
device	-5696
format	-5697
▁viruses	-5698
▁sum	-5699
▁frustrating	-5700
▁dk	-5701
1200	-5702
hhhh	-5703
idently	-5704
upd	-5705
▁hardly	-5706
fr	-5707
cies	-5708
▁dream	-5709
▁satis	-5710
▁consist	-5711
▁hints	-5712
▁awhile	-5713
▁ni	-5714
acle	-5715
▁retri	-5716
▁untill	-5717
▁limewire	-5718
▁blind	-5719
▁explorer	-5720
▁und	-5721
▁obtain	-5722
ifications	-5723
▁tha	-5724
achable	-5725
▁country	-5726
▁formated	-5727
▁writable	-5728
▁noapic	-5729
▁completion	-5730
▁py	-5731
▁literally	-5732
▁ru	-5733
ools	-5734
spec	-5735
▁tonight	-5736
▁assistance	-5737
▁stri	-5738
▁shutting	-5739
match	-5740
▁lappy	-5741
▁partitioner	-5742
▁configurations	-5743
▁dim	-5744
▁pal	-5745
▁components	-5746
▁ek	-5747
▁sigh	-5748
enames	-5749
▁sizes	-5750
band	-5751
▁anyhow	-5752
▁technically	-5753
▁acting	-5754
▁closes	-5755
▁smtp	-5756
pages	-5757
▁focus	-5758
▁commercial	-5759
▁useradd	-5760
▁mc	-5761
fish	-5762
▁lid	-5763
▁matches	-5764
▁segmentation	-5765
▁1.3	-5766
▁libstdc	-5767
▁explanation	-5768
▁prev	-5769
▁restrict	-5770
▁rf	-5771
1050	-5772
▁workspaces	-5773
▁guid	-5774
▁kinds	-5775
▁superuser	-5776
▁sadly	-5777
▁resolved	-5778
bot	-5779
▁lt	-5780
▁latter	-5781
▁temper	-5782
▁maximum	-5783
▁technical	-5784
▁encoding	-5785
▁establish	-5786
▁realized	-5787
▁sometime	-5788
▁body	-5789
▁adept	-5790
▁centos	-5791
▁openvpn	-5792
epc	-5793
▁hmmmm	-5794
▁unreachable	-5795
▁ubunto	-5796
kin	-5797
▁utc	-5798
▁waht	-5799
▁backtrack	-5800
▁ldap	-5801
▁lights	-5802
▁incoming	-5803
▁dy	-5804
▁fake	-5805
▁2000	-5806
network	-5807
▁calc	-5808
▁fren	-5809
jar	-5810
▁opposed	-5811
lay	-5812
creen	-5813
▁dongle	-5814
▁82	-5815
▁visit	-5816
something	-5817
▁hom	-5818
▁1600	-5819
▁instruction	-5820
thanks	-5821
▁centr	-5822
▁96	-5823
pens	-5824
▁libapache	-5825
▁xb	-5826
eless	-5827
▁4096	-5828
▁bitch	-5829
▁headless	-5830
▁nos	-5831
▁stack	-5832
▁addr	-5833
▁utorrent	-5834
iling	-5835
▁attack	-5836
▁dan	-5837
▁04	-5838
fglrx	-5839
▁frost	-5840
▁kid	-5841
▁ugh	-5842
▁explained	-5843
ighter	-5844
▁cairo	-5845
▁reser	-5846
▁dropping	-5847
▁hel	-5848
▁sams	-5849
osity	-5850
▁tracer	-5851
▁subst	-5852
▁metapackage	-5853
▁ris	-5854
▁steam	-5855
▁hassle	-5856
▁vps	-5857
▁netbe	-5858
▁succeed	-5859
▁darn	-5860
▁greyed	-5861
unch	-5862
▁cred	-5863
▁debugging	-5864
kip	-5865
nip	-5866
▁ele	-5867
coder	-5868
▁buying	-5869
▁optical	-5870
▁essentially	-5871
amd	-5872
▁rarely	-5873
▁appeared	-5874
▁launching	-5875
kon	-5876
▁-1	-5877
▁states	-5878
▁wiresh	-5879
▁verified	-5880
▁dialup	-5881
▁netgear	-5882
▁openjdk	-5883
▁ral	-5884
▁youll	-5885
▁enjoy	-5886
▁shock	-5887
▁rtorrent	-5888
▁ow	-5889
modem	-5890
▁cdrecord	-5891
▁blender	-5892
gp	-5893
▁applied	-5894
▁comand	-5895
▁protect	-5896
▁suitable	-5897
lessly	-5898
▁aspire	-5899
▁reporting	-5900
▁utilities	-5901
ini	-5902
sens	-5903
▁wrapper	-5904
▁critical	-5905
▁conflicts	-5906
▁wireshark	-5907
▁gnomebaker	-5908
ope	-5909
remove	-5910
▁false	-5911
▁spanish	-5912
▁filenames	-5913
▁aff	-5914
▁hur	-5915
▁moves	-5916
▁belive	-5917
▁tables	-5918
▁tightvnc	-5919
▁98	-5920
▁bound	-5921
▁iphone	-5922
▁android	-5923
▁terrible	-5924
.32	-5925
▁4.0	-5926
hi	-5927
mach	-5928
▁bypass	-5929
▁attempts	-5930
▁xar	-5931
▁unbuntu	-5932
▁ship	-5933
▁backend	-5934
und	-5935
▁ouch	-5936
▁28	-5937
▁sends	-5938
▁netbeans	-5939
.-	-5940
cr	-5941
riva	-5942
▁2.6.24	-5943
▁bye	-5944
▁imap	-5945
▁ekiga	-5946
▁checkbox	-5947
screensaver	-5948
▁flashplayer	-5949
▁aside	-5950
▁occasion	-5951
ners	-5952
▁unused	-5953
▁languages	-5954
lies	-5955
_-	-5956
pars	-5957
▁stated	-5958
▁samsung	-5959
▁early	-5960
vt	-5961
▁mas	-5962
▁towards	-5963
▁warnings	-5964
eee	-5965
▁kidding	-5966
▁bla	-5967
▁ofc	-5968
▁sup	-5969
▁45	-5970
ield	-5971
▁joke	-5972
▁untar	-5973
▁brought	-5974
▁devs	-5975
▁abort	-5976
▁saves	-5977
▁opensuse	-5978
dec	-5979
700	-5980
▁unmet	-5981
▁bcmwl	-5982
▁popup	-5983
▁lightweight	-5984
iw	-5985
▁aka	-5986
▁glibc	-5987
▁faulty	-5988
np	-5989
drives	-5990
▁viewing	-5991
▁meg	-5992
▁ahve	-5993
▁french	-5994
nec	-5995
iding	-5996
▁acts	-5997
▁ju	-5998
▁unavailable	-5999
orders	-6000
▁recognise	-6001
ribly	-6002
▁patient	-6003
bs	-6004
does	-6005
home	-6006
uming	-6007
▁mixed	-6008
▁gdesklets	-6009
▁actionpars	-6010
▁fc	-6011
▁mandriva	-6012
▁mi	-6013
▁hung	-6014
▁drm	-6015
▁nouveau	-6016
▁answering	-6017
folder	-6018
52	-6019
lookup	-6020
▁connectivity	-6021
bed	-6022
exp	-6023
▁tm	-6024
▁deps	-6025
▁drake	-6026
users	-6027
current	-6028
nn	-6029
▁mandr	-6030
▁mistaken	-6031
▁compressed	-6032
▁incomp	-6033
▁referred	-6034
ked	-6035
forums	-6036
▁completed	-6037
round	-6038
▁nast	-6039
▁vague	-6040
▁freenx	-6041
▁firewire	-6042
▁reasonable	-6043
▁sane	-6044
▁gtkpod	-6045
34	-6046
▁src	-6047
▁mirc	-6048
▁obsol	-6049
▁broadband	-6050
▁div	-6051
▁xargs	-6052
▁actionparsnip	-6053
_0	-6054
▁yell	-6055
▁medium	-6056
▁trigger	-6057
▁charm	-6058
▁vanilla	-6059
▁unusable	-6060
installing	-6061
dns	-6062
▁ralink	-6063
ada	-6064
▁ia	-6065
agle	-6066
▁discs	-6067
▁eeepc	-6068
▁hibernation	-6069
ption	-6070
▁8800	-6071
▁curl	-6072
▁mencoder	-6073
▁48	-6074
2200	-6075
▁overhe	-6076
▁protected	-6077
ior	-6078
have	-6079
▁desp	-6080
▁checksum	-6081
43-	-6082
iconfig	-6083
monitor	-6084
text	-6085
▁que	-6086
▁basics	-6087
▁widget	-6088
▁mismatch	-6089
col	-6090
▁gun	-6091
▁owns	-6092
▁traceroute	-6093
gm	-6094
complete	-6095
▁searches	-6096
▁requested	-6097
▁smbclient	-6098
▁discussion	-6099
▁fyi	-6100
aging	-6101
▁togg	-6102
▁ubut	-6103
▁xbmc	-6104
repository	-6105
▁frostwire	-6106
▁gpl	-6107
▁unr	-6108
command	-6109
▁preser	-6110
ervers	-6111
oom	-6112
▁rer	-6113
▁conversation	-6114
power	-6115
▁roger	-6116
▁borders	-6117
▁expecting	-6118
▁relatively	-6119
ining	-6120
▁tuner	-6121
eth	-6122
▁junk	-6123
prise	-6124
when	-6125
▁modern	-6126
▁mandrake	-6127
▁hr	-6128
aris	-6129
hting	-6130
▁mpd	-6131
▁trace	-6132
backspace	-6133
▁carefully	-6134
iate	-6135
craft	-6136
▁tests	-6137
▁wacom	-6138
▁remains	-6139
1.2	-6140
▁ko	-6141
▁180	-6142
▁locations	-6143
rist	-6144
▁choppy	-6145
▁minor	-6146
▁kop	-6147
▁produce	-6148
rit	-6149
-3.4	-6150
ulous	-6151
▁1680	-6152
▁pae	-6153
▁subject	-6154
abilities	-6155
▁technologies	-6156
▁safer	-6157
▁disappear	-6158
▁envi	-6159
▁paper	-6160
▁ncurses	-6161
▁vncviewer	-6162
▁nero	-6163
▁claims	-6164
eed	-6165
qld	-6166
▁agre	-6167
▁events	-6168
▁finger	-6169
▁positive	-6170
▁redo	-6171
▁liked	-6172
▁extend	-6173
▁keyword	-6174
▁whit	-6175
bits	-6176
▁tur	-6177
▁fawn	-6178
▁nics	-6179
irus	-6180
▁matching	-6181
ptp	-6182
case	-6183
▁average	-6184
▁edubuntu	-6185
▁homepage	-6186
139	-6187
aaaa	-6188
ergy	-6189
▁blog	-6190
▁portable	-6191
▁quote	-6192
▁sarge	-6193
▁2009	-6194
▁fixmbr	-6195
▁dice	-6196
▁sorta	-6197
▁tough	-6198
fb	-6199
lol	-6200
▁production	-6201
ius	-6202
▁ghz	-6203
▁stre	-6204
▁lighter	-6205
▁combo	-6206
▁capital	-6207
configured	-6208
2-1	-6209
▁quad	-6210
▁autodetect	-6211
▁wil	-6212
▁serve	-6213
▁2.3	-6214
▁cas	-6215
▁frag	-6216
▁ubuntuforums	-6217
spot	-6218
▁rwx	-6219
▁unusual	-6220
ril	-6221
▁rob	-6222
▁tht	-6223
▁neat	-6224
▁whichever	-6225
boy	-6226
▁occurs	-6227
▁stands	-6228
igy	-6229
isco	-6230
▁nop	-6231
▁alsac	-6232
▁authorized	-6233
▁recursively	-6234
ahi	-6235
▁ist	-6236
▁dirty	-6237
ugg	-6238
▁evil	-6239
▁nasty	-6240
▁fb	-6241
▁kopete	-6242
▁accessed	-6243
▁particularly	-6244
▁resort	-6245
dsk	-6246
inc	-6247
▁sysv	-6248
▁ought	-6249
▁parse	-6250
▁scaling	-6251
▁swf	-6252
▁paid	-6253
rescue	-6254
▁amixer	-6255
▁smbpasswd	-6256
try	-6257
rad	-6258
▁adm	-6259
▁ich	-6260
eding	-6261
▁illeg	-6262
▁54	-6263
agick	-6264
graph	-6265
may	-6266
▁seam	-6267
▁wiped	-6268
▁placed	-6269
▁recursive	-6270
78	-6271
▁remaining	-6272
this	-6273
▁dict	-6274
▁uhh	-6275
ley	-6276
▁blame	-6277
▁legal	-6278
▁parall	-6279
▁headphone	-6280
▁launched	-6281
▁pointers	-6282
▁320	-6283
▁cri	-6284
volume	-6285
▁tracker	-6286
▁upstream	-6287
▁explicitly	-6288
▁fingers	-6289
cre	-6290
▁deboot	-6291
▁logins	-6292
▁stability	-6293
▁halt	-6294
▁repeating	-6295
alth	-6296
▁secs	-6297
▁sticks	-6298
authority	-6299
▁udp	-6300
▁unplugged	-6301
▁thous	-6302
▁qtp	-6303
media	-6304
▁unexp	-6305
▁iv	-6306
▁clip	-6307
▁wherever	-6308
▁kd	-6309
oth	-6310
▁eyes	-6311
▁lookup	-6312
▁investig	-6313
▁curiosity	-6314
▁subversion	-6315
▁automagically	-6316
▁bah	-6317
▁orange	-6318
orge	-6319
wo	-6320
▁diagnose	-6321
onym	-6322
png	-6323
willis	-6324
76	-6325
alyst	-6326
▁tune	-6327
3945	-6328
▁bed	-6329
▁partner	-6330
rary	-6331
▁tcpdump	-6332
▁lp	-6333
▁despite	-6334
▁tnx	-6335
▁posting	-6336
▁recorder	-6337
▁installations	-6338
▁flannel	-6339
hn	-6340
▁9600	-6341
▁five	-6342
▁organ	-6343
▁sorted	-6344
▁definately	-6345
freq	-6346
▁cond	-6347
▁aticonfig	-6348
▁partimage	-6349
standard	-6350
▁pattern	-6351
▁txt	-6352
▁emails	-6353
sm	-6354
ety	-6355
-686	-6356
dock	-6357
▁imp	-6358
▁audigy	-6359
▁printed	-6360
▁incompat	-6361
▁favorite	-6362
▁iwl	-6363
▁sta	-6364
built	-6365
icious	-6366
istant	-6367
▁mysqld	-6368
▁mapping	-6369
▁bz	-6370
ered	-6371
▁por	-6372
▁hdds	-6373
▁hund	-6374
▁tasksel	-6375
▁horizont	-6376
▁nuts	-6377
▁gusty	-6378
▁square	-6379
▁sufficient	-6380
14	-6381
38	-6382
rate	-6383
▁mhz	-6384
▁beginner	-6385
▁okey	-6386
▁libqt	-6387
▁shuts	-6388
▁signific	-6389
▁installable	-6390
▁qtparted	-6391
mys	-6392
▁vb	-6393
▁ctl	-6394
▁fli	-6395
▁driving	-6396
▁initially	-6397
ala	-6398
▁dang	-6399
▁runtime	-6400
▁accidently	-6401
▁intro	-6402
▁likes	-6403
▁override	-6404
▁accelerated	-6405
▁thun	-6406
▁xvid	-6407
▁hands	-6408
▁merge	-6409
▁photo	-6410
▁runing	-6411
▁biggest	-6412
▁converting	-6413
▁95	-6414
▁2010	-6415
action	-6416
▁accur	-6417
▁retry	-6418
▁substit	-6419
priv	-6420
72	-6421
▁flex	-6422
▁nslookup	-6423
uase	-6424
ellite	-6425
▁stump	-6426
▁absolute	-6427
▁intended	-6428
essentials	-6429
def	-6430
part	-6431
▁brown	-6432
related	-6433
▁leaves	-6434
▁highest	-6435
▁conflicting	-6436
▁nowhere	-6437
ae	-6438
▁infr	-6439
▁feels	-6440
▁wides	-6441
updates	-6442
▁san	-6443
▁bare	-6444
▁snapshot	-6445
there	-6446
specific	-6447
▁packaging	-6448
▁overwritten	-6449
gers	-6450
asure	-6451
▁avahi	-6452
▁catalyst	-6453
▁indicate	-6454
aught	-6455
▁piss	-6456
▁cores	-6457
▁puppy	-6458
pensive	-6459
▁reduce	-6460
▁hundred	-6461
▁isos	-6462
▁vertical	-6463
5.	-6464
▁filled	-6465
▁handled	-6466
▁rythmbox	-6467
night	-6468
cii	-6469
0.10-	-6470
▁skill	-6471
▁hog	-6472
▁grant	-6473
masq	-6474
▁915	-6475
▁mpg	-6476
▁university	-6477
▁neg	-6478
▁equal	-6479
▁playlist	-6480
▁disappears	-6481
ovo	-6482
▁dc	-6483
▁1.9	-6484
▁autost	-6485
▁dealing	-6486
▁sensitive	-6487
▁unexpected	-6488
▁zen	-6489
▁becuase	-6490
▁integrity	-6491
dl	-6492
▁3.2	-6493
▁regist	-6494
▁independ	-6495
▁fa	-6496
blah	-6497
▁3.4	-6498
▁dad	-6499
▁eating	-6500
▁oracle	-6501
▁swapon	-6502
▁filezilla	-6503
▁powers	-6504
▁counter	-6505
▁renamed	-6506
▁blow	-6507
▁cisco	-6508
▁repro	-6509
▁timed	-6510
▁chkdsk	-6511
▁defect	-6512
▁illegal	-6513
reg	-6514
veas	-6515
▁reccom	-6516
▁additions	-6517
▁preferably	-6518
▁wir	-6519
▁dying	-6520
▁supposedly	-6521
▁ikon	-6522
▁12.04	-6523
▁sdl	-6524
▁644	-6525
▁1440	-6526
▁desired	-6527
▁blacklisted	-6528
wer	-6529
▁sen	-6530
vdial	-6531
▁daem	-6532
▁rever	-6533
vc	-6534
▁zone	-6535
▁garbage	-6536
▁noth	-6537
▁pptp	-6538
▁toolbar	-6539
▁touched	-6540
xgl	-6541
▁03	-6542
wave	-6543
▁debootstrap	-6544
▁vice	-6545
▁rerun	-6546
▁deactiv	-6547
▁april	-6548
▁concept	-6549
85	-6550
ui	-6551
ched	-6552
▁wav	-6553
▁dependancies	-6554
▁150	-6555
▁nameservers	-6556
▁sth	-6557
▁divx	-6558
▁pair	-6559
▁offic	-6560
▁lenovo	-6561
▁million	-6562
▁partial	-6563
▁figuring	-6564
71	-6565
▁46	-6566
▁gk	-6567
▁ten	-6568
▁burnt	-6569
▁factoid	-6570
0000	-6571
▁bob	-6572
▁tryin	-6573
▁wvdial	-6574
▁processors	-6575
wn	-6576
uted	-6577
▁5900	-6578
▁fans	-6579
▁practice	-6580
▁temperature	-6581
▁2006	-6582
ending	-6583
legacy	-6584
▁unrec	-6585
▁liveusb	-6586
ti	-6587
▁math	-6588
▁nforce	-6589
▁embedded	-6590
▁ultimate	-6591
▁executables	-6592
▁scen	-6593
▁desper	-6594
▁rewrite	-6595
▁screenshots	-6596
▁hdc	-6597
▁emer	-6598
▁bookmark	-6599
uth	-6600
rack	-6601
▁flat	-6602
▁satellite	-6603
▁drwxr	-6604
▁scheme	-6605
▁exchange	-6606
▁duplicate	-6607
ctor	-6608
▁mailing	-6609
▁resolving	-6610
plus	-6611
▁jum	-6612
eting	-6613
▁deep	-6614
▁alsaconf	-6615
▁recognizing	-6616
pdf	-6617
▁-_-	-6618
▁actions	-6619
▁son	-6620
▁imagem	-6621
▁ubu	-6622
astic	-6623
▁reject	-6624
▁stores	-6625
▁forgotten	-6626
▁switcher	-6627
▁modifying	-6628
imal	-6629
▁26	-6630
devel	-6631
▁deny	-6632
▁codes	-6633
▁syncing	-6634
▁downgrad	-6635
▁-.-	-6636
26	-6637
erly	-6638
search	-6639
▁barely	-6640
aio	-6641
▁api	-6642
▁cycle	-6643
▁centre	-6644
-9	-6645
▁sli	-6646
▁00.0	-6647
▁acess	-6648
▁benefit	-6649
▁beaut	-6650
▁facing	-6651
▁satisf	-6652
▁mentions	-6653
zf	-6654
iver	-6655
▁fell	-6656
▁gftp	-6657
nat	-6658
▁ikonia	-6659
▁emulation	-6660
▁supporting	-6661
some	-6662
▁pit	-6663
▁lightdm	-6664
▁detection	-6665
ished	-6666
fu	-6667
▁cry	-6668
▁suff	-6669
▁stall	-6670
▁couldn	-6671
▁expensive	-6672
▁references	-6673
▁compression	-6674
phone	-6675
▁dhcpd	-6676
▁recon	-6677
▁anytime	-6678
▁acroread	-6679
▁rephrase	-6680
dr	-6681
gconf	-6682
▁udf	-6683
▁review	-6684
▁portion	-6685
▁rdp	-6686
▁impl	-6687
▁null	-6688
▁scale	-6689
resol	-6690
▁asound	-6691
▁beside	-6692
▁insmod	-6693
▁pulled	-6694
▁stumped	-6695
▁natively	-6696
▁sections	-6697
▁smoothly	-6698
cap	-6699
drop	-6700
▁tcl	-6701
▁yum	-6702
▁flush	-6703
▁ipconfig	-6704
osen	-6705
▁hits	-6706
▁lirc	-6707
▁kills	-6708
▁rotate	-6709
▁ubuntus	-6710
usted	-6711
▁argh	-6712
secure	-6713
▁saver	-6714
val	-6715
▁56	-6716
▁ops	-6717
arte	-6718
▁paying	-6719
▁winamp	-6720
ications	-6721
▁-'	-6722
abit	-6723
▁spit	-6724
▁openssl	-6725
▁problematic	-6726
▁chips	-6727
▁thunar	-6728
studio	-6729
▁hosed	-6730
▁incon	-6731
21	-6732
ndns	-6733
ags	-6734
▁dj	-6735
▁bell	-6736
▁befor	-6737
▁slash	-6738
▁mixing	-6739
▁submit	-6740
0.8	-6741
▁oppos	-6742
▁corruption	-6743
brid	-6744
▁swat	-6745
▁coding	-6746
▁held	-6747
▁notify	-6748
▁usefull	-6749
▁protection	-6750
▁retard	-6751
▁envirom	-6752
▁whereas	-6753
▁ktorrent	-6754
▁ect	-6755
▁dkms	-6756
▁doen	-6757
▁xs	-6758
display	-6759
▁quicker	-6760
▁autostart	-6761
▁functional	-6762
▁specifying	-6763
▁midi	-6764
▁latex	-6765
ferences	-6766
▁cpufreq	-6767
fa	-6768
▁900	-6769
▁der	-6770
▁rely	-6771
▁repeated	-6772
▁impression	-6773
▁instalation	-6774
▁conso	-6775
▁retrieve	-6776
zer	-6777
▁tri	-6778
▁pings	-6779
▁decrypt	-6780
▁picking	-6781
▁firewalls	-6782
▁reconfiguring	-6783
ncy	-6784
anch	-6785
▁purch	-6786
sensors	-6787
▁seveas	-6788
▁surround	-6789
gh	-6790
▁gpt	-6791
selections	-6792
▁universal	-6793
hoc	-6794
rix	-6795
imin	-6796
▁----	-6797
▁annoy	-6798
▁avant	-6799
▁decod	-6800
▁javas	-6801
▁misunderstood	-6802
att	-6803
▁ooh	-6804
econf	-6805
▁dyndns	-6806
▁guided	-6807
▁inserting	-6808
▁cached	-6809
xsession	-6810
▁finishes	-6811
tin	-6812
▁compar	-6813
▁pd	-6814
▁manip	-6815
oooooooo	-6816
1-1	-6817
ampp	-6818
▁kate	-6819
▁pulling	-6820
▁ord	-6821
▁pak	-6822
mplayer	-6823
▁oem	-6824
▁ball	-6825
▁mech	-6826
▁colle	-6827
▁standby	-6828
rele	-6829
▁768	-6830
▁inetd	-6831
▁recognised	-6832
ading	-6833
▁distributions	-6834
aches	-6835
▁vaio	-6836
▁useing	-6837
▁nickname	-6838
▁widescreen	-6839
edir	-6840
speak	-6841
▁belongs	-6842
▁variant	-6843
izer	-6844
▁3.1	-6845
▁belkin	-6846
▁component	-6847
▁extracting	-6848
stop	-6849
▁fastest	-6850
▁exim	-6851
▁indicates	-6852
▁capabilities	-6853
hcd	-6854
upp	-6855
▁rege	-6856
▁powered	-6857
ya	-6858
▁css	-6859
firefox	-6860
which	-6861
▁cook	-6862
▁summ	-6863
▁tomc	-6864
▁horizontal	-6865
▁xev	-6866
▁pata	-6867
▁closer	-6868
▁solaris	-6869
▁corresponding	-6870
copy	-6871
give	-6872
▁sick	-6873
▁0.1	-6874
▁wit	-6875
▁fool	-6876
gth	-6877
▁ri	-6878
aver	-6879
▁doh	-6880
entials	-6881
▁manualy	-6882
▁egg	-6883
▁interrupted	-6884
rell	-6885
▁sni	-6886
▁oses	-6887
friend	-6888
▁purple	-6889
▁tomcat	-6890
▁handling	-6891
iqu	-6892
endar	-6893
▁ignor	-6894
▁nicer	-6895
▁maximize	-6896
▁exception	-6897
▁officially	-6898
1.5	-6899
forge	-6900
▁ummm	-6901
▁buntu	-6902
ahah	-6903
iname	-6904
▁alive	-6905
▁conven	-6906
▁intall	-6907
▁automated	-6908
▁38	-6909
▁guru	-6910
▁addons	-6911
mic	-6912
▁ultr	-6913
▁prism	-6914
▁spinning	-6915
▁eat	-6916
mysql	-6917
▁diffrent	-6918
▁enlightenment	-6919
inese	-6920
▁jrib	-6921
▁antiv	-6922
▁daemons	-6923
▁forcing	-6924
▁tweaking	-6925
ban	-6926
▁fuser	-6927
going	-6928
▁harddrives	-6929
9-	-6930
▁facebook	-6931
▁opposite	-6932
▁compilation	-6933
▁authenticate	-6934
▁preinstalled	-6935
▁baz	-6936
▁popped	-6937
epad	-6938
▁clust	-6939
loaded	-6940
▁rough	-6941
▁recomend	-6942
rief	-6943
theme	-6944
▁boost	-6945
▁ibook	-6946
▁videocard	-6947
▁frustrated	-6948
▁alac	-6949
▁shadow	-6950
▁editors	-6951
92	-6952
ateg	-6953
▁wikip	-6954
▁winec	-6955
▁consoles	-6956
osh	-6957
tit	-6958
▁scared	-6959
▁writer	-6960
▁technology	-6961
▁xm	-6962
▁triv	-6963
acpi	-6964
▁duh	-6965
bat	-6966
ooo	-6967
▁bon	-6968
▁ups	-6969
▁flav	-6970
▁urls	-6971
▁discovered	-6972
▁je	-6973
▁elect	-6974
une	-6975
▁imagemagick	-6976
▁2.8	-6977
clude	-6978
depend	-6979
▁chinese	-6980
hosts	-6981
ismet	-6982
▁zoom	-6983
▁whatso	-6984
ami	-6985
maybe	-6986
compiled	-6987
▁backwards	-6988
▁efficient	-6989
sk	-6990
▁jap	-6991
▁cpus	-6992
blocks	-6993
▁lease	-6994
eted	-6995
itions	-6996
▁virtualization	-6997
uu	-6998
32-	-6999
▁bull	-7000
▁dragging	-7001
wine	-7002
▁intell	-7003
▁succes	-7004
resolution	-7005
burn	-7006
cape	-7007
▁percent	-7008
▁chatting	-7009
▁explaining	-7010
cdrom	-7011
▁msdos	-7012
▁greetings	-7013
▁img	-7014
▁shockwave	-7015
▁gdeb	-7016
▁slider	-7017
▁offered	-7018
▁renaming	-7019
med	-7020
▁abi	-7021
▁cyl	-7022
▁rig	-7023
aking	-7024
▁swear	-7025
▁identified	-7026
▁postgresql	-7027
▁celer	-7028
▁whereis	-7029
▁chipsets	-7030
directories	-7031
▁highlighted	-7032
▁hahaha	-7033
▁concern	-7034
▁unmounting	-7035
▁whatsoever	-7036
ait	-7037
▁xx	-7038
reme	-7039
▁ascii	-7040
▁initialize	-7041
etd	-7042
ref	-7043
▁beat	-7044
▁anyth	-7045
▁versa	-7046
▁pointless	-7047
▁megs	-7048
35	-7049
▁eu	-7050
▁hes	-7051
▁haven	-7052
▁border	-7053
▁refuse	-7054
▁chrooted	-7055
mad	-7056
▁easyubuntu	-7057
▁shout	-7058
▁allocate	-7059
▁tux	-7060
▁mtab	-7061
delete	-7062
▁admit	-7063
▁glitch	-7064
▁typical	-7065
progs	-7066
▁roaming	-7067
▁profiles	-7068
42	-7069
▁gigabit	-7070
▁alacarte	-7071
▁fglrxinfo	-7072
▁fd	-7073
▁macs	-7074
▁anonym	-7075
forwarding	-7076
▁javascript	-7077
tree	-7078
▁hole	-7079
▁affected	-7080
▁precisely	-7081
▁enviroment	-7082
▁identifier	-7083
▁experimental	-7084
▁aa	-7085
▁uk	-7086
hang	-7087
▁ddr	-7088
▁dear	-7089
▁pard	-7090
▁credentials	-7091
augh	-7092
sound	-7093
▁uuids	-7094
▁beagle	-7095
▁whatnot	-7096
▁ofcourse	-7097
211	-7098
▁666	-7099
ational	-7100
ado	-7101
▁29	-7102
▁exa	-7103
▁holy	-7104
▁chars	-7105
▁gpart	-7106
▁kismet	-7107
▁plugdev	-7108
initramfs	-7109
▁managing	-7110
▁monitoring	-7111
cj	-7112
fm	-7113
cot	-7114
▁price	-7115
▁automaticly	-7116
war	-7117
▁27	-7118
ishing	-7119
▁erased	-7120
8-1	-7121
prot	-7122
▁netboot	-7123
wide	-7124
▁cyg	-7125
▁urg	-7126
▁cold	-7127
▁unnec	-7128
▁branch	-7129
150	-7130
uff	-7131
▁tap	-7132
▁tou	-7133
▁gdebi	-7134
▁strip	-7135
▁resized	-7136
▁clonezilla	-7137
bus	-7138
▁bc	-7139
ighb	-7140
▁meh	-7141
▁soo	-7142
alone	-7143
▁rocks	-7144
▁hacking	-7145
▁projects	-7146
▁5.0	-7147
▁explo	-7148
▁laggy	-7149
▁sympt	-7150
▁insist	-7151
▁filtering	-7152
▁resulting	-7153
▁transpare	-7154
▁0000	-7155
▁ttys	-7156
▁pause	-7157
▁builds	-7158
official	-7159
▁4.1	-7160
▁kaff	-7161
▁173	-7162
▁books	-7163
▁americ	-7164
▁notepad	-7165
▁readonly	-7166
▁avid	-7167
▁intact	-7168
▁celeron	-7169
▁rdesktop	-7170
▁il	-7171
utter	-7172
▁disag	-7173
▁havn	-7174
▁feedback	-7175
bound	-7176
password	-7177
▁hz	-7178
inder	-7179
▁dose	-7180
▁loud	-7181
▁funky	-7182
▁ecrypt	-7183
▁sentence	-7184
▁warcraft	-7185
▁elimin	-7186
▁confirmed	-7187
▁36	-7188
▁clon	-7189
▁35	-7190
▁japan	-7191
▁spread	-7192
▁throws	-7193
sist	-7194
▁stdout	-7195
▁massive	-7196
▁antivirus	-7197
123	-7198
▁rsa	-7199
▁icewm	-7200
▁1920	-7201
▁asse	-7202
▁pmount	-7203
oms	-7204
▁icmp	-7205
▁synch	-7206
▁chosen	-7207
▁presum	-7208
▁collection	-7209
▁timing	-7210
▁teamspeak	-7211
tos	-7212
▁aah	-7213
▁songbird	-7214
▁translate	-7215
uous	-7216
isions	-7217
▁hacked	-7218
▁repres	-7219
▁patched	-7220
▁threads	-7221
▁weather	-7222
▁programmer	-7223
▁tbh	-7224
uration	-7225
▁creation	-7226
responsive	-7227
▁33	-7228
know	-7229
▁aye	-7230
▁las	-7231
▁trial	-7232
▁cygwin	-7233
▁adapters	-7234
▁spelling	-7235
▁completly	-7236
▁zomb	-7237
▁categ	-7238
▁accurate	-7239
▁confusion	-7240
▁profession	-7241
xvf	-7242
▁amule	-7243
▁sample	-7244
▁streams	-7245
▁wondered	-7246
▁interactive	-7247
hy	-7248
▁sv	-7249
▁gib	-7250
▁intend	-7251
▁mechan	-7252
▁applies	-7253
-2.0	-7254
▁tink	-7255
▁2.6.17	-7256
▁greatly	-7257
▁frequently	-7258
▁operations	-7259
▁tx	-7260
2500	-7261
▁anti	-7262
▁pppoeconf	-7263
0.8-	-7264
▁til	-7265
▁ending	-7266
▁demo	-7267
mmm	-7268
▁hyper	-7269
▁resetting	-7270
▁wikipedia	-7271
dn	-7272
elt	-7273
rier	-7274
▁analy	-7275
▁basis	-7276
▁toggle	-7277
preferences	-7278
▁alert	-7279
▁logic	-7280
▁trough	-7281
security	-7282
▁reserved	-7283
▁bud	-7284
▁lil	-7285
▁jord	-7286
▁pico	-7287
modmap	-7288
▁2.6.20	-7289
▁charge	-7290
▁proposed	-7291
▁tags	-7292
essary	-7293
▁purged	-7294
▁emulate	-7295
▁labeled	-7296
▁trivial	-7297
should	-7298
▁scary	-7299
▁shoudl	-7300
86-	-7301
▁1.8	-7302
▁pardon	-7303
▁unique	-7304
kde	-7305
bang	-7306
▁bog	-7307
▁jus	-7308
▁socks	-7309
▁evince	-7310
▁converted	-7311
▁receiving	-7312
▁flawlessly	-7313
▁55	-7314
▁biz	-7315
▁6600	-7316
▁phil	-7317
▁providing	-7318
▁incorrectly	-7319
.00	-7320
▁tends	-7321
creator	-7322
clicking	-7323
▁restoring	-7324
▁compositing	-7325
vi	-7326
ament	-7327
umber	-7328
▁8080	-7329
▁bench	-7330
folders	-7331
▁behave	-7332
▁dropdown	-7333
▁imac	-7334
▁unrecogn	-7335
▁connector	-7336
ubar	-7337
sorry	-7338
▁comb	-7339
▁fidd	-7340
▁ridic	-7341
▁fucked	-7342
▁homedir	-7343
▁uncommented	-7344
loy	-7345
▁poke	-7346
▁hehehe	-7347
▁passing	-7348
hup	-7349
andy	-7350
module	-7351
▁timest	-7352
ray	-7353
▁migrate	-7354
▁bothered	-7355
nu	-7356
▁lit	-7357
▁fork	-7358
▁clicks	-7359
▁throwing	-7360
▁overwriting	-7361
94	-7362
ango	-7363
▁bill	-7364
▁talks	-7365
▁became	-7366
-20	-7367
ems	-7368
vis	-7369
▁rfkill	-7370
▁uncompress	-7371
tt	-7372
debs	-7373
▁addon	-7374
▁dmraid	-7375
rrrr	-7376
▁drwx	-7377
▁fear	-7378
▁converter	-7379
isofs	-7380
▁swed	-7381
▁favour	-7382
▁automounting	-7383
initrc	-7384
▁depmod	-7385
ao	-7386
want	-7387
▁2003	-7388
▁batch	-7389
▁reflect	-7390
▁restored	-7391
▁banned	-7392
▁replies	-7393
ped	-7394
▁est	-7395
▁selector	-7396
▁945	-7397
▁calendar	-7398
▁documented	-7399
▁vmlin	-7400
▁autocomplete	-7401
ola	-7402
▁arm	-7403
▁lies	-7404
▁pars	-7405
▁libre	-7406
▁transparency	-7407
ella	-7408
mess	-7409
▁dcc	-7410
▁winscp	-7411
▁07	-7412
▁wht	-7413
▁modeline	-7414
perl	-7415
▁flashes	-7416
▁administrative	-7417
▁gs	-7418
stro	-7419
▁alto	-7420
▁mere	-7421
anyone	-7422
▁respons	-7423
▁od	-7424
xxxx	-7425
▁boy	-7426
icaly	-7427
▁bear	-7428
eter	-7429
▁png	-7430
detect	-7431
▁length	-7432
eber	-7433
enced	-7434
▁weak	-7435
▁girlf	-7436
▁setuid	-7437
▁rx	-7438
pted	-7439
aunch	-7440
▁shouldn	-7441
▁hardrive	-7442
▁recommendation	-7443
36	-7444
ses	-7445
▁unf	-7446
▁kern	-7447
▁templ	-7448
▁2.6.32	-7449
▁station	-7450
▁vmlinuz	-7451
▁85	-7452
▁reccomend	-7453
za	-7454
▁8600	-7455
▁kicked	-7456
▁instant	-7457
▁winecfg	-7458
▁regularly	-7459
need	-7460
▁apton	-7461
▁streng	-7462
▁uptime	-7463
▁bridged	-7464
▁powerpc	-7465
▁bleeding	-7466
▁instaled	-7467
▁screwing	-7468
▁itll	-7469
▁tracks	-7470
▁freaking	-7471
▁functioning	-7472
esh	-7473
▁cin	-7474
▁inch	-7475
▁gather	-7476
▁schedul	-7477
▁prepare	-7478
bug	-7479
bars	-7480
emux	-7481
hide	-7482
▁sais	-7483
▁jordan	-7484
grep	-7485
▁anj	-7486
▁lap	-7487
▁cord	-7488
▁refers	-7489
▁strang	-7490
▁parallel	-7491
▁strongly	-7492
965	-7493
syn	-7494
wav	-7495
▁doom	-7496
▁intr	-7497
▁messy	-7498
▁nosuid	-7499
lts	-7500
eine	-7501
inary	-7502
▁modems	-7503
▁occured	-7504
▁unchecked	-7505
why	-7506
▁34	-7507
▁arp	-7508
▁hpl	-7509
▁xdmcp	-7510
▁neighb	-7511
▁diction	-7512
▁libglib	-7513
▁softwares	-7514
▁altogether	-7515
▁girlfriend	-7516
▁libflashplayer	-7517
▁bele	-7518
▁flac	-7519
▁iced	-7520
▁libp	-7521
▁logfile	-7522
▁rude	-7523
▁gkrell	-7524
▁college	-7525
▁instantly	-7526
rq	-7527
▁intensive	-7528
915	-7529
utf	-7530
▁mil	-7531
▁ease	-7532
▁tvtime	-7533
▁rat	-7534
▁apolog	-7535
▁narrow	-7536
▁simplest	-7537
ifies	-7538
▁isol	-7539
▁aster	-7540
▁dnsmasq	-7541
emes	-7542
▁2005	-7543
▁advantages	-7544
sequ	-7545
armor	-7546
▁beha	-7547
▁dots	-7548
▁launches	-7549
uta	-7550
eper	-7551
your	-7552
▁dmz	-7553
▁gma	-7554
booting	-7555
▁2.6.10	-7556
▁workin	-7557
▁incredi	-7558
▁recommendations	-7559
ppp	-7560
▁apl	-7561
▁ttf	-7562
lated	-7563
▁apologies	-7564
▁runlevels	-7565
▁redownload	-7566
xml	-7567
asound	-7568
▁kicks	-7569
▁risky	-7570
▁subtit	-7571
▁records	-7572
rase	-7573
▁frames	-7574
▁pastbin	-7575
▁regener	-7576
▁produces	-7577
▁retarded	-7578
-15	-7579
gigs	-7580
lame	-7581
▁truth	-7582
▁simult	-7583
▁quicktime	-7584
▁ce	-7585
zone	-7586
flashplugin	-7587
▁highlighting	-7588
ja	-7589
etion	-7590
▁sticky	-7591
friendly	-7592
▁cleared	-7593
weaver	-7594
▁agreed	-7595
▁strict	-7596
▁actualy	-7597
assistant	-7598
job	-7599
▁wd	-7600
weak	-7601
▁lex	-7602
▁filed	-7603
▁bitchx	-7604
▁demand	-7605
▁investigate	-7606
▁responsible	-7607
▁sourceforge	-7608
▁occasionally	-7609
▁flv	-7610
▁vul	-7611
▁erus	-7612
▁tmpfs	-7613
▁avidemux	-7614
fail	-7615
▁carry	-7616
ati	-7617
▁ohhh	-7618
▁pacak	-7619
▁aptoncd	-7620
82	-7621
size	-7622
▁afk	-7623
▁sab	-7624
▁fakeroot	-7625
▁tunneling	-7626
▁yw	-7627
▁coff	-7628
▁bluefish	-7629
▁persists	-7630
oser	-7631
iring	-7632
▁heat	-7633
▁thankyou	-7634
room	-7635
▁dependent	-7636
▁overheating	-7637
▁subdirectories	-7638
-7	-7639
▁la	-7640
atory	-7641
trash	-7642
▁swapping	-7643
asp	-7644
ldr	-7645
vell	-7646
▁077	-7647
▁diss	-7648
▁jail	-7649
▁assig	-7650
▁ideal	-7651
▁gkrellm	-7652
▁graphically	-7653
▁dvb	-7654
▁nvu	-7655
gling	-7656
drivers	-7657
▁ecryptfs	-7658
▁smbmount	-7659
2.4	-7660
face	-7661
codec	-7662
disks	-7663
▁gibb	-7664
▁dummy	-7665
▁lives	-7666
▁lying	-7667
▁badger	-7668
▁shipped	-7669
▁implemented	-7670
bet	-7671
1000	-7672
▁3.6	-7673
▁dove	-7674
▁rare	-7675
▁cloud	-7676
encrypt	-7677
▁presumably	-7678
jack	-7679
▁nod	-7680
▁numer	-7681
vfat	-7682
▁eft	-7683
▁accepting	-7684
▁mythbuntu	-7685
▁thn	-7686
▁witch	-7687
▁erusul	-7688
▁dropbox	-7689
▁certific	-7690
▁interact	-7691
▁preserve	-7692
sf	-7693
2.0-	-7694
▁spy	-7695
▁audi	-7696
▁fish	-7697
▁john	-7698
▁kino	-7699
ements	-7700
▁headache	-7701
▁developed	-7702
tw	-7703
▁anjuta	-7704
.14	-7705
agent	-7706
▁thor	-7707
▁marks	-7708
▁incase	-7709
▁responses	-7710
arr	-7711
pub	-7712
▁unresponsive	-7713
▁advised	-7714
▁xmodmap	-7715
▁guarantee	-7716
▁xampp	-7717
▁forgive	-7718
▁alongside	-7719
tgz	-7720
▁53	-7721
abyte	-7722
▁macos	-7723
▁nodev	-7724
▁calcul	-7725
▁updater	-7726
▁kaffeine	-7727
▁ose	-7728
▁ehci	-7729
▁compan	-7730
▁bi	-7731
▁blur	-7732
▁afford	-7733
▁caching	-7734
▁remeber	-7735
▁flickering	-7736
▁doens	-7737
▁privs	-7738
▁opendns	-7739
ws	-7740
ste	-7741
ctrl	-7742
▁accel	-7743
▁ieee	-7744
▁koala	-7745
▁leads	-7746
▁7.1	-7747
button	-7748
output	-7749
▁synergy	-7750
▁negative	-7751
▁promising	-7752
installation	-7753
4'	-7754
hs	-7755
eman	-7756
acher	-7757
▁mutt	-7758
▁holds	-7759
▁whose	-7760
bak	-7761
elled	-7762
▁9800	-7763
▁inks	-7764
▁kids	-7765
uggish	-7766
▁christ	-7767
▁mr	-7768
▁nd	-7769
▁cul	-7770
▁isa	-7771
▁jpeg	-7772
▁stere	-7773
▁cupsys	-7774
ott	-7775
sta	-7776
make	-7777
▁hds	-7778
▁timer	-7779
▁misread	-7780
▁separately	-7781
lt	-7782
acc	-7783
jet	-7784
▁192	-7785
80211	-7786
▁threw	-7787
▁proberly	-7788
▁generates	-7789
▁alc	-7790
▁apm	-7791
▁wrt	-7792
allow	-7793
▁regex	-7794
▁extreme	-7795
-11	-7796
icer	-7797
▁irrele	-7798
▁mapped	-7799
▁sluggish	-7800
▁implementation	-7801
mt	-7802
▁05	-7803
step	-7804
▁educ	-7805
▁refering	-7806
lar	-7807
star	-7808
▁memb	-7809
▁semi	-7810
unction	-7811
▁insane	-7812
▁tro	-7813
▁terr	-7814
▁hplip	-7815
▁joined	-7816
▁living	-7817
▁japanese	-7818
▁dreamweaver	-7819
86.	-7820
▁obsolete	-7821
▁partions	-7822
mem	-7823
sense	-7824
▁land	-7825
▁autoclean	-7826
▁unofficial	-7827
▁wirelessly	-7828
ibber	-7829
▁peer	-7830
▁dumped	-7831
▁helper	-7832
▁dovecot	-7833
▁clipboard	-7834
▁standalone	-7835
▁cn	-7836
mont	-7837
▁cyc	-7838
▁din	-7839
▁gdb	-7840
▁seek	-7841
▁death	-7842
▁https	-7843
▁yellow	-7844
istration	-7845
▁menuconfig	-7846
111	-7847
etc	-7848
▁vfs	-7849
▁3945	-7850
▁decre	-7851
▁deprec	-7852
▁whoami	-7853
▁responds	-7854
▁dod	-7855
class	-7856
▁exits	-7857
▁progs	-7858
▁former	-7859
▁interm	-7860
▁probly	-7861
▁continues	-7862
▁recompiling	-7863
erate	-7864
▁flight	-7865
▁aliases	-7866
▁unrelated	-7867
801	-7868
aint	-7869
encies	-7870
▁howdy	-7871
▁thumbn	-7872
-12	-7873
▁42	-7874
from	-7875
sape	-7876
▁controllers	-7877
▁cup	-7878
▁wer	-7879
▁tele	-7880
▁extent	-7881
▁ordinary	-7882
▁outgoing	-7883
▁thumbdrive	-7884
▁unnecessary	-7885
gry	-7886
url	-7887
▁law	-7888
depth	-7889
prefix	-7890
▁hasnt	-7891
▁exclus	-7892
▁reproduce	-7893
▁wc	-7894
▁10.0	-7895
▁gcon	-7896
▁dlink	-7897
▁heads	-7898
ina	-7899
▁quits	-7900
itional	-7901
▁ntpdate	-7902
bc	-7903
ey	-7904
2.6	-7905
▁forb	-7906
▁eps	-7907
▁gxine	-7908
▁environments	-7909
▁puzz	-7910
switch	-7911
▁dissape	-7912
▁somethign	-7913
▁preventing	-7914
▁six	-7915
▁nowad	-7916
▁professional	-7917
lph	-7918
ula	-7919
▁beautif	-7920
bre	-7921
vfs	-7922
▁2'	-7923
▁age	-7924
▁lie	-7925
▁9200	-7926
▁gnom	-7927
effect	-7928
▁unlike	-7929
▁keybind	-7930
▁measure	-7931
▁keyboards	-7932
▁returning	-7933
▁xscreensaver	-7934
oru	-7935
fers	-7936
aneously	-7937
▁rightclick	-7938
▁alternatively	-7939
cient	-7940
▁stereo	-7941
▁becouse	-7942
▁wirless	-7943
▁nowadays	-7944
kr	-7945
ilot	-7946
▁howtos	-7947
▁overall	-7948
▁involves	-7949
▁strength	-7950
▁mst	-7951
▁gvfs	-7952
▁invis	-7953
▁limits	-7954
▁zombie	-7955
▁ideally	-7956
▁ndisgtk	-7957
▁desperate	-7958
▁thousands	-7959
rep	-7960
▁row	-7961
▁geek	-7962
▁shame	-7963
▁purging	-7964
▁inkscape	-7965
▁specifics	-7966
▁communicate	-7967
▁bitt	-7968
▁synchron	-7969
▁animation	-7970
5'	-7971
ober	-7972
serv	-7973
▁sip	-7974
▁wma	-7975
▁spits	-7976
bee	-7977
▁na	-7978
▁wx	-7979
color	-7980
▁soem	-7981
▁tftp	-7982
blaster	-7983
▁student	-7984
isc	-7985
-3.0	-7986
▁airc	-7987
▁gold	-7988
▁sake	-7989
domain	-7990
▁devel	-7991
▁wiping	-7992
▁appearing	-7993
mare	-7994
swap	-7995
utella	-7996
▁gibbon	-7997
▁realise	-7998
▁translation	-7999
emy	-8000
chain	-8001
▁reve	-8002
▁substitute	-8003
noon	-8004
▁cna	-8005
▁usa	-8006
after	-8007
▁comprom	-8008
▁masquer	-8009
▁difficulty	-8010
met	-8011
▁pir	-8012
blows	-8013
▁3000	-8014
▁8139	-8015
▁suite	-8016
▁noacpi	-8017
▁closest	-8018
▁constant	-8019
▁deprecated	-8020
01	-8021
cn	-8022
enet	-8023
abber	-8024
▁skin	-8025
defined	-8026
program	-8027
▁builtin	-8028
▁confuse	-8029
▁anonymous	-8030
▁vp	-8031
ding	-8032
guide	-8033
istic	-8034
atures	-8035
▁pixel	-8036
▁normaly	-8037
▁km	-8038
▁2.7	-8039
▁ing	-8040
▁whil	-8041
▁awful	-8042
▁region	-8043
max	-8044
▁nam	-8045
▁decorator	-8046
▁asoundconf	-8047
▁wol	-8048
ftool	-8049
▁pici	-8050
▁naming	-8051
▁afternoon	-8052
▁unplugging	-8053
esu	-8054
wrt	-8055
sudo	-8056
▁ner	-8057
▁mice	-8058
▁redund	-8059
▁allways	-8060
▁disagree	-8061
lp	-8062
▁bal	-8063
▁beer	-8064
▁heart	-8065
▁ubunt	-8066
▁utils	-8067
▁insecure	-8068
51	-8069
▁experts	-8070
▁recieve	-8071
▁developing	-8072
▁health	-8073
▁manger	-8074
▁somone	-8075
ene	-8076
▁177	-8077
▁775	-8078
▁yer	-8079
▁dosen	-8080
▁yield	-8081
▁coffee	-8082
▁allocated	-8083
env	-8084
▁merely	-8085
▁enables	-8086
▁follows	-8087
▁overkill	-8088
46	-8089
iton	-8090
paste	-8091
▁incompl	-8092
▁dialogue	-8093
▁subsystem	-8094
▁effectively	-8095
fx	-8096
bios	-8097
▁ntldr	-8098
▁fwcutter	-8099
▁contained	-8100
▁gconftool	-8101
▁acceptable	-8102
▁fits	-8103
▁foot	-8104
▁cleanly	-8105
.1.	-8106
mesa	-8107
▁ard	-8108
atime	-8109
▁frees	-8110
▁parti	-8111
▁mainten	-8112
▁outlook	-8113
▁established	-8114
zzy	-8115
▁psy	-8116
▁bzip	-8117
▁pics	-8118
upgrad	-8119
▁market	-8120
▁bazhang	-8121
▁symbols	-8122
▁starters	-8123
ogg	-8124
▁freq	-8125
▁woud	-8126
▁strug	-8127
▁prevents	-8128
▁pv	-8129
land	-8130
▁rtf	-8131
▁boss	-8132
▁mails	-8133
▁suffer	-8134
▁beleive	-8135
▁compiles	-8136
▁transfers	-8137
▁irrelevant	-8138
rwxr	-8139
options	-8140
▁reopen	-8141
▁attitude	-8142
▁fakeraid	-8143
web	-8144
onkey	-8145
▁2011	-8146
▁truly	-8147
▁parano	-8148
▁cutting	-8149
▁reached	-8150
▁schedule	-8151
ris	-8152
tea	-8153
▁conn	-8154
▁wasting	-8155
▁sticking	-8156
anges	-8157
tweak	-8158
▁solves	-8159
▁urgent	-8160
▁affects	-8161
▁automate	-8162
▁screenlets	-8163
▁incompatible	-8164
yl	-8165
mbps	-8166
▁arts	-8167
▁foob	-8168
▁sleeping	-8169
▁1.	-8170
2000	-8171
▁1.7	-8172
▁caught	-8173
▁eggdrop	-8174
▁aircrack	-8175
▁recovering	-8176
▁gvim	-8177
▁smbd	-8178
▁2.6.12	-8179
▁bummer	-8180
▁defects	-8181
▁greater	-8182
▁october	-8183
▁capacity	-8184
▁centrino	-8185
▁differnt	-8186
▁occurred	-8187
▁liek	-8188
▁optional	-8189
▁networked	-8190
▁4.2	-8191
▁ape	-8192
▁bund	-8193
▁nohup	-8194
▁routes	-8195
▁syslinux	-8196
▁associate	-8197
▁incomplete	-8198
smp	-8199
exist	-8200
▁licens	-8201
▁domains	-8202
▁diagnost	-8203
▁powernow	-8204
▁uploading	-8205
▁unrecognized	-8206
3.	-8207
▁66	-8208
▁nok	-8209
▁etht	-8210
▁obsc	-8211
▁probe	-8212
▁casper	-8213
▁circum	-8214
disc	-8215
▁pon	-8216
orted	-8217
▁trad	-8218
▁latency	-8219
▁accordingly	-8220
▁ubuntustudio	-8221
je	-8222
cal	-8223
oret	-8224
▁sux	-8225
▁uns	-8226
▁prox	-8227
▁wave	-8228
initial	-8229
▁linking	-8230
▁companies	-8231
▁isntalled	-8232
▁convenient	-8233
▁dictionary	-8234
ea	-8235
▁hrmm	-8236
roller	-8237
refresh	-8238
▁bashrc	-8239
▁squash	-8240
▁jar	-8241
▁king	-8242
ushing	-8243
▁esound	-8244
packages	-8245
▁sensible	-8246
56	-8247
mu	-8248
ract	-8249
▁hotmail	-8250
▁somethin	-8251
▁jan	-8252
▁mtu	-8253
▁sysrq	-8254
▁ethtool	-8255
dat	-8256
sums	-8257
every	-8258
▁shells	-8259
▁sshing	-8260
▁corrected	-8261
▁databases	-8262
▁subfolders	-8263
ribute	-8264
▁chall	-8265
▁pieces	-8266
▁ancient	-8267
▁solving	-8268
▁executes	-8269
bad	-8270
▁alb	-8271
▁gah	-8272
ension	-8273
▁lacking	-8274
▁responsive	-8275
asy	-8276
▁06	-8277
▁002	-8278
▁bee	-8279
illat	-8280
▁dozen	-8281
▁frank	-8282
▁involve	-8283
▁nightmare	-8284
cmd	-8285
logg	-8286
▁filet	-8287
▁unders	-8288
▁vulner	-8289
▁gwibber	-8290
▁improved	-8291
▁execution	-8292
▁supergrub	-8293
▁ly	-8294
dest	-8295
▁2-3	-8296
▁jer	-8297
▁fallback	-8298
▁unistall	-8299
▁potential	-8300
▁enterprise	-8301
_1	-8302
▁mes	-8303
machine	-8304
▁aspect	-8305
▁2.6.24-1	-8306
▁wildcard	-8307
▁protocols	-8308
▁significant	-8309
see	-8310
▁ts	-8311
▁errr	-8312
▁whoa	-8313
▁recie	-8314
▁doable	-8315
▁icedtea	-8316
▁whoever	-8317
▁2.	-8318
▁trail	-8319
▁straightforward	-8320
ana	-8321
▁efi	-8322
▁sal	-8323
party	-8324
▁butt	-8325
▁shore	-8326
▁exaile	-8327
▁abiword	-8328
▁strings	-8329
▁decision	-8330
▁interfer	-8331
▁ann	-8332
xinitrc	-8333
▁everyth	-8334
▁unmuted	-8335
▁allright	-8336
▁apparmor	-8337
▁ddrescue	-8338
▁everyday	-8339
▁subprocess	-8340
▁1080	-8341
▁buff	-8342
▁knwo	-8343
launch	-8344
▁nokia	-8345
▁directed	-8346
91	-8347
▁lj	-8348
elog	-8349
save	-8350
▁tat	-8351
▁whilst	-8352
▁painful	-8353
▁invisible	-8354
▁eb	-8355
▁eve	-8356
▁rect	-8357
▁stret	-8358
▁assemb	-8359
▁unmute	-8360
▁serving	-8361
▁theoret	-8362
▁nopasswd	-8363
▁smartctl	-8364
▁wonderful	-8365
js	-8366
.11	-8367
▁meet	-8368
▁nuke	-8369
▁creat	-8370
▁deved	-8371
▁prove	-8372
exclude	-8373
▁xwindows	-8374
▁customized	-8375
▁notifications	-8376
uck	-8377
bert	-8378
ecraft	-8379
uld	-8380
▁ken	-8381
▁shud	-8382
▁accepted	-8383
▁registry	-8384
▁touching	-8385
▁capability	-8386
airs	-8387
▁pkgs	-8388
▁redu	-8389
-2.6.3	-8390
outing	-8391
▁brief	-8392
▁culpr	-8393
▁enclo	-8394
▁swift	-8395
▁grayed	-8396
▁controlled	-8397
▁maintenance	-8398
2_	-8399
▁mak	-8400
▁pun	-8401
ingly	-8402
▁advert	-8403
▁stress	-8404
▁exclude	-8405
▁netbooks	-8406
▁automounted	-8407
ias	-8408
▁liking	-8409
▁bloated	-8410
▁ordered	-8411
wi	-8412
▁dog	-8413
▁ngin	-8414
compat	-8415
▁devede	-8416
gstreamer	-8417
▁terminate	-8418
▁struggling	-8419
nce	-8420
rant	-8421
▁pavu	-8422
▁hotkey	-8423
▁container	-8424
oco	-8425
sam	-8426
▁ba	-8427
▁rewr	-8428
▁yeap	-8429
▁nivid	-8430
▁begins	-8431
▁horribly	-8432
187	-8433
grp	-8434
▁gz	-8435
▁022	-8436
▁123	-8437
▁fiddle	-8438
▁infront	-8439
▁stating	-8440
corefonts	-8441
▁asterisk	-8442
▁archlinux	-8443
cf	-8444
▁pb	-8445
▁recre	-8446
ulation	-8447
▁fucking	-8448
▁newline	-8449
▁writeable	-8450
han	-8451
▁lg	-8452
▁wasted	-8453
▁central	-8454
▁ntfsprogs	-8455
▁ridiculous	-8456
▁xt	-8457
phan	-8458
ilion	-8459
▁pool	-8460
▁nginx	-8461
▁decoder	-8462
▁cleaning	-8463
ened	-8464
kpkg	-8465
▁etch	-8466
atever	-8467
status	-8468
thread	-8469
▁candy	-8470
▁ubiqu	-8471
▁messes	-8472
▁unpacking	-8473
264	-8474
▁dup	-8475
▁xinetd	-8476
▁ion	-8477
share	-8478
▁drup	-8479
▁mstt	-8480
▁xlib	-8481
▁tweaks	-8482
▁segfaults	-8483
▁deactivate	-8484
▁631	-8485
lying	-8486
▁guis	-8487
▁iron	-8488
▁newbies	-8489
ipher	-8490
▁muck	-8491
▁rich	-8492
▁blink	-8493
▁installers	-8494
▁yourusername	-8495
req	-8496
keyring	-8497
▁manpages	-8498
▁webpages	-8499
▁winblows	-8500
▁conversion	-8501
250	-8502
jit	-8503
icode	-8504
▁shor	-8505
▁egrep	-8506
▁thers	-8507
▁xinit	-8508
synaptic	-8509
oked	-8510
orse	-8511
▁1400	-8512
▁slim	-8513
▁youve	-8514
▁timezone	-8515
clear	-8516
▁thre	-8517
▁overl	-8518
▁scenario	-8519
▁pavucontrol	-8520
yt	-8521
▁mnt	-8522
▁ital	-8523
▁ring	-8524
▁unit	-8525
▁bizar	-8526
▁drupal	-8527
▁resolves	-8528
▁terribly	-8529
rud	-8530
ntfs	-8531
mouse	-8532
▁trave	-8533
icating	-8534
jj	-8535
bro	-8536
fps	-8537
▁rs	-8538
agic	-8539
▁acqu	-8540
▁pcie	-8541
▁82801	-8542
effects	-8543
▁basicly	-8544
▁disables	-8545
▁dynamically	-8546
▁cab	-8547
▁atom	-8548
▁rpms	-8549
▁shortly	-8550
▁inconsist	-8551
'-	-8552
74	-8553
oint	-8554
oses	-8555
locate	-8556
▁stats	-8557
enabled	-8558
▁nature	-8559
▁secret	-8560
▁cronjob	-8561
▁xsession	-8562
▁remembered	-8563
they	-8564
▁lif	-8565
▁pod	-8566
▁wha	-8567
▁foobar	-8568
▁stuffs	-8569
▁issuing	-8570
▁autologin	-8571
▁comparison	-8572
▁manufacturers	-8573
fy	-8574
unt	-8575
stor	-8576
▁sky	-8577
sources	-8578
▁issued	-8579
▁oc	-8580
hard	-8581
▁3.3	-8582
▁wen	-8583
▁convin	-8584
▁repost	-8585
▁prepend	-8586
▁bringing	-8587
▁libdvdread	-8588
▁misunderstand	-8589
oxy	-8590
▁ticked	-8591
▁libxine	-8592
▁apologize	-8593
▁hostnames	-8594
▁58	-8595
▁nag	-8596
▁5200	-8597
▁talked	-8598
▁existed	-8599
▁largest	-8600
▁servername	-8601
.12	-8602
aky	-8603
cpp	-8604
▁tz	-8605
▁dow	-8606
apers	-8607
icked	-8608
patch	-8609
▁ebox	-8610
▁euro	-8611
section	-8612
▁screws	-8613
wireless	-8614
▁adaptor	-8615
▁effective	-8616
▁concerning	-8617
lm	-8618
▁boo	-8619
▁voip	-8620
▁explore	-8621
▁unpacked	-8622
▁lowercase	-8623
▁overclock	-8624
▁mentioning	-8625
▁clu	-8626
▁sett	-8627
▁waited	-8628
▁culprit	-8629
▁promise	-8630
▁ww	-8631
amon	-8632
hare	-8633
▁flip	-8634
isation	-8635
servers	-8636
▁phones	-8637
▁0.8	-8638
▁ltsp	-8639
▁gover	-8640
▁xkill	-8641
depends	-8642
▁combine	-8643
2.2	-8644
mao	-8645
▁08	-8646
▁lags	-8647
▁vent	-8648
▁bizarre	-8649
▁manages	-8650
▁downgrading	-8651
▁zy	-8652
▁tring	-8653
▁joking	-8654
▁msttcorefonts	-8655
sdl	-8656
▁44	-8657
▁xe	-8658
▁ack	-8659
▁dolph	-8660
▁consum	-8661
▁encode	-8662
▁assumes	-8663
▁insight	-8664
▁renderer	-8665
partitioned	-8666
bas	-8667
minimal	-8668
▁exited	-8669
▁dependancy	-8670
▁59	-8671
ugly	-8672
▁abs	-8673
▁jpg	-8674
radar	-8675
▁shorewall	-8676
▁libreoffice	-8677
▁enemy	-8678
▁replug	-8679
▁offhand	-8680
mydesktop	-8681
rwxrwxrwx	-8682
▁impressed	-8683
81	-8684
▁31	-8685
romedia	-8686
▁hearing	-8687
▁ubiquity	-8688
too	-8689
▁lc	-8690
▁cow	-8691
rored	-8692
▁porn	-8693
▁ultra	-8694
▁individually	-8695
api	-8696
unix	-8697
▁someting	-8698
▁commenting	-8699
▁incredibly	-8700
▁configurable	-8701
pd	-8702
▁intu	-8703
▁quer	-8704
▁reck	-8705
▁congr	-8706
▁silent	-8707
▁whoops	-8708
▁dolphin	-8709
▁represent	-8710
hack	-8711
▁wth	-8712
crypt	-8713
▁gree	-8714
▁prepared	-8715
▁flashdrive	-8716
▁potentially	-8717
fir	-8718
▁bg	-8719
▁jud	-8720
label	-8721
▁thou	-8722
▁queue	-8723
▁hosted	-8724
▁covered	-8725
▁debconf	-8726
▁swedish	-8727
▁maintainer	-8728
thr	-8729
center	-8730
▁concl	-8731
▁filters	-8732
▁guessed	-8733
▁blackbox	-8734
▁relating	-8735
▁comparing	-8736
▁condition	-8737
▁wordpress	-8738
ync	-8739
edge	-8740
▁dom	-8741
angle	-8742
▁sans	-8743
▁shop	-8744
▁laser	-8745
▁treat	-8746
▁challen	-8747
▁horizsync	-8748
▁partially	-8749
▁partitons	-8750
▁sould	-8751
▁bloody	-8752
▁netcat	-8753
▁tricks	-8754
alsa	-8755
▁rss	-8756
looks	-8757
notify	-8758
▁natur	-8759
▁sides	-8760
▁replaces	-8761
▁copyright	-8762
▁controlling	-8763
ka	-8764
▁emu	-8765
▁nol	-8766
▁xxxx	-8767
▁cares	-8768
▁relay	-8769
▁shure	-8770
▁freshly	-8771
completion	-8772
▁reloading	-8773
elo	-8774
mir	-8775
▁7.0	-8776
gines	-8777
▁fant	-8778
problem	-8779
▁setups	-8780
▁ldconfig	-8781
▁marillat	-8782
11-	-8783
▁sqlite	-8784
▁skipping	-8785
▁interpret	-8786
fic	-8787
▁xsane	-8788
▁ignores	-8789
▁netinstall	-8790
▁precompiled	-8791
dem	-8792
tpd	-8793
▁corp	-8794
▁seed	-8795
▁irrit	-8796
▁shred	-8797
▁nothin	-8798
▁fiddling	-8799
▁framework	-8800
abg	-8801
▁360	-8802
ittab	-8803
savers	-8804
▁grand	-8805
▁picks	-8806
▁fields	-8807
▁loggin	-8808
▁pavilion	-8809
▁intention	-8810
▁requirement	-8811
enmod	-8812
▁orin	-8813
▁pulls	-8814
▁clever	-8815
▁forces	-8816
▁operate	-8817
▁xconfig	-8818
▁grabbing	-8819
▁eliminate	-8820
▁timestamp	-8821
▁independent	-8822
▁oki	-8823
▁boun	-8824
▁msgs	-8825
▁offs	-8826
nothing	-8827
▁spyware	-8828
▁clueless	-8829
▁badblocks	-8830
▁og	-8831
▁001	-8832
▁fac	-8833
▁oke	-8834
▁xset	-8835
themes	-8836
▁pixels	-8837
▁relation	-8838
▁macromedia	-8839
▁doll	-8840
▁scim	-8841
▁smth	-8842
▁cluster	-8843
▁overhead	-8844
▁revision	-8845
oto	-8846
▁tp	-8847
ived	-8848
stray	-8849
abytes	-8850
errors	-8851
▁inher	-8852
▁triple	-8853
▁lagging	-8854
▁2.6.15-2	-8855
▁trackpad	-8856
▁authenticated	-8857
▁yuo	-8858
▁ships	-8859
arching	-8860
▁infact	-8861
▁inittab	-8862
▁layouts	-8863
▁trolling	-8864
▁territory	-8865
gor	-8866
▁dpi	-8867
▁qual	-8868
prober	-8869
▁flopp	-8870
▁doenst	-8871
▁subdir	-8872
▁realtime	-8873
▁introdu	-8874
▁minecraft	-8875
▁vertrefresh	-8876
etype	-8877
▁hair	-8878
▁maby	-8879
▁rtfm	-8880
▁appdb	-8881
▁laugh	-8882
storage	-8883
▁compli	-8884
▁deletes	-8885
▁generating	-8886
yg	-8887
▁sdk	-8888
▁wars	-8889
▁ditch	-8890
▁lacks	-8891
▁rmdir	-8892
▁slows	-8893
▁sucess	-8894
▁ubutnu	-8895
readable	-8896
▁hfsplus	-8897
▁bugzilla	-8898
▁symptoms	-8899
▁uploaded	-8900
▁magically	-8901
▁soundblaster	-8902
reh	-8903
orld	-8904
▁spo	-8905
enter	-8906
▁6200	-8907
▁humm	-8908
▁bluez	-8909
▁matlab	-8910
▁webcams	-8911
▁kdevelop	-8912
▁underlying	-8913
▁ol	-8914
▁pg	-8915
▁pgp	-8916
▁addy	-8917
▁luks	-8918
▁ness	-8919
▁train	-8920
▁models	-8921
▁phrase	-8922
▁loosing	-8923
▁warrant	-8924
▁msi	-8925
▁okie	-8926
▁sand	-8927
▁imply	-8928
▁inode	-8929
▁rails	-8930
▁directx	-8931
▁icq	-8932
▁mods	-8933
▁hundreds	-8934
▁experiences	-8935
-3.5	-8936
▁dut	-8937
iders	-8938
stairs	-8939
▁crunch	-8940
▁simultaneously	-8941
4-1	-8942
▁-0	-8943
▁alarm	-8944
▁drawing	-8945
▁starter	-8946
hc	-8947
rsa	-8948
▁gy	-8949
brake	-8950
quest	-8951
▁ethx	-8952
▁stil	-8953
▁factory	-8954
▁underne	-8955
▁winmodem	-8956
▁overwrote	-8957
▁correction	-8958
fc	-8959
▁todo	-8960
▁dislike	-8961
▁nonsense	-8962
▁products	-8963
▁succeeded	-8964
▁chainloader	-8965
▁konversation	-8966
don	-8967
▁hu	-8968
▁yi	-8969
puter	-8970
▁yess	-8971
custom	-8972
▁react	-8973
▁changelog	-8974
▁byte	-8975
▁hows	-8976
▁ppas	-8977
▁prive	-8978
▁------	-8979
▁refusing	-8980
▁journaling	-8981
▁maintained	-8982
▁decorations	-8983
▁reconfigured	-8984
▁gcj	-8985
▁stab	-8986
▁lexmark	-8987
▁obscure	-8988
▁suffice	-8989
▁suspicious	-8990
▁unpartitioned	-8991
len	-8992
▁65	-8993
could	-8994
igned	-8995
▁lmao	-8996
▁rite	-8997
please	-8998
▁parents	-8999
▁recommends	-9000
iiii	-9001
▁poll	-9002
▁rhel	-9003
▁sooo	-9004
▁zlib	-9005
▁knock	-9006
through	-9007
▁approx	-9008
▁gmplayer	-9009
ald	-9010
▁sf	-9011
iant	-9012
▁poss	-9013
disable	-9014
▁8.04.1	-9015
▁accepts	-9016
▁freedom	-9017
▁rolling	-9018
encrypted	-9019
▁ipaddress	-9020
▁mechanism	-9021
▁optimized	-9022
▁underscore	-9023
-30	-9024
hold	-9025
mbit	-9026
snes	-9027
▁9.0	-9028
▁suid	-9029
xf	-9030
▁37	-9031
ussi	-9032
▁ash	-9033
▁quir	-9034
▁sold	-9035
▁commit	-9036
▁lookin	-9037
▁consuming	-9038
▁directive	-9039
▁kr	-9040
ping	-9041
untu	-9042
▁mime	-9043
▁nonfree	-9044
▁chainload	-9045
▁succesfully	-9046
hhh	-9047
▁kl	-9048
▁autor	-9049
▁passes	-9050
▁keystro	-9051
▁category	-9052
▁52	-9053
gard	-9054
achine	-9055
▁lowest	-9056
▁manner	-9057
▁sister	-9058
▁theyre	-9059
▁throught	-9060
▁powerbook	-9061
▁transcode	-9062
▁emp	-9063
agate	-9064
thats	-9065
▁heavi	-9066
▁maker	-9067
▁sence	-9068
▁dosbox	-9069
▁libssl	-9070
▁contacts	-9071
▁addressing	-9072
▁reformatted	-9073
▁1200	-9074
▁2048	-9075
▁edid	-9076
▁rofl	-9077
▁underneath	-9078
guy	-9079
▁vu	-9080
▁cpan	-9081
▁mill	-9082
▁road	-9083
▁study	-9084
▁hiding	-9085
▁xpress	-9086
whatever	-9087
▁nickrud	-9088
▁intellig	-9089
▁practical	-9090
▁standards	-9091
59	-9092
orb	-9093
▁autoconf	-9094
▁latitude	-9095
▁internally	-9096
laod	-9097
▁7600	-9098
▁bast	-9099
▁agent	-9100
▁shrug	-9101
bootable	-9102
▁popping	-9103
▁becoming	-9104
▁handbrake	-9105
▁undefined	-9106
06	-9107
dll	-9108
▁09	-9109
▁ics	-9110
▁wob	-9111
icity	-9112
▁capt	-9113
▁rage	-9114
▁docky	-9115
▁majority	-9116
▁paranoid	-9117
mov	-9118
▁ey	-9119
ssss	-9120
▁ljl	-9121
touch	-9122
▁difer	-9123
▁nvida	-9124
▁privil	-9125
▁synapt	-9126
▁clutter	-9127
▁ripping	-9128
▁checkout	-9129
▁meantime	-9130
▁ay	-9131
imit	-9132
▁750	-9133
▁fri	-9134
▁hwo	-9135
number	-9136
ration	-9137
▁jabber	-9138
▁eol	-9139
▁sin	-9140
▁pray	-9141
▁courier	-9142
▁2.6.28-1	-9143
▁limitation	-9144
▁regenerate	-9145
bg	-9146
nes	-9147
▁vg	-9148
▁storing	-9149
▁strictly	-9150
▁ds	-9151
-1.0	-9152
▁sav	-9153
▁bump	-9154
▁crtl	-9155
▁skills	-9156
edy	-9157
ila	-9158
▁joe	-9159
▁reckon	-9160
▁exiting	-9161
▁subtitles	-9162
▁screensavers	-9163
posed	-9164
asters	-9165
▁apper	-9166
▁hates	-9167
▁xming	-9168
▁2.6.27	-9169
▁dident	-9170
▁transferring	-9171
rn	-9172
aaa	-9173
oof	-9174
▁cgi	-9175
▁ned	-9176
▁org	-9177
▁zsh	-9178
earth	-9179
▁ircd	-9180
▁vary	-9181
ashion	-9182
ncurses	-9183
8-	-9184
▁warn	-9185
▁zsnes	-9186
▁flicker	-9187
▁orinoco	-9188
▁benefits	-9189
▁supplied	-9190
▁computing	-9191
▁recovered	-9192
▁describing	-9193
4.	-9194
mk	-9195
aha	-9196
▁xps	-9197
▁aoss	-9198
▁leak	-9199
▁devil	-9200
▁gdmsetup	-9201
-1_	-9202
▁480	-9203
▁bul	-9204
▁gst	-9205
▁epson	-9206
▁numerous	-9207
▁forbidden	-9208
▁userspace	-9209
▁increasing	-9210
▁teamviewer	-9211
▁oy	-9212
▁psp	-9213
▁vcd	-9214
▁nort	-9215
▁libsdl	-9216
eeeeeeee	-9217
▁members	-9218
▁squashfs	-9219
▁chrooting	-9220
▁reformatting	-9221
▁reinstallation	-9222
bd	-9223
hal	-9224
still	-9225
create	-9226
▁chgrp	-9227
▁xhost	-9228
▁inactive	-9229
64.	-9230
llo	-9231
alia	-9232
bish	-9233
▁rap	-9234
▁sou	-9235
▁joystick	-9236
▁launchers	-9237
dma	-9238
▁ga	-9239
▁gem	-9240
anged	-9241
▁costs	-9242
▁conect	-9243
▁decomp	-9244
▁frankly	-9245
▁disconnects	-9246
jpeg	-9247
▁dur	-9248
elist	-9249
▁hald	-9250
▁edits	-9251
▁minus	-9252
▁signed	-9253
▁weekend	-9254
▁proccess	-9255
1_	-9256
▁83	-9257
▁110	-9258
▁grr	-9259
▁grip	-9260
▁soundcards	-9261
son	-9262
▁4.3	-9263
▁abt	-9264
uable	-9265
rences	-9266
▁curve	-9267
▁packs	-9268
▁smile	-9269
▁detach	-9270
▁malware	-9271
▁ubunutu	-9272
▁confirmation	-9273
306	-9274
mble	-9275
mult	-9276
▁spi	-9277
▁mike	-9278
orak	-9279
▁fox	-9280
2-14-	-9281
▁factor	-9282
▁orient	-9283
▁halfway	-9284
▁signature	-9285
▁consistent	-9286
vin	-9287
▁beeps	-9288
▁bugger	-9289
ral	-9290
seb	-9291
▁39	-9292
akes	-9293
▁pita	-9294
mented	-9295
▁slart	-9296
▁colours	-9297
▁trusted	-9298
▁bothering	-9299
oe	-9300
dog	-9301
▁moz	-9302
▁0777	-9303
▁lunch	-9304
▁hybrid	-9305
▁offending	-9306
asa	-9307
▁lv	-9308
▁wq	-9309
mmmm	-9310
▁misty	-9311
▁serves	-9312
▁cleaned	-9313
▁digging	-9314
▁superior	-9315
▁destroyed	-9316
mar	-9317
life	-9318
▁nex	-9319
guard	-9320
▁dosnt	-9321
▁sniff	-9322
▁gettin	-9323
▁buffers	-9324
▁infected	-9325
▁integration	-9326
▁interpreter	-9327
eps	-9328
____	-9329
ualt	-9330
▁2200	-9331
▁grrr	-9332
▁trem	-9333
▁yoru	-9334
▁indication	-9335
mat	-9336
utz	-9337
▁fax	-9338
▁hid	-9339
▁alex	-9340
chrome	-9341
▁deeper	-9342
▁ground	-9343
▁consult	-9344
▁192.168.	-9345
▁presario	-9346
▁formating	-9347
▁manipulate	-9348
▁startupmanager	-9349
vir	-9350
▁57	-9351
▁palm	-9352
ahorse	-9353
▁pleas	-9354
▁comcast	-9355
▁lastest	-9356
▁ignorance	-9357
addr	-9358
stri	-9359
▁403	-9360
▁pts	-9361
iliar	-9362
▁goin	-9363
▁crims	-9364
▁ramdisk	-9365
▁clearing	-9366
pix	-9367
▁dek	-9368
▁kit	-9369
▁vms	-9370
▁oddly	-9371
▁cheaper	-9372
▁similiar	-9373
ruc	-9374
▁xy	-9375
▁169	-9376
▁ubn	-9377
▁wiht	-9378
▁roughly	-9379
▁surprising	-9380
▁terminated	-9381
irl	-9382
bian	-9383
▁woo	-9384
▁wond	-9385
▁album	-9386
▁sugest	-9387
▁collect	-9388
▁offering	-9389
▁seahorse	-9390
▁powernowd	-9391
▁ubuntuguide	-9392
▁51	-9393
▁upto	-9394
▁admins	-9395
▁comman	-9396
▁retain	-9397
▁wal	-9398
▁blab	-9399
mirror	-9400
▁stdin	-9401
▁stalls	-9402
▁swfdec	-9403
izations	-9404
▁regards	-9405
▁applying	-9406
▁recorded	-9407
▁affecting	-9408
▁certificate	-9409
▁disconnecting	-9410
ole	-9411
vvv	-9412
▁wut	-9413
iated	-9414
▁maps	-9415
▁regress	-9416
▁sidebar	-9417
▁strangely	-9418
-6-	-9419
hun	-9420
otu	-9421
pms	-9422
▁fg	-9423
aled	-9424
▁443	-9425
▁aps	-9426
▁ldd	-9427
▁doin	-9428
▁gues	-9429
▁pgrep	-9430
▁decrease	-9431
▁fingerprint	-9432
▁modification	-9433
rk	-9434
amb	-9435
▁tc	-9436
▁adn	-9437
overy	-9438
▁goof	-9439
▁advis	-9440
▁compet	-9441
▁realised	-9442
▁lfs	-9443
▁fund	-9444
▁stan	-9445
▁tild	-9446
filter	-9447
▁noted	-9448
cmdline	-9449
▁poorly	-9450
▁template	-9451
41	-9452
thumb	-9453
▁lad	-9454
▁hamm	-9455
▁upnp	-9456
▁dumps	-9457
▁width	-9458
▁govern	-9459
▁pannel	-9460
▁acrobat	-9461
▁altered	-9462
▁smplayer	-9463
▁spamming	-9464
▁determined	-9465
▁repeatedly	-9466
▁modifications	-9467
rox	-9468
swd	-9469
▁5.2	-9470
▁sdd	-9471
input	-9472
▁abit	-9473
keygen	-9474
▁exceed	-9475
▁requiring	-9476
▁possibilities	-9477
query	-9478
▁bored	-9479
▁unset	-9480
-16	-9481
tag	-9482
ants	-9483
wiki	-9484
▁4.4	-9485
▁keymap	-9486
▁pissed	-9487
▁leading	-9488
▁resides	-9489
▁describes	-9490
▁performed	-9491
ibs	-9492
ien	-9493
▁rez	-9494
eline	-9495
▁arbit	-9496
▁brute	-9497
▁panics	-9498
▁publish	-9499
synaptics	-9500
▁fighting	-9501
▁tu	-9502
ecko	-9503
▁1500	-9504
▁legit	-9505
▁cycles	-9506
▁expects	-9507
▁someplace	-9508
raw	-9509
▁dx	-9510
▁pt	-9511
unity	-9512
▁prem	-9513
library	-9514
▁novice	-9515
▁cleaner	-9516
▁mistakes	-9517
▁theoretically	-9518
ours	-9519
atest	-9520
▁netw	-9521
▁therm	-9522
▁statically	-9523
arp	-9524
was	-9525
llll	-9526
▁bac	-9527
flags	-9528
▁myst	-9529
▁tied	-9530
working	-9531
▁systray	-9532
▁presented	-9533
asm	-9534
▁47	-9535
▁hc	-9536
▁wg	-9537
▁bmp	-9538
▁htp	-9539
▁sle	-9540
▁girl	-9541
▁sytem	-9542
▁libxml	-9543
▁defualt	-9544
▁unicode	-9545
diff	-9546
iing	-9547
▁atl	-9548
▁dif	-9549
▁deploy	-9550
▁italian	-9551
▁mkisofs	-9552
▁thingie	-9553
▁confident	-9554
▁touchscreen	-9555
real	-9556
tray	-9557
▁fight	-9558
▁counts	-9559
▁hwinfo	-9560
▁resets	-9561
▁bootsplash	-9562
▁rebuilding	-9563
▁dwl	-9564
▁pred	-9565
▁wpas	-9566
▁argue	-9567
▁renew	-9568
▁smoot	-9569
▁fortun	-9570
▁nolapic	-9571
▁seagate	-9572
▁gigabyte	-9573
▁libncurses	-9574
oko	-9575
pair	-9576
jitsu	-9577
▁camp	-9578
▁emerg	-9579
▁arrows	-9580
▁assigning	-9581
▁forgetting	-9582
▁improvement	-9583
abe	-9584
▁ang	-9585
▁wher	-9586
▁posix	-9587
▁comming	-9588
▁automake	-9589
▁priviled	-9590
▁commander	-9591
▁obsoleted	-9592
_.	-9593
gets	-9594
itar	-9595
▁habit	-9596
▁minic	-9597
▁taste	-9598
▁telinit	-9599
▁websearch	-9600
▁unencrypted	-9601
ancy	-9602
imate	-9603
▁door	-9604
▁trit	-9605
appear	-9606
▁2008-0	-9607
▁pushed	-9608
▁swapped	-9609
▁conection	-9610
▁libasound	-9611
▁activating	-9612
oy	-9613
ldap	-9614
▁ari	-9615
▁elf	-9616
ecode	-9617
▁pane	-9618
▁1.0.2	-9619
▁scope	-9620
private	-9621
▁params	-9622
▁crimsun	-9623
▁widgets	-9624
▁articles	-9625
▁windowsxp	-9626
▁mh	-9627
recv	-9628
▁111	-9629
▁127	-9630
▁dll	-9631
▁begg	-9632
▁fubar	-9633
▁geany	-9634
▁merged	-9635
▁fashion	-9636
▁hotkeys	-9637
▁skipped	-9638
▁begining	-9639
▁adjusting	-9640
▁thumbnails	-9641
▁blacklisting	-9642
wd	-9643
www	-9644
ifty	-9645
▁sas	-9646
▁flow	-9647
▁heya	-9648
▁beats	-9649
▁mater	-9650
▁flavor	-9651
function	-9652
▁privoxy	-9653
▁assumption	-9654
rid	-9655
▁ny	-9656
▁med	-9657
▁nub	-9658
▁unc	-9659
▁dmask	-9660
▁donno	-9661
▁exploit	-9662
▁convince	-9663
▁spending	-9664
▁sysadmin	-9665
▁sg	-9666
▁ze	-9667
▁untr	-9668
formed	-9669
python	-9670
▁semic	-9671
▁warned	-9672
▁airport	-9673
▁autorun	-9674
▁selinux	-9675
▁staying	-9676
▁animations	-9677
▁reasonably	-9678
ji	-9679
actl	-9680
▁abc	-9681
▁water	-9682
▁labels	-9683
▁binding	-9684
▁jumping	-9685
▁convinced	-9686
▁prompting	-9687
▁fileserver	-9688
▁communication	-9689
achi	-9690
▁jvm	-9691
lient	-9692
▁ipods	-9693
▁reall	-9694
▁russi	-9695
▁grabbed	-9696
▁backlight	-9697
▁favourite	-9698
▁somethings	-9699
hes	-9700
hehe	-9701
▁2.10	-9702
▁defe	-9703
▁amazon	-9704
▁leases	-9705
▁aborted	-9706
▁autodet	-9707
▁circumst	-9708
▁generation	-9709
▁gps	-9710
modes	-9711
alling	-9712
▁eterm	-9713
▁fmask	-9714
▁overlay	-9715
▁unblock	-9716
▁stripped	-9717
37	-9718
64-	-9719
▁0.6	-9720
▁9.1	-9721
probe	-9722
▁4.10	-9723
▁circle	-9724
▁disapp	-9725
▁hacker	-9726
▁fujitsu	-9727
▁fantastic	-9728
acod	-9729
▁craw	-9730
▁dosn	-9731
▁gufw	-9732
ometry	-9733
▁acpid	-9734
▁covers	-9735
▁getdeb	-9736
▁wether	-9737
▁winrar	-9738
▁element	-9739
▁tritium	-9740
▁integrate	-9741
▁maximized	-9742
▁paritions	-9743
nod	-9744
ots	-9745
▁aes	-9746
▁mkv	-9747
▁sac	-9748
▁kdel	-9749
▁havnt	-9750
▁hover	-9751
▁libmp	-9752
▁encour	-9753
▁replied	-9754
▁completes	-9755
▁presentation	-9756
iy	-9757
kk	-9758
cky	-9759
▁__	-9760
▁tk	-9761
anet	-9762
fast	-9763
good	-9764
▁255	-9765
▁unz	-9766
▁wmp	-9767
▁toss	-9768
▁slots	-9769
proposed	-9770
▁fixable	-9771
▁manuals	-9772
▁students	-9773
▁fetchmail	-9774
▁expression	-9775
▁situations	-9776
ni	-9777
rv	-9778
wmv	-9779
▁ef	-9780
▁0.5	-9781
style	-9782
▁bold	-9783
▁gall	-9784
▁manu	-9785
▁ware	-9786
▁deamon	-9787
▁hamach	-9788
▁safest	-9789
▁stoped	-9790
▁unreal	-9791
▁cineler	-9792
▁columns	-9793
▁swapoff	-9794
▁wpasupp	-9795
▁downlaod	-9796
▁thorough	-9797
▁displayconfig	-9798
8187	-9799
dist	-9800
ilar	-9801
lang	-9802
▁hay	-9803
▁jfs	-9804
▁slap	-9805
▁blanks	-9806
▁jumper	-9807
▁libgnome	-9808
ato	-9809
gpg	-9810
norm	-9811
udes	-9812
▁007	-9813
▁jes	-9814
debug	-9815
▁areas	-9816
▁norton	-9817
▁hogging	-9818
▁failures	-9819
▁reloaded	-9820
▁increment	-9821
▁persistant	-9822
29	-9823
1.0	-9824
isp	-9825
oen	-9826
▁slo	-9827
▁xaw	-9828
ented	-9829
▁bomb	-9830
▁cuts	-9831
▁dpms	-9832
▁pros	-9833
agement	-9834
▁philos	-9835
▁hamachi	-9836
▁shorter	-9837
▁distributed	-9838
▁rv	-9839
about	-9840
rence	-9841
▁ftpd	-9842
▁pppd	-9843
▁greek	-9844
▁libav	-9845
▁prese	-9846
▁usualy	-9847
▁cinelerra	-9848
▁gsp	-9849
▁calm	-9850
▁vuze	-9851
elling	-9852
▁comma	-9853
▁stder	-9854
▁compreh	-9855
▁openbsd	-9856
▁separated	-9857
she	-9858
▁3.	-9859
▁185	-9860
▁6.0	-9861
▁doz	-9862
▁nis	-9863
▁xvf	-9864
icates	-9865
▁comps	-9866
▁deriv	-9867
▁preced	-9868
▁numlock	-9869
▁pinning	-9870
▁scanned	-9871
▁apparent	-9872
▁complained	-9873
.2.	-9874
1.4	-9875
pcm	-9876
echat	-9877
▁mang	-9878
▁lived	-9879
▁2.6.15	-9880
▁mounter	-9881
▁pushing	-9882
▁beforehand	-9883
▁workarounds	-9884
▁wpasupplicant	-9885
etly	-9886
▁beg	-9887
▁lean	-9888
▁scans	-9889
▁noexec	-9890
▁speech	-9891
▁deliver	-9892
keyserver	-9893
▁misconfigured	-9894
▁97	-9895
▁mt	-9896
▁bots	-9897
▁dint	-9898
▁shed	-9899
▁shoul	-9900
▁ardour	-9901
▁nsplugin	-9902
▁wallpapers	-9903
▁researching	-9904
bi	-9905
lines	-9906
mixer	-9907
iently	-9908
▁proof	-9909
▁russian	-9910
▁importantly	-9911
▁sor	-9912
chars	-9913
aliases	-9914
▁smarter	-9915
▁satisfied	-9916
▁8.0	-9917
▁felt	-9918
▁lenny	-9919
▁linus	-9920
▁noobs	-9921
▁winet	-9922
▁colored	-9923
▁pacakge	-9924
▁floppies	-9925
▁rejected	-9926
▁decompress	-9927
▁decoration	-9928
▁lrwxrwxrwx	-9929
▁automaticaly	-9930
65	-9931
hog	-9932
mgr	-9933
pic	-9934
main	-9935
oper	-9936
▁trim	-9937
▁bloat	-9938
▁emerge	-9939
▁doesent	-9940
▁combinations	-9941
yp	-9942
▁hl	-9943
▁uvc	-9944
orbis	-9945
▁firstly	-9946
▁minicom	-9947
▁guidance	-9948
▁beautiful	-9949
▁googleearth	-9950
eng	-9951
1600	-9952
▁asap	-9953
▁bang	-9954
▁nada	-9955
▁parit	-9956
▁reinst	-9957
▁runnin	-9958
▁dhcpoff	-9959
▁incident	-9960
▁radeonhd	-9961
nl	-9962
▁ahci	-9963
▁spar	-9964
▁vpnc	-9965
padmin	-9966
▁codep	-9967
▁fuzzy	-9968
▁picasa	-9969
▁sensor	-9970
▁tomboy	-9971
▁flooding	-9972
▁crunchbang	-9973
-10-	-9974
▁bab	-9975
orama	-9976
▁omit	-9977
▁youd	-9978
▁slowing	-9979
▁benchmark	-9980
▁referenced	-9981
pis	-9982
shop	-9983
▁acl	-9984
▁ehh	-9985
▁hdx	-9986
▁hrs	-9987
▁netow	-9988
▁stderr	-9989
▁keywords	-9990
cu	-9991
jan	-9992
▁wats	-9993
▁wnat	-9994
▁libdb	-9995
▁multic	-9996
▁sudoer	-9997
▁cylinder	-9998
▁flickers	-9999
▁tracking	-10000
▁emergency	-10001
▁kan	-10002
▁sha	-10003
state	-10004
▁implies	-10005
▁intalled	-10006
▁outbound	-10007
▁construct	-10008
▁restrictions	-10009
6'	-10010
▁1-2	-10011
▁999	-10012
▁duel	-10013
▁dust	-10014
▁occup	-10015
▁princ	-10016
▁raise	-10017
▁genius	-10018
▁netbios	-10019
▁scrolls	-10020
▁responded	-10021
▁smartmont	-10022
▁configures	-10023
▁unbootable	-10024
mins	-10025
▁lba	-10026
▁unp	-10027
otion	-10028
▁5-10	-10029
▁europe	-10030
▁kdelibs	-10031
▁sliders	-10032
▁poweroff	-10033
▁warranty	-10034
▁shoutcast	-10035
84	-10036
▁49	-10037
iced	-10038
unte	-10039
▁vids	-10040
▁1.0.1	-10041
▁gecko	-10042
▁jumps	-10043
▁south	-10044
▁duplex	-10045
▁powertop	-10046
▁-2	-10047
send	-10048
▁wap	-10049
▁wusb	-10050
▁nifty	-10051
scripts	-10052
▁curses	-10053
▁beginners	-10054
▁redundant	-10055
▁knowledgeable	-10056
obu	-10057
▁cnt	-10058
▁ehm	-10059
▁artif	-10060
▁announ	-10061
▁surfing	-10062
▁programmers	-10063
bt	-10064
▁dch	-10065
▁pms	-10066
▁tis	-10067
▁hoped	-10068
▁modul	-10069
▁behaves	-10070
▁reposit	-10071
▁bindings	-10072
▁binutils	-10073
▁subdirectory	-10074
▁acx	-10075
▁ont	-10076
ening	-10077
navig	-10078
▁city	-10079
▁defa	-10080
▁ntpd	-10081
initrd	-10082
▁deals	-10083
▁lovely	-10084
▁happily	-10085
▁enclosure	-10086
6000	-10087
▁srry	-10088
▁multip	-10089
▁offset	-10090
▁closely	-10091
▁signals	-10092
▁dependant	-10093
▁limitations	-10094
hw	-10095
1.1	-10096
orec	-10097
adata	-10098
▁pdfs	-10099
inders	-10100
▁erros	-10101
▁sabay	-10102
▁tower	-10103
▁xawtv	-10104
▁pocket	-10105
▁safety	-10106
▁suited	-10107
▁filling	-10108
▁filetype	-10109
▁intermitt	-10110
▁virtually	-10111
cer	-10112
▁67	-10113
▁tad	-10114
2.0-0	-10115
▁oooh	-10116
iously	-10117
▁gspca	-10118
▁llutz	-10119
▁garbled	-10120
▁sounded	-10121
▁hardcore	-10122
▁purchase	-10123
▁smartmontools	-10124
▁libflashsupport	-10125
ully	-10126
▁590	-10127
▁lau	-10128
▁sink	-10129
serial	-10130
▁unclear	-10131
▁828	-10132
▁gts	-10133
▁nto	-10134
extra	-10135
pgart	-10136
▁wrap	-10137
▁typos	-10138
▁whith	-10139
▁cooler	-10140
filename	-10141
▁recheck	-10142
wx	-10143
msg	-10144
utu	-10145
▁0.	-10146
1300	-10147
▁ltd	-10148
▁cmos	-10149
ornado	-10150
▁ranges	-10151
▁ntfsfix	-10152
▁parsing	-10153
configuration	-10154
128	-10155
mac	-10156
ugh	-10157
decor	-10158
▁hunt	-10159
▁healthy	-10160
▁codepage	-10161
▁improper	-10162
▁primarily	-10163
▁usernames	-10164
▁permisions	-10165
▁transition	-10166
ju	-10167
1080	-10168
▁eval	-10169
▁fram	-10170
ulated	-10171
▁algor	-10172
▁began	-10173
▁refit	-10174
mounted	-10175
▁wheres	-10176
▁dialout	-10177
▁listens	-10178
▁queries	-10179
▁rubbish	-10180
▁midnight	-10181
▁surprise	-10182
▁intuitive	-10183
27	-10184
nv	-10185
addy	-10186
▁cud	-10187
▁ftw	-10188
magic	-10189
▁6800	-10190
▁supr	-10191
debian	-10192
▁istall	-10193
▁posible	-10194
formatted	-10195
iceauthority	-10196
pts	-10197
▁63	-10198
▁cx	-10199
ette	-10200
otic	-10201
▁mta	-10202
hunter	-10203
▁direc	-10204
▁thrown	-10205
▁overwrites	-10206
▁signatures	-10207
▁maintainers	-10208
-03	-10209
▁440	-10210
▁8.4	-10211
▁ted	-10212
▁juicer	-10213
▁pinged	-10214
▁rember	-10215
▁matched	-10216
▁philosop	-10217
▁redirected	-10218
▁dsp	-10219
▁mur	-10220
▁thi	-10221
▁bing	-10222
▁frig	-10223
▁aterm	-10224
▁xfont	-10225
▁kindly	-10226
▁multit	-10227
▁annoyed	-10228
protected	-10229
▁initiate	-10230
▁distorted	-10231
▁minimized	-10232
▁jet	-10233
▁apic	-10234
▁whom	-10235
izable	-10236
▁dodgy	-10237
▁hurry	-10238
▁pidof	-10239
▁dvorak	-10240
▁lockup	-10241
▁cookies	-10242
▁foreign	-10243
▁podcast	-10244
▁sockets	-10245
▁modelines	-10246
▁soemthing	-10247
▁cryptsetup	-10248
imp	-10249
▁gpm	-10250
reset	-10251
▁grad	-10252
encing	-10253
▁shitty	-10254
▁unison	-10255
▁crossed	-10256
▁heavily	-10257
▁weechat	-10258
▁replying	-10259
▁deinstall	-10260
▁accessable	-10261
▁irritating	-10262
▁recompiled	-10263
ids	-10264
mtp	-10265
anta	-10266
▁lpr	-10267
▁vin	-10268
▁scre	-10269
▁unsu	-10270
▁couse	-10271
▁nicks	-10272
▁beeing	-10273
▁portmap	-10274
▁imported	-10275
▁ultimately	-10276
▁practically	-10277
▁communications	-10278
ov	-10279
ees	-10280
▁88	-10281
▁deg	-10282
▁nls	-10283
stuff	-10284
▁sioc	-10285
layout	-10286
▁instr	-10287
▁proxies	-10288
▁lighttpd	-10289
▁performing	-10290
▁accelerator	-10291
dav	-10292
▁hh	-10293
utes	-10294
▁0.2	-10295
wheel	-10296
▁mepis	-10297
▁recomm	-10298
gnutella	-10299
▁checker	-10300
▁customer	-10301
▁fundament	-10302
▁guaranteed	-10303
meg	-10304
pal	-10305
▁nw	-10306
tech	-10307
▁boat	-10308
▁dmix	-10309
▁uhmm	-10310
ective	-10311
▁luckily	-10312
▁reality	-10313
▁advisable	-10314
-4.0	-10315
▁hon	-10316
codes	-10317
serve	-10318
▁graf	-10319
▁gurus	-10320
▁prepar	-10321
▁tearing	-10322
▁algorith	-10323
▁remaster	-10324
▁unreadable	-10325
▁compromised	-10326
▁exclusively	-10327
▁walkthrough	-10328
▁41	-10329
▁bam	-10330
▁cure	-10331
▁exac	-10332
▁coded	-10333
▁infin	-10334
▁analys	-10335
▁busted	-10336
▁disape	-10337
▁peoples	-10338
▁2.6.32-2	-10339
▁carefull	-10340
▁commonly	-10341
▁propriet	-10342
▁cylinders	-10343
seq	-10344
▁ck	-10345
wwww	-10346
▁xvnc	-10347
▁depen	-10348
▁dozens	-10349
▁portage	-10350
navigator	-10351
▁mainboard	-10352
▁specially	-10353
▁3-4	-10354
▁evo	-10355
▁9000	-10356
▁baby	-10357
▁eats	-10358
▁tape	-10359
▁unop	-10360
------	-10361
▁nautil	-10362
▁bitrate	-10363
▁offical	-10364
▁camorama	-10365
▁combined	-10366
▁soundray	-10367
93	-10368
iel	-10369
▁seb	-10370
▁svg	-10371
▁02.0	-10372
strike	-10373
▁scare	-10374
▁boring	-10375
▁damnit	-10376
▁inject	-10377
▁wouldn	-10378
▁blindly	-10379
▁metadata	-10380
▁operator	-10381
▁property	-10382
▁bittornado	-10383
▁unfortunatly	-10384
▁nspluginwrapper	-10385
audi	-10386
flag	-10387
hood	-10388
aping	-10389
▁cann	-10390
▁isps	-10391
▁outta	-10392
▁prere	-10393
▁roots	-10394
▁shape	-10395
sparrow	-10396
▁6.06.1	-10397
▁distur	-10398
▁examine	-10399
▁ddclient	-10400
▁flexible	-10401
▁thousand	-10402
▁keybindings	-10403
05	-10404
uen	-10405
auge	-10406
▁bub	-10407
▁cpp	-10408
▁iii	-10409
pilot	-10410
istics	-10411
▁portu	-10412
▁waits	-10413
▁inodes	-10414
software	-10415
▁thermal	-10416
▁fetching	-10417
▁tarballs	-10418
▁malicious	-10419
drv	-10420
etic	-10421
omla	-10422
▁gtx	-10423
▁ebay	-10424
▁surv	-10425
▁cheat	-10426
▁woops	-10427
▁zenity	-10428
▁dselect	-10429
▁fixboot	-10430
▁unclean	-10431
▁interfere	-10432
▁remasters	-10433
ship	-10434
▁hve	-10435
▁zer	-10436
monad	-10437
▁decl	-10438
▁david	-10439
▁maxed	-10440
▁rooms	-10441
▁signs	-10442
authent	-10443
▁cloned	-10444
▁elinks	-10445
▁agpgart	-10446
▁sabayon	-10447
▁backported	-10448
▁kv	-10449
-5.0	-10450
▁kom	-10451
▁2004	-10452
▁htpc	-10453
▁pelo	-10454
idence	-10455
▁agian	-10456
▁ubutu	-10457
▁unfam	-10458
▁caches	-10459
▁energy	-10460
▁screwy	-10461
decorator	-10462
▁somehting	-10463
▁translated	-10464
▁remastersys	-10465
qdn	-10466
▁3'	-10467
▁ber	-10468
▁jam	-10469
itter	-10470
▁3200	-10471
report	-10472
▁bucks	-10473
▁colon	-10474
▁heheh	-10475
▁probl	-10476
▁routine	-10477
▁purchased	-10478
▁seemingly	-10479
▁percentage	-10480
2.5	-10481
pae	-10482
kbps	-10483
▁5000	-10484
▁args	-10485
▁glade	-10486
▁motor	-10487
▁assure	-10488
▁severe	-10489
▁wester	-10490
▁alsactl	-10491
▁swiftfox	-10492
▁complaint	-10493
nr	-10494
amps	-10495
hist	-10496
▁450	-10497
builder	-10498
▁pluged	-10499
▁stayed	-10500
▁stretch	-10501
▁greatest	-10502
▁somefile	-10503
▁difficulties	-10504
▁compatability	-10505
ilo	-10506
lim	-10507
flux	-10508
post	-10509
▁140	-10510
tuner	-10511
▁angry	-10512
▁nameof	-10513
▁nosplash	-10514
jf	-10515
temp	-10516
ysiw	-10517
▁clas	-10518
▁hero	-10519
▁tack	-10520
▁abstr	-10521
▁austr	-10522
▁dealt	-10523
▁demon	-10524
▁jackd	-10525
▁phase	-10526
▁propi	-10527
▁joomla	-10528
▁xmonad	-10529
▁exports	-10530
▁electric	-10531
▁floating	-10532
▁recieved	-10533
0-	-10534
mpg	-10535
aked	-10536
loop	-10537
▁8.1	-10538
▁iec	-10539
▁guard	-10540
▁wobbly	-10541
▁decides	-10542
▁teacher	-10543
▁outputting	-10544
rot	-10545
fuse	-10546
▁acid	-10547
▁reis	-10548
charset	-10549
▁borrow	-10550
▁kicking	-10551
▁seperately	-10552
works	-10553
▁6000	-10554
runner	-10555
▁sanity	-10556
▁yields	-10557
▁volunte	-10558
aws	-10559
▁fv	-10560
ffff	-10561
gvfs	-10562
▁aol	-10563
▁donw	-10564
▁sole	-10565
▁digit	-10566
▁wysiw	-10567
▁gunzip	-10568
▁suport	-10569
graphics	-10570
▁clearer	-10571
▁pretend	-10572
▁spelled	-10573
▁receiver	-10574
▁arbitrary	-10575
▁immediate	-10576
▁informative	-10577
2.3	-10578
agp	-10579
bie	-10580
sed	-10581
sup	-10582
beta	-10583
▁ids	-10584
asswd	-10585
onfig	-10586
▁tftpd	-10587
▁utter	-10588
▁excess	-10589
▁blaster	-10590
▁bugging	-10591
▁analyzer	-10592
▁programme	-10593
859	-10594
▁rk	-10595
▁kms	-10596
▁rox	-10597
▁8400	-10598
edgers	-10599
fiable	-10600
itable	-10601
master	-10602
▁burns	-10603
▁hacks	-10604
▁woudl	-10605
▁inputs	-10606
▁hackers	-10607
▁quickcam	-10608
▁challenge	-10609
▁tinkering	-10610
▁diagnostic	-10611
wa	-10612
robe	-10613
emode	-10614
eread	-10615
ereal	-10616
▁anac	-10617
▁mich	-10618
▁trun	-10619
needed	-10620
▁sooner	-10621
▁sysctl	-10622
▁joining	-10623
▁scrolled	-10624
▁projector	-10625
▁terminator	-10626
0.	-10627
08	-10628
wap	-10629
▁amp	-10630
▁jon	-10631
▁deli	-10632
▁soul	-10633
▁dates	-10634
▁parag	-10635
▁nagios	-10636
▁marvell	-10637
▁counting	-10638
▁prefered	-10639
▁reverted	-10640
che	-10641
▁ry	-10642
etch	-10643
even	-10644
ubun	-10645
▁mks	-10646
ander	-10647
would	-10648
▁wols	-10649
▁rapid	-10650
▁figures	-10651
▁slocate	-10652
▁fluxbuntu	-10653
▁freespace	-10654
▁distribute	-10655
▁inconsistent	-10656
gib	-10657
vlc	-10658
4311	-10659
▁gro	-10660
▁mib	-10661
▁kiba	-10662
▁ruin	-10663
▁trys	-10664
▁flaky	-10665
▁nodes	-10666
▁poking	-10667
▁targets	-10668
▁platforms	-10669
libc	-10670
▁350	-10671
andon	-10672
freak	-10673
▁ahhhh	-10674
▁calib	-10675
▁cripp	-10676
▁skips	-10677
▁timid	-10678
▁attacks	-10679
▁filtered	-10680
53	-10681
qq	-10682
192	-10683
▁jim	-10684
▁jun	-10685
▁bsod	-10686
reload	-10687
▁brack	-10688
▁javac	-10689
▁token	-10690
▁upset	-10691
▁weight	-10692
▁hotspot	-10693
▁texlive	-10694
▁american	-10695
▁attribut	-10696
▁congrats	-10697
▁ignorant	-10698
▁backgrounds	-10699
bec	-10700
▁wod	-10701
▁lite	-10702
▁pcsp	-10703
resize	-10704
▁enlar	-10705
▁glass	-10706
▁vhost	-10707
▁termino	-10708
169	-10709
det	-10710
nig	-10711
▁una	-10712
▁rose	-10713
iguous	-10714
▁ouput	-10715
▁lesson	-10716
▁shipit	-10717
-2.6.24-1	-10718
▁happends	-10719
▁photorec	-10720
▁convention	-10721
xtor	-10722
▁vdp	-10723
▁vob	-10724
found	-10725
index	-10726
really	-10727
▁fewer	-10728
itivity	-10729
▁encoder	-10730
▁lpadmin	-10731
▁signing	-10732
▁subnets	-10733
▁wysiwyg	-10734
▁confuses	-10735
▁scheduled	-10736
▁dhcpoffers	-10737
▁experimenting	-10738
pppp	-10739
▁crow	-10740
▁erro	-10741
▁kewl	-10742
▁autog	-10743
▁cupsd	-10744
▁xauth	-10745
-2.6.17	-10746
▁strike	-10747
▁western	-10748
▁overlook	-10749
foo	-10750
acts	-10751
▁blows	-10752
▁thier	-10753
timeout	-10754
discover	-10755
▁libcurl	-10756
▁useable	-10757
▁chkconfig	-10758
▁administer	-10759
aux	-10760
▁81	-10761
-200	-10762
sted	-10763
dport	-10764
▁picky	-10765
-2.6.10	-10766
archive	-10767
▁ethereal	-10768
▁mirrored	-10769
-01	-10770
flow	-10771
▁.10	-10772
▁17'	-10773
▁sep	-10774
▁uri	-10775
eller	-10776
▁mout	-10777
orphan	-10778
▁vdpau	-10779
▁interv	-10780
▁myfile	-10781
▁rcconf	-10782
▁cloning	-10783
▁convers	-10784
▁alrighty	-10785
▁opinions	-10786
▁reliably	-10787
▁remounted	-10788
▁terminology	-10789
-5.1	-10790
▁mii	-10791
grees	-10792
scape	-10793
worth	-10794
▁0222	-10795
regard	-10796
ulator	-10797
ructure	-10798
▁adblock	-10799
▁preseed	-10800
▁secured	-10801
▁similer	-10802
▁capslock	-10803
▁replicate	-10804
8'	-10805
also	-10806
left	-10807
▁ans	-10808
▁psu	-10809
▁whe	-10810
▁xyz	-10811
▁hiya	-10812
mitted	-10813
▁xbind	-10814
warning	-10815
▁consol	-10816
▁conclusion	-10817
▁traditional	-10818
▁transfering	-10819
▁circumstances	-10820
ght	-10821
via	-10822
▁aj	-10823
4312	-10824
▁apr	-10825
leges	-10826
▁chek	-10827
▁dare	-10828
▁dase	-10829
ffmpeg	-10830
ointed	-10831
string	-10832
▁temps	-10833
▁freakin	-10834
▁smbtree	-10835
▁forwards	-10836
▁patching	-10837
▁frontends	-10838
▁meanwhile	-10839
▁prefrences	-10840
▁unfamiliar	-10841
▁registering	-10842
▁respectively	-10843
04	-10844
iret	-10845
▁btr	-10846
▁iot	-10847
▁wom	-10848
▁rack	-10849
▁hedge	-10850
▁smoke	-10851
▁whois	-10852
▁dhcpcd	-10853
▁nivida	-10854
▁8-	-10855
5200	-10856
▁rpc	-10857
▁wre	-10858
▁slax	-10859
▁beast	-10860
▁shiny	-10861
▁skins	-10862
▁battle	-10863
oin	-10864
▁tsc	-10865
links	-10866
▁cdrw	-10867
▁foss	-10868
utable	-10869
▁winff	-10870
▁asleep	-10871
▁macosx	-10872
▁pcspkr	-10873
▁passive	-10874
▁proprit	-10875
▁noticing	-10876
39	-10877
▁-3	-10878
aily	-10879
▁dab	-10880
▁xul	-10881
hibit	-10882
▁bank	-10883
▁rain	-10884
visual	-10885
▁autop	-10886
▁grate	-10887
▁fourth	-10888
▁libusb	-10889
▁namely	-10890
▁ported	-10891
▁thrott	-10892
▁afterward	-10893
▁usability	-10894
▁encrypting	-10895
hol	-10896
iger	-10897
igns	-10898
▁byobu	-10899
▁artist	-10900
▁selling	-10901
▁privilege	-10902
▁recomended	-10903
2004	-10904
▁pnp	-10905
▁blan	-10906
▁gamer	-10907
▁scream	-10908
▁naturally	-10909
▁filemanager	-10910
aus	-10911
gts	-10912
opy	-10913
away	-10914
rick	-10915
show	-10916
▁mim	-10917
▁pse	-10918
▁tgz	-10919
asted	-10920
aully	-10921
spath	-10922
▁hier	-10923
▁libpng	-10924
▁erasing	-10925
▁inspect	-10926
▁pertain	-10927
▁satisfy	-10928
▁transmit	-10929
xauthority	-10930
▁downloader	-10931
▁masquerade	-10932
▁satisfiable	-10933
▁understandable	-10934
egg	-10935
aing	-10936
atll	-10937
nest	-10938
▁fqdn	-10939
compiz	-10940
ething	-10941
▁btrfs	-10942
▁xlibs	-10943
▁versus	-10944
▁shuttle	-10945
▁unresol	-10946
▁intelligent	-10947
bra	-10948
ille	-10949
▁becas	-10950
▁arrays	-10951
▁ripped	-10952
▁relogin	-10953
▁subsequ	-10954
▁2.6.31-1	-10955
▁corporate	-10956
▁headaches	-10957
▁migrating	-10958
administration	-10959
ran	-10960
upt	-10961
4318	-10962
cups	-10963
rout	-10964
▁mtp	-10965
▁wok	-10966
▁-2.0	-10967
▁damned	-10968
▁piping	-10969
▁shiret	-10970
▁anythign	-10971
▁homework	-10972
▁compilers	-10973
▁suspected	-10974
▁unfortunate	-10975
▁verification	-10976
aven	-10977
yyyy	-10978
▁mum	-10979
▁tls	-10980
▁tnt	-10981
▁viol	-10982
▁dutch	-10983
▁esata	-10984
▁mature	-10985
▁owners	-10986
htaccess	-10987
▁winbind	-10988
▁timidity	-10989
▁authority	-10990
▁propietary	-10991
▁priviledges	-10992
zvf	-10993
▁wot	-10994
black	-10995
think	-10996
▁army	-10997
▁warm	-10998
▁anten	-10999
▁spawn	-11000
▁anyting	-11001
connection	-11002
▁cellphone	-11003
buildpackage	-11004
62	-11005
vr	-11006
ico	-11007
svn	-11008
▁mn	-11009
.04-	-11010
cash	-11011
guin	-11012
ival	-11013
antic	-11014
▁2222	-11015
▁diag	-11016
▁rush	-11017
scribe	-11018
▁brill	-11019
▁jesus	-11020
▁ratio	-11021
▁expose	-11022
▁encoded	-11023
▁helpfull	-11024
accessible	-11025
▁customers	-11026
▁sensitivity	-11027
gar	-11028
-180	-11029
▁dwm	-11030
▁ryth	-11031
▁kdesu	-11032
▁filing	-11033
▁scramb	-11034
▁aborting	-11035
▁elements	-11036
▁fragmentation	-11037
▁bb	-11038
▁10.	-11039
marks	-11040
speed	-11041
▁toward	-11042
▁wmaster	-11043
▁bridging	-11044
▁blackdown	-11045
▁regression	-11046
▁periodically	-11047
eb	-11048
.13	-11049
ller	-11050
▁afa	-11051
▁arc	-11052
▁mke	-11053
▁nar	-11054
▁tet	-11055
aimed	-11056
trace	-11057
▁fvwm	-11058
▁quic	-11059
▁semp	-11060
▁wasn	-11061
▁equip	-11062
▁steal	-11063
chooser	-11064
▁blinks	-11065
▁relies	-11066
▁silver	-11067
▁degrees	-11068
▁dragged	-11069
▁seeking	-11070
▁sourced	-11071
▁chatzilla	-11072
▁extention	-11073
▁subfolder	-11074
▁statements	-11075
▁redirection	-11076
▁significantly	-11077
fd	-11078
pu	-11079
uiz	-11080
▁ng	-11081
okes	-11082
wait	-11083
▁sem	-11084
emacs	-11085
entry	-11086
▁arri	-11087
▁fart	-11088
▁ming	-11089
helper	-11090
▁seven	-11091
message	-11092
▁inbound	-11093
▁converts	-11094
▁disregard	-11095
▁vboxusers	-11096
▁complaints	-11097
▁subsection	-11098
▁broadcasting	-11099
ael	-11100
ecd	-11101
▁68	-11102
iday	-11103
kest	-11104
▁amb	-11105
atter	-11106
▁4000	-11107
▁rein	-11108
▁trac	-11109
▁china	-11110
▁india	-11111
▁ipsec	-11112
missing	-11113
netbook	-11114
▁boards	-11115
▁reside	-11116
▁chooser	-11117
▁heading	-11118
▁sorting	-11119
▁tempted	-11120
-2.6.15-2	-11121
▁expertise	-11122
▁shiretoko	-11123
▁applicable	-11124
▁assignment	-11125
▁downgraded	-11126
flv	-11127
▁zd	-11128
asel	-11129
char	-11130
rial	-11131
▁aac	-11132
▁cus	-11133
▁oyu	-11134
▁pig	-11135
erman	-11136
slash	-11137
▁aren	-11138
▁grap	-11139
▁lord	-11140
▁appar	-11141
▁genii	-11142
▁recur	-11143
▁scrib	-11144
▁staff	-11145
▁bugged	-11146
▁turion	-11147
▁iocharset	-11148
▁reachable	-11149
eh	-11150
-09	-11151
anb	-11152
spl	-11153
sto	-11154
atin	-11155
elly	-11156
▁rgb	-11157
vidia	-11158
▁helo	-11159
▁meas	-11160
▁loses	-11161
▁miles	-11162
▁distin	-11163
▁accross	-11164
▁amounts	-11165
▁material	-11166
▁availible	-11167
▁tremulous	-11168
▁remounting	-11169
▁recommending	-11170
49	-11171
aj	-11172
blu	-11173
erk	-11174
los	-11175
▁2.9	-11176
actly	-11177
▁cpio	-11178
▁odds	-11179
▁opps	-11180
▁urban	-11181
▁yikes	-11182
▁bullet	-11183
▁impact	-11184
▁consequ	-11185
▁essentials	-11186
▁understands	-11187
isy	-11188
-11-	-11189
▁22'	-11190
▁unch	-11191
▁wolf	-11192
▁sheet	-11193
▁permit	-11194
▁purely	-11195
▁revers	-11196
▁unsafe	-11197
▁becasue	-11198
▁germany	-11199
▁exported	-11200
▁flawless	-11201
▁kcontrol	-11202
▁movement	-11203
▁smoother	-11204
▁indicated	-11205
ook	-11206
sql	-11207
eeze	-11208
▁eleg	-11209
▁finn	-11210
▁gett	-11211
▁icec	-11212
advant	-11213
▁dasei	-11214
▁edges	-11215
getting	-11216
loading	-11217
▁canada	-11218
▁gthumb	-11219
▁retrie	-11220
▁continu	-11221
▁electron	-11222
▁defragment	-11223
120	-11224
osd	-11225
sch	-11226
duct	-11227
▁720	-11228
▁tks	-11229
▁yab	-11230
▁bitl	-11231
▁gale	-11232
▁kden	-11233
▁trip	-11234
▁virt	-11235
▁slick	-11236
applets	-11237
▁clears	-11238
▁degree	-11239
▁motion	-11240
▁xfonts	-11241
atically	-11242
▁cmdline	-11243
▁moments	-11244
▁produced	-11245
▁involving	-11246
▁overnight	-11247
bon	-11248
fts	-11249
nox	-11250
pin	-11251
rog	-11252
▁gh	-11253
▁nr	-11254
agre	-11255
▁rum	-11256
exper	-11257
itool	-11258
▁blob	-11259
▁flgr	-11260
▁reps	-11261
▁synp	-11262
turing	-11263
▁camer	-11264
▁fills	-11265
▁matrix	-11266
▁monkey	-11267
▁portug	-11268
▁acquire	-11269
▁propritary	-11270
▁requesting	-11271
abl	-11272
▁fry	-11273
▁moo	-11274
▁nik	-11275
howto	-11276
▁rear	-11277
▁rows	-11278
▁scal	-11279
▁shif	-11280
bridge	-11281
verter	-11282
▁faced	-11283
▁grace	-11284
▁loging	-11285
▁granted	-11286
▁noobish	-11287
▁survive	-11288
▁informed	-11289
▁redirects	-11290
▁externally	-11291
▁highlights	-11292
▁vc	-11293
-100	-11294
apps	-11295
iles	-11296
same	-11297
▁0.3	-11298
ained	-11299
vable	-11300
▁kwin	-11301
wanted	-11302
▁0.0'.	-11303
▁helix	-11304
▁quota	-11305
platform	-11306
▁bundled	-11307
▁runnign	-11308
▁recreated	-11309
▁specifies	-11310
▁untrusted	-11311
dom	-11312
▁mit	-11313
▁vood	-11314
▁aight	-11315
▁gforce	-11316
▁nexuiz	-11317
▁sucked	-11318
▁gnucash	-11319
▁handler	-11320
▁idleone	-11321
▁menubar	-11322
▁hibernating	-11323
vb	-11324
-06	-11325
lix	-11326
-1.9	-11327
1400	-11328
▁pys	-11329
▁bttv	-11330
▁hdtv	-11331
▁catal	-11332
▁getty	-11333
▁peeps	-11334
▁unsuc	-11335
▁galeon	-11336
▁nessus	-11337
▁reminds	-11338
▁watched	-11339
▁adminstr	-11340
▁dependec	-11341
▁worrying	-11342
▁registers	-11343
▁customization	-11344
▁international	-11345
02	-11346
▁72	-11347
▁ai	-11348
paul	-11349
▁ssb	-11350
▁7200	-11351
▁labs	-11352
▁spaw	-11353
demand	-11354
etwork	-11355
▁bogus	-11356
▁wodim	-11357
▁father	-11358
▁geting	-11359
▁mkswap	-11360
▁mailbox	-11361
▁trashed	-11362
▁vanished	-11363
▁libnotify	-11364
▁mountable	-11365
▁ubuntuone	-11366
▁attributes	-11367
7'	-11368
▁19'	-11369
▁aaa	-11370
▁fer	-11371
gress	-11372
times	-11373
broken	-11374
▁excel	-11375
▁giant	-11376
▁kitch	-11377
▁growing	-11378
▁himself	-11379
▁userdir	-11380
▁disaster	-11381
▁recordmydesktop	-11382
asma	-11383
aten	-11384
jpkg	-11385
▁ctr	-11386
▁doe	-11387
▁nit	-11388
iance	-11389
▁evry	-11390
▁xfix	-11391
▁missp	-11392
▁puter	-11393
▁snort	-11394
▁tilda	-11395
channel	-11396
service	-11397
▁guitar	-11398
▁matrox	-11399
firmware	-11400
▁10.04.1	-11401
▁dumping	-11402
▁optimal	-11403
▁actively	-11404
▁adjusted	-11405
▁safemode	-11406
everything	-11407
▁disadvant	-11408
▁growisofs	-11409
▁screenlet	-11410
azil	-11411
expl	-11412
▁avg	-11413
▁spd	-11414
ember	-11415
eness	-11416
uffle	-11417
▁2400	-11418
▁recy	-11419
▁10000	-11420
▁flgrx	-11421
hhhhhhhh	-11422
stations	-11423
▁briefly	-11424
▁noatime	-11425
▁readers	-11426
▁hedgehog	-11427
▁infinite	-11428
▁simulate	-11429
▁someones	-11430
▁diskspace	-11431
▁mountpoints	-11432
▁0.7	-11433
▁cue	-11434
elect	-11435
owing	-11436
▁cute	-11437
▁instl	-11438
▁slide	-11439
▁playon	-11440
▁reveal	-11441
launcher	-11442
▁iptable	-11443
▁modinfo	-11444
▁tweaked	-11445
▁vendors	-11446
▁indexing	-11447
▁titlebar	-11448
▁reverting	-11449
▁discussing	-11450
▁ew	-11451
▁650	-11452
▁pvt	-11453
▁ears	-11454
ledges	-11455
▁chick	-11456
▁respa	-11457
▁risks	-11458
▁robot	-11459
▁pendri	-11460
▁relate	-11461
▁settle	-11462
▁slides	-11463
▁everthing	-11464
▁dualbooting	-11465
▁persistence	-11466
58	-11467
sub	-11468
▁76	-11469
▁tg	-11470
jour	-11471
▁ads	-11472
▁dnt	-11473
▁10.1	-11474
▁motd	-11475
▁flame	-11476
▁plugs	-11477
▁tehre	-11478
▁octave	-11479
▁abandon	-11480
▁optimus	-11481
▁rockbox	-11482
▁untouch	-11483
uninstall	-11484
▁globally	-11485
▁performs	-11486
▁scriptname	-11487
ica	-11488
upg	-11489
zed	-11490
▁whi	-11491
▁zfs	-11492
never	-11493
▁ampl	-11494
weasel	-11495
▁autos	-11496
▁falls	-11497
▁holes	-11498
▁myster	-11499
▁ruined	-11500
▁equally	-11501
▁securely	-11502
▁eachother	-11503
▁preparing	-11504
ilty	-11505
world	-11506
▁7000	-11507
▁cour	-11508
▁eror	-11509
▁faults	-11510
▁strugg	-11511
computer	-11512
▁engines	-11513
▁haveing	-11514
vim	-11515
ades	-11516
find	-11517
ther	-11518
▁4.7	-11519
appers	-11520
▁stead	-11521
▁reform	-11522
▁placing	-11523
▁summary	-11524
▁utilize	-11525
interface	-11526
▁gimpshop	-11527
▁kdenlive	-11528
▁mistyped	-11529
▁malformed	-11530
ends	-11531
▁4.5	-11532
videa	-11533
▁bleh	-11534
▁iost	-11535
garden	-11536
hidden	-11537
▁hides	-11538
▁sized	-11539
▁2.6.11	-11540
▁blurry	-11541
▁preffer	-11542
▁breakage	-11543
▁unneeded	-11544
▁deborphan	-11545
▁messaging	-11546
▁releasing	-11547
79	-11548
sim	-11549
arus	-11550
edid	-11551
▁dia	-11552
▁5500	-11553
▁7300	-11554
▁ints	-11555
▁moon	-11556
▁nerd	-11557
▁smeg	-11558
▁sore	-11559
normal	-11560
▁boxee	-11561
▁persp	-11562
▁somed	-11563
history	-11564
▁metric	-11565
▁yaboot	-11566
▁greeter	-11567
▁offense	-11568
▁youruser	-11569
▁verifying	-11570
▁troublesome	-11571
game	-11572
redy	-11573
▁5.3	-11574
▁mcp	-11575
gable	-11576
oward	-11577
proof	-11578
xfree	-11579
▁eyec	-11580
▁gear	-11581
▁paint	-11582
▁spoof	-11583
-2.6.12	-11584
▁cdroms	-11585
▁maxtor	-11586
▁nvidea	-11587
▁anacron	-11588
▁dekstop	-11589
▁livecds	-11590
▁phpinfo	-11591
▁realvnc	-11592
▁sempron	-11593
▁appropri	-11594
▁firewalled	-11595
0.9	-11596
des	-11597
itz	-11598
lig	-11599
won	-11600
▁coin	-11601
▁gprs	-11602
▁snmp	-11603
▁jason	-11604
▁plans	-11605
▁spoke	-11606
▁savage	-11607
▁webdav	-11608
▁chkroot	-11609
bluetooth	-11610
▁adresses	-11611
▁invoking	-11612
▁foreground	-11613
▁tightvncserver	-11614
-04	-11615
cor	-11616
▁aqu	-11617
▁hug	-11618
-8859	-11619
boost	-11620
eroot	-11621
witch	-11622
▁bass	-11623
▁hpfs	-11624
▁mmmm	-11625
▁prec	-11626
intosh	-11627
▁forms	-11628
▁suits	-11629
▁desire	-11630
▁compact	-11631
▁familar	-11632
▁behaving	-11633
▁grateful	-11634
▁pleasure	-11635
▁propably	-11636
▁xbindkeys	-11637
▁transferred	-11638
▁improvements	-11639
oz	-11640
▁.1	-11641
into	-11642
zzzz	-11643
▁0.4	-11644
▁30-	-11645
▁aug	-11646
▁zcat	-11647
▁grabs	-11648
▁voodoo	-11649
▁bitlbee	-11650
▁mystery	-11651
▁director	-11652
▁limiting	-11653
▁neighbor	-11654
multiverse	-11655
▁instructed	-11656
▁frustration	-11657
▁cru	-11658
▁dsa	-11659
▁zim	-11660
▁zyk	-11661
▁beac	-11662
▁effic	-11663
▁delayed	-11664
▁resuming	-11665
▁compatable	-11666
vous	-11667
▁cel	-11668
▁sox	-11669
▁wes	-11670
cious	-11671
▁pygtk	-11672
acodecs	-11673
claimed	-11674
▁awsome	-11675
▁guests	-11676
▁pakage	-11677
▁remedy	-11678
▁vorbis	-11679
▁keycode	-11680
▁mission	-11681
▁science	-11682
▁navigator	-11683
▁dhcpdiscover	-11684
▁workstations	-11685
ema	-11686
equ	-11687
ito	-11688
▁dn	-11689
dmrc	-11690
▁5.5	-11691
maker	-11692
secon	-11693
▁cake	-11694
▁elses	-11695
▁fried	-11696
▁infos	-11697
▁rhyth	-11698
▁soooo	-11699
ulating	-11700
▁backslash	-11701
rete	-11702
rint	-11703
stal	-11704
▁rly	-11705
▁2002	-11706
▁boom	-11707
▁exha	-11708
▁syst	-11709
▁busid	-11710
▁loved	-11711
▁jumped	-11712
▁indirect	-11713
▁suprised	-11714
▁mirroring	-11715
▁subdomain	-11716
▁keystrokes	-11717
▁postscript	-11718
▁rosegarden	-11719
cad	-11720
shit	-11721
▁bak	-11722
▁tft	-11723
▁keyb	-11724
▁wana	-11725
▁weir	-11726
▁xcom	-11727
elines	-11728
▁packe	-11729
▁whack	-11730
▁tinker	-11731
▁tedious	-11732
▁diferent	-11733
▁eyecandy	-11734
▁oriented	-11735
▁shooting	-11736
▁triggers	-11737
▁classpath	-11738
▁contribute	-11739
▁fragmented	-11740
▁playonlinux	-11741
hp	-11742
2-9	-11743
raph	-11744
▁cro	-11745
▁kbd	-11746
vided	-11747
▁arab	-11748
▁stuf	-11749
▁halts	-11750
▁homes	-11751
ception	-11752
▁concur	-11753
▁halted	-11754
▁dialogs	-11755
▁moniter	-11756
▁listings	-11757
▁policies	-11758
▁brilliant	-11759
▁untouched	-11760
▁perspective	-11761
▁motherboards	-11762
iu	-11763
958	-11764
ulu	-11765
▁pda	-11766
lined	-11767
samba	-11768
▁thog	-11769
▁void	-11770
radeon	-11771
▁coudl	-11772
▁evdev	-11773
▁mines	-11774
▁virtu	-11775
▁vsync	-11776
ference	-11777
▁imaging	-11778
▁reaches	-11779
▁vinagre	-11780
▁blahblah	-11781
▁repairing	-11782
▁calculator	-11783
▁impressive	-11784
▁consumption	-11785
tex	-11786
▁ja	-11787
rilo	-11788
▁ith	-11789
▁uhci	-11790
parted	-11791
▁whirl	-11792
▁laying	-11793
▁iceroot	-11794
▁rootkit	-11795
alsamixer	-11796
ua	-11797
321	-11798
mand	-11799
▁ven	-11800
▁usin	-11801
▁abuse	-11802
▁promt	-11803
▁swith	-11804
▁woody	-11805
▁edbian	-11806
▁america	-11807
▁differs	-11808
▁inbuilt	-11809
▁puzzled	-11810
▁notifier	-11811
▁peripher	-11812
▁rkhunter	-11813
▁undelete	-11814
▁foldername	-11815
▁descriptive	-11816
'97	-11817
dam	-11818
eto	-11819
ota	-11820
sun	-11821
iest	-11822
long	-11823
remo	-11824
coded	-11825
▁8500	-11826
▁feas	-11827
▁ques	-11828
▁styl	-11829
▁tony	-11830
▁woah	-11831
trying	-11832
formats	-11833
▁monode	-11834
▁probel	-11835
▁talkin	-11836
▁postinst	-11837
▁nomachine	-11838
▁philosophy	-11839
▁authorization	-11840
gd	-11841
enu	-11842
abet	-11843
iler	-11844
▁gmt	-11845
▁adhoc	-11846
▁metal	-11847
activate	-11848
▁ventrilo	-11849
▁dimension	-11850
▁respective	-11851
mx	-11852
bel	-11853
bod	-11854
▁ano	-11855
▁gri	-11856
▁pec	-11857
break	-11858
odate	-11859
▁blew	-11860
▁hire	-11861
▁contr	-11862
▁grave	-11863
▁vital	-11864
▁traces	-11865
▁werent	-11866
▁numeric	-11867
▁nvidias	-11868
▁finishing	-11869
▁aplication	-11870
▁chkrootkit	-11871
▁indicating	-11872
▁ud	-11873
▁cit	-11874
▁cra	-11875
▁wed	-11876
river	-11877
▁pand	-11878
▁snow	-11879
omatic	-11880
verify	-11881
▁devic	-11882
▁seams	-11883
▁synap	-11884
▁fellow	-11885
▁awkward	-11886
▁2.6.20-1	-11887
▁quickest	-11888
▁synaptec	-11889
▁unzipped	-11890
▁emulators	-11891
▁equipment	-11892
▁recognises	-11893
dot	-11894
mmv	-11895
akey	-11896
aved	-11897
▁240	-11898
▁nmb	-11899
▁uber	-11900
▁woot	-11901
▁chris	-11902
▁heaps	-11903
▁sourc	-11904
▁credit	-11905
▁exclud	-11906
▁discour	-11907
▁verison	-11908
▁geometry	-11909
▁resulted	-11910
▁portugues	-11911
▁qualified	-11912
▁scrambled	-11913
▁identifying	-11914
ianl	-11915
utal	-11916
▁cms	-11917
▁mun	-11918
▁vag	-11919
▁ling	-11920
attach	-11921
efault	-11922
▁allot	-11923
▁awake	-11924
▁cmake	-11925
▁loops	-11926
▁macro	-11927
▁meter	-11928
▁zeros	-11929
▁blabla	-11930
▁ompaul	-11931
▁plasma	-11932
▁proces	-11933
▁sfdisk	-11934
▁social	-11935
▁beeping	-11936
▁shebang	-11937
▁2.6.35-2	-11938
▁valuable	-11939
▁remembering	-11940
▁initializing	-11941
elf	-11942
psk	-11943
▁igp	-11944
orent	-11945
▁2600	-11946
▁cash	-11947
▁mast	-11948
▁rend	-11949
account	-11950
▁hammer	-11951
▁robust	-11952
▁vector	-11953
▁actuall	-11954
▁alltray	-11955
▁hardisk	-11956
▁stalled	-11957
▁automagic	-11958
▁calculate	-11959
extracodecs	-11960
thunderbird	-11961
▁selections	-11962
▁masquerading	-11963
6.	-11964
-05	-11965
die	-11966
▁74	-11967
▁wt	-11968
days	-11969
sert	-11970
▁chm	-11971
▁enh	-11972
might	-11973
usive	-11974
virus	-11975
▁3306	-11976
▁cart	-11977
▁dive	-11978
▁food	-11979
▁genu	-11980
▁june	-11981
▁kppp	-11982
▁ymmv	-11983
ignore	-11984
vision	-11985
▁afric	-11986
▁brick	-11987
▁sysfs	-11988
aaaaaaaa	-11989
▁excited	-11990
▁toolkit	-11991
▁bandwith	-11992
compatible	-11993
▁productive	-11994
▁suspending	-11995
57	-11996
empt	-11997
▁eek	-11998
▁flu	-11999
▁hai	-12000
▁shm	-12001
▁unk	-12002
games	-12003
sting	-12004
▁peek	-12005
▁stef	-12006
▁-----	-12007
▁belie	-12008
▁conen	-12009
▁lauch	-12010
▁perfer	-12011
▁refres	-12012
▁jumpers	-12013
▁intranet	-12014
▁wildcards	-12015
▁specifications	-12016
md	-12017
sg	-12018
.1-	-12019
ahn	-12020
docs	-12021
storm	-12022
▁1001	-12023
▁aval	-12024
▁mood	-12025
aneous	-12026
▁bingo	-12027
▁remap	-12028
▁spins	-12029
▁whant	-12030
▁2.6.38	-12031
▁stylus	-12032
▁totaly	-12033
▁classes	-12034
▁mountall	-12035
▁unwanted	-12036
▁repartitioning	-12037
ttf	-12038
lemm	-12039
▁cad	-12040
▁mgr	-12041
uting	-12042
▁piii	-12043
intern	-12044
▁spdif	-12045
▁charset	-12046
▁dollars	-12047
▁easytag	-12048
▁elegant	-12049
▁lookups	-12050
▁planned	-12051
▁synpatic	-12052
▁tsclient	-12053
astructure	-12054
▁parallels	-12055
▁initscript	-12056
▁statistics	-12057
.'.	-12058
esd	-12059
abel	-12060
ader	-12061
ique	-12062
▁190	-12063
▁770	-12064
▁dip	-12065
▁ffs	-12066
▁kay	-12067
▁lyx	-12068
▁nes	-12069
berry	-12070
▁9250	-12071
▁gona	-12072
▁hose	-12073
ackage	-12074
▁chunk	-12075
▁thoug	-12076
▁brazil	-12077
▁ushare	-12078
▁buddies	-12079
▁cameras	-12080
architecture	-12081
▁monodevelop	-12082
▁passwordless	-12083
sr	-12084
-21	-12085
airo	-12086
▁003	-12087
▁toy	-12088
exant	-12089
▁7500	-12090
▁baff	-12091
▁gosh	-12092
▁gears	-12093
▁iotop	-12094
▁peers	-12095
▁decode	-12096
▁icecast	-12097
▁segment	-12098
▁assembly	-12099
▁glitches	-12100
▁grepping	-12101
▁interval	-12102
▁bootstrap	-12103
▁differnet	-12104
▁increased	-12105
▁managment	-12106
▁xulrunner	-12107
environment	-12108
duo	-12109
lty	-12110
mie	-12111
▁wu	-12112
▁4-5	-12113
▁mtr	-12114
archy	-12115
conky	-12116
▁feet	-12117
▁reci	-12118
option	-12119
▁chill	-12120
▁evalu	-12121
▁polish	-12122
▁psmouse	-12123
▁floodbot	-12124
▁knetwork	-12125
▁mousepad	-12126
▁extensive	-12127
▁symlinked	-12128
▁192.168.1.	-12129
▁77	-12130
▁rd	-12131
camp	-12132
▁gif	-12133
▁knw	-12134
▁nov	-12135
▁pet	-12136
▁cruc	-12137
▁epic	-12138
ensors	-12139
recurs	-12140
▁12345	-12141
▁maild	-12142
▁memor	-12143
▁doesnot	-12144
▁drastic	-12145
▁charging	-12146
▁textfile	-12147
▁harddisks	-12148
▁deactivated	-12149
▁streamtuner	-12150
▁documentroot	-12151
▁accessibility	-12152
sty	-12153
ando	-12154
azor	-12155
▁8.2	-12156
▁ray	-12157
▁thu	-12158
otick	-12159
▁0.0'	-12160
▁elev	-12161
▁plac	-12162
▁peace	-12163
artwork	-12164
▁confir	-12165
▁crypto	-12166
▁envelop	-12167
▁hcitool	-12168
▁objects	-12169
▁mkinitrd	-12170
▁trailing	-12171
▁aplications	-12172
ppa	-12173
1.2-	-12174
spie	-12175
udge	-12176
▁950	-12177
▁gad	-12178
▁tax	-12179
-686-	-12180
emens	-12181
otify	-12182
▁1234	-12183
▁acct	-12184
▁pade	-12185
▁1.0.7	-12186
▁pipes	-12187
cessary	-12188
▁helpme	-12189
▁pastie	-12190
▁yessir	-12191
▁gallery	-12192
▁organized	-12193
▁2.6.22-14-	-12194
▁priveleges	-12195
▁vulnerable	-12196
▁programname	-12197
ln	-12198
uit	-12199
▁dp	-12200
oker	-12201
▁nad	-12202
▁sex	-12203
apter	-12204
esuch	-12205
shift	-12206
table	-12207
trans	-12208
▁canc	-12209
asking	-12210
▁hated	-12211
xserver	-12212
▁loving	-12213
▁unhide	-12214
upgraded	-12215
▁crucial	-12216
▁symptom	-12217
▁underst	-12218
▁brackets	-12219
▁shipping	-12220
▁somesuch	-12221
▁artifacts	-12222
▁hyperthread	-12223
▁appropriately	-12224
83	-12225
gam	-12226
▁wp	-12227
izon	-12228
▁791	-12229
▁hab	-12230
▁sty	-12231
▁sud	-12232
▁succ	-12233
▁fired	-12234
keyboard	-12235
▁concent	-12236
▁reverts	-12237
▁toolbars	-12238
▁exclusive	-12239
▁exporting	-12240
▁importing	-12241
▁automounts	-12242
▁descriptor	-12243
▁duplicates	-12244
360	-12245
idi	-12246
ivi	-12247
uer	-12248
pmgr	-12249
▁swt	-12250
▁cafe	-12251
▁fwiw	-12252
▁uhhh	-12253
▁10-15	-12254
ichrome	-12255
guardian	-12256
▁variety	-12257
▁animated	-12258
▁rollback	-12259
010	-12260
ctu	-12261
brew	-12262
▁cdr	-12263
▁jee	-12264
▁pst	-12265
ional	-12266
opard	-12267
▁6150	-12268
▁9999	-12269
▁aaah	-12270
▁cact	-12271
▁mart	-12272
▁scun	-12273
▁meerk	-12274
▁campus	-12275
▁killer	-12276
▁privel	-12277
▁retype	-12278
▁tzdata	-12279
▁falling	-12280
▁millions	-12281
▁ondemand	-12282
▁relatime	-12283
▁addressed	-12284
▁licensing	-12285
▁paragraph	-12286
▁seamonkey	-12287
▁triggered	-12288
▁downstairs	-12289
▁inaccessible	-12290
▁infrastructure	-12291
perm	-12292
qemu	-12293
▁aww	-12294
▁isc	-12295
▁ppd	-12296
▁sue	-12297
▁yrs	-12298
▁5901	-12299
▁8000	-12300
▁alas	-12301
▁gift	-12302
▁kopt	-12303
import	-12304
▁thnks	-12305
aliable	-12306
▁hostap	-12307
▁magnet	-12308
▁ripper	-12309
▁served	-12310
▁udisks	-12311
▁nervous	-12312
▁rendered	-12313
▁scanners	-12314
▁zykotick	-12315
▁megabytes	-12316
▁permision	-12317
▁resolvconf	-12318
▁printscreen	-12319
▁recognition	-12320
▁ae	-12321
lite	-12322
ppet	-12323
verb	-12324
▁arn	-12325
▁nbr	-12326
aired	-12327
werty	-12328
▁4318	-12329
▁evms	-12330
▁savv	-12331
▁chart	-12332
▁chuck	-12333
▁grief	-12334
▁hopes	-12335
▁alredy	-12336
▁proble	-12337
▁remake	-12338
▁expanded	-12339
▁hardwire	-12340
▁assistant	-12341
▁remembers	-12342
▁speedstep	-12343
▁worthless	-12344
▁reinstalls	-12345
3.1	-12346
▁79	-12347
anth	-12348
▁hil	-12349
daily	-12350
▁6.04	-12351
▁kool	-12352
▁pine	-12353
▁sory	-12354
▁xeon	-12355
monkey	-12356
▁appli	-12357
▁gtalk	-12358
▁relax	-12359
▁wreck	-12360
compile	-12361
meeting	-12362
▁novell	-12363
▁varies	-12364
▁someway	-12365
▁squeeze	-12366
▁subdirs	-12367
▁preferable	-12368
▁simplicity	-12369
▁dissapeared	-12370
▁unformatted	-12371
67	-12372
xv	-12373
-07	-12374
izi	-12375
▁nf	-12376
3100	-12377
desk	-12378
made	-12379
▁ave	-12380
beros	-12381
▁indus	-12382
▁stale	-12383
▁stdio	-12384
▁acknow	-12385
▁dinner	-12386
▁glance	-12387
▁antenna	-12388
▁meerkat	-12389
▁stutter	-12390
▁verizon	-12391
▁192.168.1	-12392
▁christmas	-12393
▁primaries	-12394
▁starcraft	-12395
▁curiousity	-12396
▁86	-12397
apes	-12398
walk	-12399
▁771	-12400
▁halp	-12401
▁geeks	-12402
▁padev	-12403
▁autofs	-12404
▁cookie	-12405
▁noting	-12406
▁synced	-12407
▁bottlen	-12408
▁chooses	-12409
▁cooling	-12410
▁hwclock	-12411
▁intergr	-12412
▁scribus	-12413
▁deselect	-12414
▁aparently	-12415
▁multicast	-12416
▁unclaimed	-12417
▁destroying	-12418
▁sucessfully	-12419
hk	-12420
1.3	-12421
dbg	-12422
gbs	-12423
hot	-12424
alib	-12425
pers	-12426
▁ink	-12427
matic	-12428
▁bite	-12429
▁eric	-12430
▁gnea	-12431
▁lend	-12432
▁devfs	-12433
▁swapp	-12434
initely	-12435
▁budget	-12436
▁libata	-12437
▁quanta	-12438
▁ulimit	-12439
▁indexes	-12440
▁rebuilt	-12441
recursive	-12442
▁avoiding	-12443
▁children	-12444
▁reenable	-12445
▁xcompmgr	-12446
▁fontconfig	-12447
▁refreshing	-12448
gie	-12449
▁3-	-12450
▁ez	-12451
▁hs	-12452
fing	-12453
wlan	-12454
zing	-12455
▁caf	-12456
▁gay	-12457
▁tia	-12458
etime	-12459
stype	-12460
▁insu	-12461
▁thks	-12462
▁noises	-12463
▁qwerty	-12464
▁tought	-12465
▁widely	-12466
hostname	-12467
▁bootmgr	-12468
▁botched	-12469
▁deskbar	-12470
▁nightly	-12471
▁restate	-12472
▁someday	-12473
▁webmail	-12474
▁downside	-12475
▁australia	-12476
▁everythign	-12477
▁autodetected	-12478
kar	-12479
▁vn	-12480
4306	-12481
jjjj	-12482
rink	-12483
▁104	-12484
▁ale	-12485
watch	-12486
▁dkpg	-12487
▁wack	-12488
▁zxvf	-12489
▁okies	-12490
▁vsftp	-12491
▁young	-12492
virtual	-12493
▁invite	-12494
▁lasted	-12495
▁planet	-12496
▁viewed	-12497
▁acceller	-12498
▁cracking	-12499
▁envelope	-12500
▁slowdown	-12501
▁discussed	-12502
▁instaling	-12503
▁determines	-12504
320	-12505
obo	-12506
gged	-12507
illo	-12508
▁oic	-12509
itary	-12510
reader	-12511
▁drink	-12512
▁inbox	-12513
▁reread	-12514
▁outcome	-12515
▁smallest	-12516
▁windowed	-12517
▁expressions	-12518
▁interaction	-12519
▁padevchooser	-12520
89	-12521
aed	-12522
hmm	-12523
who	-12524
▁hv	-12525
8169	-12526
fall	-12527
▁10'	-12528
▁csh	-12529
▁dex	-12530
▁emm	-12531
▁sno	-12532
▁grid	-12533
▁righ	-12534
owness	-12535
▁mknod	-12536
▁thick	-12537
devices	-12538
▁hanged	-12539
▁ticket	-12540
▁myspace	-12541
▁accesses	-12542
▁gnutella	-12543
▁unsuccess	-12544
69	-12545
sv	-12546
uk	-12547
flo	-12548
sis	-12549
▁jp	-12550
▁pp	-12551
asse	-12552
otes	-12553
▁901	-12554
▁hol	-12555
amond	-12556
▁evey	-12557
▁vost	-12558
cprobe	-12559
modeset	-12560
▁beware	-12561
▁corect	-12562
▁pastes	-12563
▁kerberos	-12564
▁whitelist	-12565
▁continuous	-12566
▁descriptions	-12567
▁comprehensive	-12568
4.1	-12569
chm	-12570
cards	-12571
▁9500	-12572
▁magn	-12573
▁nali	-12574
▁drunk	-12575
▁wires	-12576
because	-12577
▁chattr	-12578
ulations	-12579
▁claimed	-12580
▁endless	-12581
▁insatll	-12582
▁concerns	-12583
▁programms	-12584
▁unichrome	-12585
-'	-12586
wid	-12587
▁cg	-12588
▁6.1	-12589
▁ipp	-12590
alloc	-12591
▁adam	-12592
▁fest	-12593
▁zend	-12594
rently	-12595
though	-12596
▁aprop	-12597
extract	-12598
however	-12599
▁reburn	-12600
▁appname	-12601
▁emulated	-12602
▁methinks	-12603
▁defaulted	-12604
▁oldconfig	-12605
▁powerfull	-12606
▁principle	-12607
3.0	-12608
440	-12609
fsg	-12610
▁yr	-12611
logo	-12612
orig	-12613
frame	-12614
ioned	-12615
▁bond	-12616
▁fond	-12617
▁vast	-12618
▁hurts	-12619
▁miser	-12620
▁dammit	-12621
▁hellow	-12622
▁pseudo	-12623
▁untick	-12624
▁flashed	-12625
▁friggin	-12626
▁insists	-12627
▁pending	-12628
▁privacy	-12629
▁scunizi	-12630
▁bootcamp	-12631
▁variants	-12632
▁snapshots	-12633
▁clearlooks	-12634
▁diagnostics	-12635
87	-12636
had	-12637
▁gx	-12638
lank	-12639
▁ufs	-12640
iving	-12641
▁nfts	-12642
▁publ	-12643
▁spca	-12644
▁crank	-12645
▁texas	-12646
rectory	-12647
▁flakey	-12648
▁polite	-12649
▁licence	-12650
alternate	-12651
▁claiming	-12652
▁presently	-12653
▁ov	-12654
▁wn	-12655
cifs	-12656
rock	-12657
▁coo	-12658
▁oce	-12659
▁unh	-12660
spire	-12661
▁1152	-12662
▁9550	-12663
▁ibus	-12664
▁woke	-12665
juicer	-12666
▁girls	-12667
▁moron	-12668
▁rigth	-12669
-------	-12670
▁bothers	-12671
▁equivil	-12672
▁freedos	-12673
▁invoked	-12674
▁treated	-12675
▁installl	-12676
▁painless	-12677
▁sounding	-12678
▁spreadshe	-12679
▁allocation	-12680
63	-12681
poll	-12682
▁jst	-12683
alias	-12684
otate	-12685
▁6667	-12686
▁rhyt	-12687
▁sharp	-12688
▁wonky	-12689
▁2.6.22	-12690
▁linuxm	-12691
▁rating	-12692
▁routed	-12693
▁stanza	-12694
▁engineer	-12695
▁motorola	-12696
▁slowness	-12697
▁migration	-12698
▁toolchain	-12699
▁improperly	-12700
▁maintaining	-12701
nm	-12702
.22	-12703
cgi	-12704
sdk	-12705
dont	-12706
kind	-12707
▁sof	-12708
▁tul	-12709
86-64	-12710
▁etho	-12711
▁nail	-12712
▁roms	-12713
▁volt	-12714
adress	-12715
umbers	-12716
▁freec	-12717
▁kqemu	-12718
▁shots	-12719
▁squir	-12720
▁insall	-12721
▁insult	-12722
▁logoff	-12723
▁overly	-12724
▁conexant	-12725
▁secondly	-12726
▁generator	-12727
▁checkboxes	-12728
▁redirecting	-12729
240	-12730
860	-12731
bcd	-12732
irq	-12733
aded	-12734
dddd	-12735
rite	-12736
▁7.4	-12737
▁ine	-12738
▁sne	-12739
▁ttl	-12740
▁uss	-12741
▁fist	-12742
▁worm	-12743
▁exept	-12744
▁radar	-12745
▁sparc	-12746
▁disown	-12747
▁hijack	-12748
▁takers	-12749
▁vostro	-12750
passphrase	-12751
▁makefiles	-12752
▁frequencies	-12753
▁overclocking	-12754
▁unexpectedly	-12755
num	-12756
-4.1	-12757
2570	-12758
ards	-12759
▁asm	-12760
▁ure	-12761
atalk	-12762
oster	-12763
▁pear	-12764
cacher	-12765
coming	-12766
graded	-12767
haring	-12768
▁avast	-12769
▁cacti	-12770
▁impat	-12771
▁amazed	-12772
▁respos	-12773
▁theirs	-12774
▁caution	-12775
▁kdebase	-12776
▁leopard	-12777
▁shuffle	-12778
▁trident	-12779
▁textmode	-12780
▁uvcvideo	-12781
▁unconfigured	-12782
ady	-12783
rif	-12784
antu	-12785
erve	-12786
site	-12787
▁486	-12788
▁lou	-12789
▁twm	-12790
▁xkb	-12791
▁josh	-12792
▁paul	-12793
▁grasp	-12794
▁grubs	-12795
▁connet	-12796
▁idiots	-12797
▁instll	-12798
▁propriat	-12799
▁upstairs	-12800
▁algorithm	-12801
▁internets	-12802
▁extraction	-12803
▁throttling	-12804
▁throughout	-12805
▁interfering	-12806
iva	-12807
▁.2	-12808
wrap	-12809
▁ava	-12810
▁hae	-12811
▁prt	-12812
▁wik	-12813
obile	-12814
whats	-12815
▁chun	-12816
▁kmix	-12817
racted	-12818
▁mingw	-12819
▁beauty	-12820
▁suspic	-12821
▁2.6.27-	-12822
▁amongst	-12823
▁appeare	-12824
▁enlarge	-12825
▁nalioth	-12826
▁wrongly	-12827
▁alphabet	-12828
▁goodness	-12829
▁linspire	-12830
▁netatalk	-12831
▁optimize	-12832
▁avaliable	-12833
▁groupname	-12834
▁identifies	-12835
▁mysqladmin	-12836
▁consistently	-12837
▁informations	-12838
4_	-12839
-08	-12840
uct	-12841
▁ws	-12842
▁aid	-12843
▁bag	-12844
▁kar	-12845
field	-12846
▁club	-12847
▁dans	-12848
▁grin	-12849
▁lisp	-12850
▁logr	-12851
▁misc	-12852
▁pink	-12853
berish	-12854
terror	-12855
▁daugh	-12856
▁annoys	-12857
▁gentle	-12858
▁silicon	-12859
▁utterly	-12860
▁migrated	-12861
▁rotating	-12862
▁capturing	-12863
▁devilspie	-12864
3_	-12865
850	-12866
gid	-12867
tux	-12868
▁5'	-12869
768'	-12870
gian	-12871
ists	-12872
▁965	-12873
iable	-12874
ricks	-12875
▁cast	-12876
▁hulu	-12877
▁overs	-12878
▁ipmasq	-12879
▁jackal	-12880
▁learnt	-12881
▁terror	-12882
▁unkown	-12883
activity	-12884
▁assigns	-12885
▁lockups	-12886
▁operand	-12887
▁confirms	-12888
javaplugin	-12889
▁continued	-12890
▁pastebinned	-12891
▁savedefault	-12892
hrs	-12893
9999	-12894
lest	-12895
mart	-12896
ptic	-12897
utls	-12898
▁9.4	-12899
▁dit	-12900
▁doo	-12901
▁tam	-12902
▁xdg	-12903
▁cree	-12904
▁konw	-12905
▁mile	-12906
▁heats	-12907
▁steve	-12908
▁sweat	-12909
▁arabic	-12910
▁django	-12911
▁reffer	-12912
▁altough	-12913
▁keylogg	-12914
▁selects	-12915
▁exploits	-12916
▁isolinux	-12917
▁mailserver	-12918
▁initialization	-12919
kl	-12920
zb	-12921
-96	-12922
▁hg	-12923
586.	-12924
laim	-12925
shome	-12926
uenig	-12927
▁2500	-12928
▁anon	-12929
▁crop	-12930
▁libv	-12931
▁town	-12932
▁aimed	-12933
▁chess	-12934
startup	-12935
▁hungry	-12936
▁pubkey	-12937
▁rolled	-12938
▁tether	-12939
▁bruenig	-12940
▁defines	-12941
▁probable	-12942
▁definitly	-12943
▁playlists	-12944
▁connectors	-12945
▁corresponds	-12946
pw	-12947
hdd	-12948
isa	-12949
oon	-12950
raf	-12951
lags	-12952
yeah	-12953
▁11.4	-12954
▁amen	-12955
▁geez	-12956
▁leds	-12957
▁align	-12958
▁brave	-12959
▁hallo	-12960
routing	-12961
▁debate	-12962
▁artwork	-12963
▁cracked	-12964
▁cryptic	-12965
▁ddcprobe	-12966
▁deciding	-12967
▁stations	-12968
▁scheduler	-12969
▁splitting	-12970
▁represents	-12971
gon	-12972
ipv	-12973
▁1-	-12974
▁ky	-12975
▁rp	-12976
ablo	-12977
oded	-12978
unct	-12979
▁tan	-12980
oding	-12981
▁subs	-12982
▁yast	-12983
sector	-12984
▁errno	-12985
issions	-12986
▁regret	-12987
▁trojan	-12988
▁isolate	-12989
▁nothign	-12990
▁blanking	-12991
▁transport	-12992
▁categories	-12993
▁continuing	-12994
▁modulename	-12995
dle	-12996
ney	-12997
rub	-12998
icky	-12999
▁130	-13000
▁444	-13001
▁cha	-13002
▁saa	-13003
▁scd	-13004
▁smc	-13005
oured	-13006
▁guyz	-13007
▁moot	-13008
▁phen	-13009
▁thnk	-13010
▁datac	-13011
▁downl	-13012
▁rusty	-13013
▁tetex	-13014
▁ubntu	-13015
-2.6.20	-13016
▁dvdrip	-13017
▁overview	-13018
▁semicond	-13019
▁plaintext	-13020
▁portuguese	-13021
▁referencing	-13022
ife	-13023
▁pf	-13024
fuly	-13025
inja	-13026
iong	-13027
uego	-13028
▁15'	-13029
▁ham	-13030
▁ina	-13031
▁phy	-13032
▁rww	-13033
cated	-13034
▁4200	-13035
▁dchp	-13036
burner	-13037
curses	-13038
engine	-13039
▁aptit	-13040
▁ocean	-13041
▁freely	-13042
▁guesses	-13043
▁nividia	-13044
▁patrick	-13045
▁governor	-13046
▁organize	-13047
▁rotation	-13048
▁transform	-13049
▁certificates	-13050
▁registration	-13051
-.	-13052
ih	-13053
aud	-13054
hoo	-13055
2.4-	-13056
bles	-13057
gggg	-13058
ston	-13059
▁cfg	-13060
▁han	-13061
▁sdx	-13062
▁herd	-13063
applic	-13064
▁hitch	-13065
▁loged	-13066
▁bzflag	-13067
▁gmount	-13068
▁height	-13069
▁pitivi	-13070
▁unreli	-13071
▁knowled	-13072
▁analysis	-13073
▁existence	-13074
▁logrotate	-13075
▁association	-13076
▁filesharing	-13077
.18	-13078
3.4	-13079
▁2-	-13080
-177	-13081
vesa	-13082
▁550	-13083
ahead	-13084
uster	-13085
▁hola	-13086
▁sums	-13087
▁udma	-13088
static	-13089
▁cyber	-13090
▁doest	-13091
▁toast	-13092
▁trade	-13093
▁updat	-13094
▁witht	-13095
ensions	-13096
ldonkey	-13097
▁commad	-13098
▁indust	-13099
▁punctu	-13100
▁redraw	-13101
▁sebseb	-13102
▁wicked	-13103
▁michael	-13104
▁reviews	-13105
▁sunbird	-13106
▁erroring	-13107
▁mainline	-13108
▁pavillion	-13109
▁suspended	-13110
▁webbrowser	-13111
recordmydesktop	-13112
jav	-13113
oft	-13114
-2.4	-13115
late	-13116
pent	-13117
▁ima	-13118
▁lug	-13119
▁neo	-13120
quiet	-13121
uctor	-13122
▁rxvt	-13123
▁1.0.4	-13124
▁bless	-13125
▁blown	-13126
▁aptget	-13127
▁opport	-13128
▁topics	-13129
▁coincid	-13130
▁usbcore	-13131
▁noscript	-13132
▁gibberish	-13133
▁templates	-13134
▁guidelines	-13135
▁introduced	-13136
▁navigating	-13137
▁definitions	-13138
47	-13139
blk	-13140
aped	-13141
noth	-13142
▁260	-13143
▁chn	-13144
▁ric	-13145
▁wpc	-13146
▁mond	-13147
▁mous	-13148
▁trml	-13149
associ	-13150
▁adven	-13151
convert	-13152
looking	-13153
▁partly	-13154
▁suffix	-13155
▁direcot	-13156
▁mucking	-13157
▁probelm	-13158
▁shadows	-13159
▁architec	-13160
▁eeebuntu	-13161
▁repaired	-13162
▁vmplayer	-13163
▁defaulting	-13164
▁synchronize	-13165
ivo	-13166
▁7'	-13167
▁cv	-13168
▁ea	-13169
naut	-13170
uuid	-13171
▁bod	-13172
bably	-13173
icted	-13174
▁grup	-13175
▁ides	-13176
header	-13177
▁canad	-13178
▁north	-13179
▁norwe	-13180
▁voila	-13181
console	-13182
limited	-13183
request	-13184
▁bundle	-13185
▁chanel	-13186
▁foward	-13187
▁summer	-13188
▁analyze	-13189
▁repeats	-13190
▁surface	-13191
▁unaware	-13192
▁libmysql	-13193
▁likewise	-13194
▁presents	-13195
modaliases	-13196
▁distupgrade	-13197
▁customizable	-13198
sus	-13199
amba	-13200
ians	-13201
cmail	-13202
racer	-13203
▁ency	-13204
▁libe	-13205
▁outs	-13206
▁recc	-13207
▁tmux	-13208
▁backt	-13209
▁ooooo	-13210
▁relog	-13211
▁winex	-13212
engines	-13213
scanner	-13214
▁banner	-13215
▁employ	-13216
▁insted	-13217
▁defunct	-13218
▁recycle	-13219
▁relates	-13220
▁siemens	-13221
▁extracts	-13222
▁foremost	-13223
▁termianl	-13224
▁training	-13225
▁bittorent	-13226
▁thumbnail	-13227
▁gsynaptics	-13228
▁subsequent	-13229
▁splashscreen	-13230
.19	-13231
256	-13232
432	-13233
bob	-13234
▁62	-13235
▁ux	-13236
1950	-13237
2870	-13238
pref	-13239
▁lun	-13240
▁tue	-13241
▁4965	-13242
▁emes	-13243
▁lapp	-13244
▁lscp	-13245
▁sexy	-13246
andros	-13247
ertain	-13248
ission	-13249
writer	-13250
▁infer	-13251
▁scand	-13252
-2.6.32	-13253
▁digits	-13254
▁gnomes	-13255
▁packed	-13256
▁pirate	-13257
▁svideo	-13258
▁vesafb	-13259
▁billion	-13260
▁liblame	-13261
▁meeting	-13262
▁crippled	-13263
▁installe	-13264
▁keypress	-13265
▁reaching	-13266
▁checksums	-13267
▁similarly	-13268
▁bookmarked	-13269
bby	-13270
uri	-13271
-173	-13272
.0-1	-13273
▁dav	-13274
▁mpc	-13275
anbul	-13276
chart	-13277
pulse	-13278
▁-386	-13279
▁drum	-13280
▁gunt	-13281
▁libm	-13282
▁pile	-13283
apshot	-13284
▁libpc	-13285
▁monit	-13286
between	-13287
▁bugfix	-13288
▁driven	-13289
▁expans	-13290
▁intent	-13291
▁libpam	-13292
▁rocket	-13293
existing	-13294
▁efforts	-13295
▁vboxdrv	-13296
▁chatroom	-13297
▁destruct	-13298
▁doubtful	-13299
▁feasible	-13300
▁silently	-13301
▁simplify	-13302
▁viewable	-13303
▁evidently	-13304
▁installin	-13305
▁notebooks	-13306
▁postrouting	-13307
▁intermittent	-13308
242	-13309
ori	-13310
curs	-13311
▁101	-13312
▁222	-13313
▁frm	-13314
▁loo	-13315
▁mud	-13316
▁roy	-13317
words	-13318
contin	-13319
nvidia	-13320
▁arena	-13321
▁sight	-13322
▁toler	-13323
develop	-13324
▁hashes	-13325
▁mathem	-13326
▁moblin	-13327
▁soreau	-13328
▁penguin	-13329
▁reserve	-13330
▁wastrel	-13331
▁evidence	-13332
▁responsi	-13333
▁rhytmbox	-13334
▁norwegian	-13335
▁beautifully	-13336
▁virtualized	-13337
▁disappointed	-13338
▁nb	-13339
▁bra	-13340
▁giz	-13341
▁acut	-13342
▁dban	-13343
▁fade	-13344
▁miro	-13345
▁spir	-13346
▁cough	-13347
▁savvy	-13348
▁thore	-13349
▁rootfs	-13350
▁autohide	-13351
▁interpid	-13352
▁pipeline	-13353
▁batteries	-13354
▁coreutils	-13355
▁multiboot	-13356
▁defoptions	-13357
▁mainstream	-13358
▁scrollback	-13359
▁systemwide	-13360
▁timestamps	-13361
▁semiconductor	-13362
kt	-13363
101	-13364
thx	-13365
ride	-13366
▁gram	-13367
▁reso	-13368
▁convo	-13369
▁gmake	-13370
▁kmail	-13371
▁sansa	-13372
▁tulip	-13373
verbose	-13374
▁fixres	-13375
▁makers	-13376
▁mshome	-13377
▁quadro	-13378
▁autogen	-13379
▁captive	-13380
▁consume	-13381
▁freezed	-13382
▁netowrk	-13383
▁stuffed	-13384
▁freeware	-13385
▁powering	-13386
▁visually	-13387
▁metapackages	-13388
bes	-13389
▁ka	-13390
inet	-13391
▁ger	-13392
▁mik	-13393
▁oot	-13394
▁req	-13395
▁cous	-13396
▁enum	-13397
▁film	-13398
remote	-13399
▁rubyg	-13400
▁debain	-13401
▁phenom	-13402
▁runned	-13403
▁userid	-13404
--------	-13405
▁circles	-13406
▁fscking	-13407
▁readout	-13408
▁gateways	-13409
▁yourfile	-13410
▁apparantly	-13411
▁guarantees	-13412
▁overlooked	-13413
▁unreliable	-13414
▁punctuation	-13415
▁downloadable	-13416
uy	-13417
-22	-13418
1211	-13419
flac	-13420
uage	-13421
▁inn	-13422
chunk	-13423
▁argu	-13424
▁crit	-13425
▁exer	-13426
▁tone	-13427
▁west	-13428
▁feeds	-13429
▁pilot	-13430
▁usbfs	-13431
conkyrc	-13432
running	-13433
secured	-13434
▁8.04.2	-13435
▁parsed	-13436
▁xinput	-13437
▁reprodu	-13438
▁walking	-13439
▁publickey	-13440
▁bottleneck	-13441
▁imageshack	-13442
▁additionally	-13443
▁insufficient	-13444
px	-13445
-02	-13446
bey	-13447
gif	-13448
▁ml	-13449
▁bli	-13450
▁cub	-13451
▁gap	-13452
▁gsm	-13453
▁sic	-13454
▁tea	-13455
▁wud	-13456
rules	-13457
▁6100	-13458
▁burg	-13459
▁buzz	-13460
▁kios	-13461
▁spew	-13462
▁dudes	-13463
▁ihave	-13464
▁union	-13465
printer	-13466
▁addres	-13467
▁gyachi	-13468
▁noobie	-13469
▁tryied	-13470
▁viable	-13471
▁folding	-13472
▁judging	-13473
▁propose	-13474
▁harmless	-13475
▁agreement	-13476
▁intermedi	-13477
▁sebsebseb	-13478
▁suffering	-13479
▁subjective	-13480
▁eq	-13481
attr	-13482
gzoo	-13483
oken	-13484
uter	-13485
▁ies	-13486
hough	-13487
▁evol	-13488
▁fift	-13489
▁tour	-13490
▁xpdf	-13491
byname	-13492
▁dated	-13493
▁gunna	-13494
▁hesit	-13495
▁noisy	-13496
▁stone	-13497
▁vmnet	-13498
▁breeze	-13499
▁whites	-13500
▁arround	-13501
▁cafuego	-13502
▁pasword	-13503
blacklist	-13504
▁expanding	-13505
▁impatient	-13506
▁firewalling	-13507
▁installtion	-13508
▁defaultdepth	-13509
1.9	-13510
gle	-13511
lat	-13512
oob	-13513
uxe	-13514
▁.0	-13515
aser	-13516
cted	-13517
fill	-13518
iner	-13519
plow	-13520
vdia	-13521
were	-13522
▁naw	-13523
▁sse	-13524
▁tid	-13525
▁ude	-13526
menus	-13527
stack	-13528
▁1300	-13529
▁abou	-13530
▁clik	-13531
▁ubub	-13532
▁yall	-13533
▁yout	-13534
etting	-13535
export	-13536
▁slapd	-13537
iterate	-13538
▁friday	-13539
▁runnig	-13540
▁threat	-13541
faulting	-13542
packaged	-13543
▁arguing	-13544
▁emesene	-13545
▁flagged	-13546
▁nopaste	-13547
▁reduced	-13548
▁foomatic	-13549
▁guntbert	-13550
▁overcome	-13551
▁teaching	-13552
▁workable	-13553
▁abilities	-13554
▁countries	-13555
▁equalizer	-13556
appropriate	-13557
▁conditions	-13558
▁fundamental	-13559
▁malfunction	-13560
.15	-13561
azz	-13562
rce	-13563
rus	-13564
logd	-13565
ogle	-13566
pple	-13567
▁acr	-13568
▁ses	-13569
blems	-13570
▁bulk	-13571
▁chew	-13572
▁kore	-13573
▁tyvm	-13574
purple	-13575
shrink	-13576
▁ioctl	-13577
▁turbo	-13578
bernate	-13579
▁burners	-13580
▁diamond	-13581
▁probing	-13582
▁silence	-13583
▁anyother	-13584
▁noticeable	-13585
pf	-13586
1.8	-13587
moz	-13588
ibly	-13589
okay	-13590
rxvt	-13591
▁195	-13592
▁ark	-13593
▁glo	-13594
first	-13595
▁anot	-13596
▁pron	-13597
▁ubunu	-13598
instreq	-13599
removal	-13600
▁brands	-13601
▁newegg	-13602
▁cleanup	-13603
▁easybcd	-13604
▁overlap	-13605
▁wesnoth	-13606
▁laserjet	-13607
▁demanding	-13608
▁shrinking	-13609
▁weirdness	-13610
▁inactivity	-13611
mn	-13612
bye	-13613
ock	-13614
.0-0	-13615
ivel	-13616
ivly	-13617
quis	-13618
tiny	-13619
▁feh	-13620
▁lied	-13621
▁ride	-13622
▁woul	-13623
router	-13624
▁acron	-13625
▁alike	-13626
▁balls	-13627
▁mailx	-13628
▁monos	-13629
▁arrive	-13630
▁firegl	-13631
▁numpad	-13632
▁sooooo	-13633
▁usenet	-13634
snapshot	-13635
▁blowing	-13636
▁bullshit	-13637
▁contrast	-13638
▁frequent	-13639
▁jackalope	-13640
▁mediawiki	-13641
▁unlimited	-13642
▁spreadsheet	-13643
▁adminstration	-13644
▁authenticating	-13645
▁hyperthreading	-13646
.0_	-13647
wma	-13648
xkb	-13649
-1.2	-13650
bber	-13651
▁105	-13652
▁hyd	-13653
▁ios	-13654
▁sms	-13655
owned	-13656
tions	-13657
▁7800	-13658
▁gest	-13659
▁mong	-13660
▁vars	-13661
▁ooops	-13662
▁progg	-13663
clients	-13664
▁2.6.31	-13665
▁roller	-13666
▁solely	-13667
checking	-13668
▁balance	-13669
▁blueman	-13670
▁frogzoo	-13671
▁persons	-13672
▁tapping	-13673
▁mldonkey	-13674
▁playable	-13675
▁somwhere	-13676
▁standing	-13677
▁defective	-13678
▁diffrence	-13679
▁numbering	-13680
▁comparable	-13681
▁navigation	-13682
▁appearances	-13683
▁restrictive	-13684
▁specialized	-13685
420	-13686
960	-13687
cnf	-13688
gcc	-13689
has	-13690
ige	-13691
igo	-13692
mos	-13693
squ	-13694
iges	-13695
▁270	-13696
▁agn	-13697
▁ell	-13698
▁ish	-13699
▁mdf	-13700
▁nav	-13701
range	-13702
▁eyou	-13703
▁whos	-13704
bility	-13705
▁andre	-13706
▁stefg	-13707
stalled	-13708
theless	-13709
▁indent	-13710
▁league	-13711
▁resemb	-13712
recorder	-13713
▁staring	-13714
▁twitter	-13715
▁xandros	-13716
▁approxim	-13717
▁increases	-13718
▁sentences	-13719
▁foundation	-13720
▁intentionally	-13721
▁specification	-13722
arg	-13723
dig	-13724
ils	-13725
uce	-13726
uls	-13727
▁384	-13728
▁8.3	-13729
▁gbs	-13730
arena	-13731
▁expo	-13732
▁mame	-13733
▁role	-13734
▁tops	-13735
ptions	-13736
▁crawl	-13737
▁havin	-13738
▁pysdm	-13739
▁slice	-13740
▁comple	-13741
▁waking	-13742
▁xvideo	-13743
nautilus	-13744
▁marking	-13745
▁newuser	-13746
▁squares	-13747
▁polished	-13748
▁quitting	-13749
▁providers	-13750
▁benchmarks	-13751
▁doubleclick	-13752
▁segfaulting	-13753
▁reconnecting	-13754
▁shuttleworth	-13755
▁knetworkmanager	-13756
ike	-13757
jam	-13758
▁rj	-13759
gate	-13760
motu	-13761
nces	-13762
▁004	-13763
▁040	-13764
▁mne	-13765
▁brit	-13766
▁gods	-13767
▁kbps	-13768
▁ogle	-13769
▁pdft	-13770
struct	-13771
verted	-13772
▁prett	-13773
▁proto	-13774
velinux	-13775
▁2.6.28	-13776
▁exsist	-13777
▁freind	-13778
▁golden	-13779
▁outage	-13780
▁remark	-13781
▁acronis	-13782
▁expired	-13783
▁genuine	-13784
▁wonders	-13785
▁appended	-13786
▁istanbul	-13787
▁logfiles	-13788
▁pacakges	-13789
▁partners	-13790
▁rubygems	-13791
▁squirrel	-13792
▁hierarchy	-13793
▁processed	-13794
▁blackberry	-13795
520	-13796
ham	-13797
keep	-13798
▁fes	-13799
▁ird	-13800
▁lms	-13801
▁ske	-13802
ology	-13803
stein	-13804
▁acls	-13805
▁konq	-13806
▁lolz	-13807
reboot	-13808
▁iscsi	-13809
▁jacks	-13810
▁connec	-13811
▁identd	-13812
▁monday	-13813
▁vanish	-13814
▁distort	-13815
▁enought	-13816
▁libgpod	-13817
▁maildir	-13818
▁uploads	-13819
▁defining	-13820
▁facility	-13821
▁reattach	-13822
▁keyserver	-13823
▁netfilter	-13824
▁192.168.0.	-13825
▁directorys	-13826
▁meaningful	-13827
▁reccommend	-13828
▁conversations	-13829
xd	-13830
2.2-	-13831
clip	-13832
orad	-13833
▁ful	-13834
▁kal	-13835
▁mbs	-13836
▁une	-13837
ashed	-13838
otine	-13839
▁4311	-13840
▁8200	-13841
▁alco	-13842
▁dram	-13843
▁matt	-13844
▁netf	-13845
▁gnupg	-13846
▁misle	-13847
▁phoen	-13848
▁reass	-13849
▁shold	-13850
▁sshed	-13851
▁views	-13852
artment	-13853
without	-13854
▁aspell	-13855
missions	-13856
▁focused	-13857
▁sucking	-13858
▁bootdisk	-13859
▁debugger	-13860
▁discovery	-13861
▁excessive	-13862
▁neccessary	-13863
▁recoverable	-13864
▁nevertheless	-13865
▁uncompressed	-13866
▁incompatibility	-13867
350	-13868
phy	-13869
eded	-13870
iosn	-13871
▁sdf	-13872
ample	-13873
gmail	-13874
versa	-13875
▁9700	-13876
▁cust	-13877
▁mbps	-13878
▁spat	-13879
▁wear	-13880
▁adequ	-13881
▁dvdrw	-13882
▁gamma	-13883
▁negot	-13884
▁multis	-13885
▁rootno	-13886
▁rectify	-13887
▁spotify	-13888
▁userdel	-13889
▁festival	-13890
▁graveman	-13891
▁overheat	-13892
▁procmail	-13893
▁unlocked	-13894
▁keystroke	-13895
▁scratched	-13896
▁unsecured	-13897
▁derivative	-13898
▁unresolved	-13899
▁disappearing	-13900
▁communicating	-13901
oooooooooooooooo	-13902
dbc	-13903
ssid	-13904
uild	-13905
▁crc	-13906
▁feb	-13907
▁sau	-13908
▁sco	-13909
sword	-13910
▁albe	-13911
▁dcop	-13912
▁hyph	-13913
86_64.	-13914
▁achie	-13915
▁joins	-13916
▁progr	-13917
▁rearr	-13918
-10-386	-13919
▁antial	-13920
▁stages	-13921
defaults	-13922
▁declare	-13923
▁deletion	-13924
▁subtitle	-13925
▁winetricks	-13926
311	-13927
lds	-13928
tot	-13929
▁jk	-13930
byte	-13931
note	-13932
arter	-13933
essid	-13934
▁dled	-13935
▁keen	-13936
▁pity	-13937
icator	-13938
▁1.4.2	-13939
▁pager	-13940
▁throt	-13941
idecode	-13942
privile	-13943
ulously	-13944
▁graphs	-13945
▁retail	-13946
▁chicken	-13947
▁pissing	-13948
▁submenu	-13949
▁wireles	-13950
converter	-13951
reinstreq	-13952
▁editting	-13953
▁umounted	-13954
▁advertise	-13955
▁rectangle	-13956
▁desperately	-13957
▁initialized	-13958
▁manufacture	-13959
▁rootnoverify	-13960
xs	-13961
133	-13962
6.2	-13963
efi	-13964
fan	-13965
pls	-13966
tom	-13967
▁4'	-13968
▁dt	-13969
▁fm	-13970
geek	-13971
▁bzr	-13972
known	-13973
putic	-13974
▁larg	-13975
▁mena	-13976
▁sbin	-13977
▁xfwm	-13978
before	-13979
▁bubble	-13980
▁diablo	-13981
▁discon	-13982
▁enters	-13983
▁whould	-13984
▁defeats	-13985
▁dirname	-13986
▁gethost	-13987
▁pclinux	-13988
▁basename	-13989
▁inconven	-13990
▁presuming	-13991
▁drwxrwxrwx	-13992
▁exceptions	-13993
▁keybinding	-13994
▁privileged	-13995
▁xorgconfig	-13996
▁interpreted	-13997
awk	-13998
dpi	-13999
sdt	-14000
wei	-14001
▁94	-14002
adda	-14003
ourt	-14004
rdao	-14005
swer	-14006
▁dub	-14007
▁gat	-14008
▁2.6.8	-14009
▁frets	-14010
▁jerky	-14011
▁urxvt	-14012
▁dollar	-14013
▁proftp	-14014
▁xemacs	-14015
▁diagram	-14016
▁renders	-14017
▁amaranth	-14018
▁clusters	-14019
▁runnning	-14020
▁everyting	-14021
▁injection	-14022
▁intervals	-14023
▁lightning	-14024
▁macintosh	-14025
-2.6.22-14-	-14026
▁pendrivelinux	-14027
▁windowmanager	-14028
lh	-14029
-17	-14030
lah	-14031
lss	-14032
▁71	-14033
▁84	-14034
kits	-14035
▁ech	-14036
▁gra	-14037
▁hci	-14038
▁noo	-14039
▁reb	-14040
▁debf	-14041
▁fuss	-14042
▁rant	-14043
▁stro	-14044
▁impor	-14045
▁kvirc	-14046
▁matth	-14047
▁notor	-14048
▁prone	-14049
▁punch	-14050
▁rausb	-14051
▁shuld	-14052
▁stumb	-14053
▁wound	-14054
▁kindof	-14055
▁unhelp	-14056
▁fuseblk	-14057
▁linuxes	-14058
▁debfoster	-14059
▁dmidecode	-14060
▁expansion	-14061
▁introduce	-14062
▁lmsensors	-14063
▁shmconfig	-14064
▁throughput	-14065
▁dependecies	-14066
▁determining	-14067
▁configurator	-14068
-24	-14069
swf	-14070
wos	-14071
-1.1	-14072
join	-14073
plot	-14074
zero	-14075
▁bay	-14076
▁bks	-14077
▁eht	-14078
▁ore	-14079
▁phr	-14080
eling	-14081
▁driv	-14082
▁thee	-14083
umeric	-14084
▁xmame	-14085
auputic	-14086
▁appric	-14087
▁cdrdao	-14088
▁legend	-14089
▁linker	-14090
▁titles	-14091
▁apropos	-14092
▁wording	-14093
▁codename	-14094
▁editable	-14095
▁trashcan	-14096
▁amplifier	-14097
▁definatly	-14098
▁2.6.24-19-	-14099
▁appearence	-14100
▁incremental	-14101
▁inappropriate	-14102
201	-14103
510	-14104
oma	-14105
▁dry	-14106
▁wih	-14107
pozer	-14108
thank	-14109
▁cntrl	-14110
▁drain	-14111
▁initi	-14112
▁insan	-14113
▁jedit	-14114
▁padsp	-14115
▁pango	-14116
▁relig	-14117
▁xnest	-14118
minutes	-14119
▁daniel	-14120
▁myuser	-14121
▁popups	-14122
▁slowed	-14123
emanager	-14124
▁cardbus	-14125
▁netflix	-14126
▁decoding	-14127
▁designer	-14128
▁unsecure	-14129
▁occasional	-14130
▁redundancy	-14131
▁customizing	-14132
▁fglrxconfig	-14133
▁virtualhost	-14134
▁pastebinning	-14135
hg	-14136
▁6.5	-14137
▁655	-14138
▁80'	-14139
▁fot	-14140
▁hee	-14141
▁sde	-14142
▁vit	-14143
ppers	-14144
▁tomm	-14145
dering	-14146
▁blues	-14147
▁piped	-14148
▁tiger	-14149
▁geared	-14150
▁layers	-14151
▁orphan	-14152
▁zimbra	-14153
mounting	-14154
▁conserv	-14155
▁ejected	-14156
▁termina	-14157
▁visited	-14158
▁nicotine	-14159
▁usbstick	-14160
▁compliant	-14161
▁hardcoded	-14162
▁privilages	-14163
▁continuously	-14164
▁gethostbyname	-14165
arn	-14166
ece	-14167
gtx	-14168
ntu	-14169
▁73	-14170
▁oi	-14171
▁hen	-14172
▁jut	-14173
issue	-14174
lucid	-14175
▁dire	-14176
▁haev	-14177
▁snes	-14178
coding	-14179
▁boinc	-14180
▁gwget	-14181
▁harsh	-14182
▁nuked	-14183
▁scree	-14184
▁fesity	-14185
▁passow	-14186
▁paypal	-14187
▁vhosts	-14188
▁weekly	-14189
▁10.04.3	-14190
▁compose	-14191
▁cursors	-14192
▁chmodded	-14193
▁openldap	-14194
▁throttle	-14195
▁appending	-14196
▁recreating	-14197
▁instruments	-14198
▁temperatures	-14199
220	-14200
den	-14201
inch	-14202
oder	-14203
▁24'	-14204
▁7.2	-14205
▁bbc	-14206
▁eof	-14207
▁nay	-14208
ahaha	-14209
uliar	-14210
▁htat	-14211
▁ican	-14212
▁jeez	-14213
▁mbox	-14214
▁resc	-14215
▁thos	-14216
▁vote	-14217
micron	-14218
▁boxen	-14219
▁messe	-14220
▁polit	-14221
▁sayin	-14222
▁units	-14223
▁catalog	-14224
▁inotify	-14225
▁splashy	-14226
▁alternat	-14227
▁guarddog	-14228
▁spitting	-14229
▁attribute	-14230
cv	-14231
iff	-14232
▁-4	-14233
.264	-14234
arly	-14235
ores	-14236
▁005	-14237
inate	-14238
splash	-14239
▁apear	-14240
▁usser	-14241
visuals	-14242
▁2.6.30	-14243
▁bchunk	-14244
▁iwlagn	-14245
▁ndiswr	-14246
▁pauses	-14247
▁willis	-14248
notifier	-14249
▁anythin	-14250
▁gamepad	-14251
▁semicol	-14252
graphical	-14253
▁kompozer	-14254
▁realplay	-14255
▁linuxmint	-14256
▁telephone	-14257
▁associations	-14258
jk	-14259
zap	-14260
▁61	-14261
oted	-14262
▁113	-14263
▁knoe	-14264
ancing	-14265
▁asser	-14266
▁cdemu	-14267
▁stubb	-14268
▁trend	-14269
▁alread	-14270
▁bonobo	-14271
▁fellas	-14272
▁freaks	-14273
▁mapper	-14274
▁strate	-14275
▁acidrip	-14276
▁alcohol	-14277
▁equivel	-14278
▁errored	-14279
▁hunting	-14280
▁maximus	-14281
▁phoenix	-14282
▁administ	-14283
▁obtained	-14284
▁stealing	-14285
▁accesories	-14286
▁architectures	-14287
-2.	-14288
804	-14289
▁wb	-14290
hoto	-14291
▁-15	-14292
▁crw	-14293
▁gno	-14294
▁ths	-14295
▁uml	-14296
▁wig	-14297
▁crud	-14298
▁lmms	-14299
▁pins	-14300
▁pric	-14301
cursor	-14302
▁atapi	-14303
▁draws	-14304
▁exten	-14305
▁gamin	-14306
▁grade	-14307
▁loves	-14308
▁magaz	-14309
▁wikis	-14310
hardware	-14311
▁choosed	-14312
▁depress	-14313
▁natural	-14314
▁teminal	-14315
▁clamscan	-14316
▁identity	-14317
▁seamless	-14318
▁backtrace	-14319
▁contribut	-14320
▁whereever	-14321
▁completing	-14322
▁experiance	-14323
▁libavcodec	-14324
▁overloaded	-14325
▁convenience	-14326
▁opportunity	-14327
▁relationship	-14328
wt	-14329
2.7	-14330
3.5	-14331
ads	-14332
alf	-14333
rim	-14334
0106	-14335
▁125	-14336
▁8.5	-14337
▁aur	-14338
▁jul	-14339
brand	-14340
rator	-14341
▁4850	-14342
▁alre	-14343
▁lapt	-14344
▁thro	-14345
opengl	-14346
▁encry	-14347
▁faith	-14348
▁hunch	-14349
▁metam	-14350
▁roomm	-14351
▁xxxxx	-14352
clicked	-14353
▁destop	-14354
▁pacman	-14355
▁virgin	-14356
▁audible	-14357
▁environ	-14358
▁irqpoll	-14359
▁pleased	-14360
▁serpent	-14361
▁slowest	-14362
▁2.6.22-1	-14363
▁daughter	-14364
▁labelled	-14365
▁annoyance	-14366
▁producing	-14367
▁partioning	-14368
▁overlapping	-14369
▁reccomended	-14370
▁thoreauputic	-14371
xi	-14372
zo	-14373
8.5	-14374
aku	-14375
fly	-14376
lem	-14377
▁ej	-14378
misc	-14379
obab	-14380
▁dok	-14381
▁dpg	-14382
▁rea	-14383
▁5100	-14384
▁acet	-14385
▁emph	-14386
▁fran	-14387
▁hidd	-14388
▁rent	-14389
▁yest	-14390
floppy	-14391
▁swaps	-14392
▁tying	-14393
ointing	-14394
▁baobab	-14395
▁hmmmmm	-14396
▁resoul	-14397
▁unknow	-14398
▁prelink	-14399
▁assemble	-14400
▁bootload	-14401
▁netscape	-14402
▁spacebar	-14403
▁swapfile	-14404
▁writting	-14405
▁countdown	-14406
▁published	-14407
▁pertaining	-14408
▁remotehost	-14409
▁xauthority	-14410
▁everythings	-14411
▁instability	-14412
authentication	-14413
kay	-14414
xel	-14415
than	-14416
▁gos	-14417
▁hyp	-14418
▁zon	-14419
▁1360	-14420
▁airo	-14421
▁skel	-14422
▁tkip	-14423
unless	-14424
▁dillo	-14425
▁gates	-14426
▁haupp	-14427
▁hummm	-14428
▁lampp	-14429
▁spect	-14430
▁apears	-14431
▁mediat	-14432
▁nearby	-14433
▁inclined	-14434
▁accesible	-14435
▁education	-14436
▁kickstart	-14437
▁uppercase	-14438
▁winetools	-14439
▁distracted	-14440
▁knowledgable	-14441
.20	-14442
888	-14443
uch	-14444
▁69	-14445
gles	-14446
imap	-14447
▁mfc	-14448
▁mos	-14449
▁pty	-14450
front	-14451
▁1100	-14452
▁andy	-14453
▁arse	-14454
▁sarc	-14455
▁shou	-14456
▁xwin	-14457
artion	-14458
▁20-30	-14459
▁smell	-14460
▁unatt	-14461
-8859-1	-14462
▁apples	-14463
▁tester	-14464
▁webkit	-14465
▁builder	-14466
▁googles	-14467
▁magical	-14468
▁nvclock	-14469
▁pluggin	-14470
▁contrary	-14471
▁licenses	-14472
▁standart	-14473
▁neighbors	-14474
▁seperated	-14475
▁unchanged	-14476
▁flexibility	-14477
▁restriction	-14478
▁windowmaker	-14479
xb	-14480
102	-14481
fin	-14482
hen	-14483
low	-14484
olf	-14485
arys	-14486
bear	-14487
clam	-14488
edev	-14489
endo	-14490
▁mee	-14491
accel	-14492
▁zune	-14493
▁etter	-14494
▁ontop	-14495
▁flying	-14496
▁renice	-14497
▁setxkb	-14498
▁finnish	-14499
▁libdbus	-14500
▁travelm	-14501
▁contract	-14502
▁serveral	-14503
▁thoroughly	-14504
▁electronics	-14505
▁operational	-14506
fv	-14507
rok	-14508
tih	-14509
var	-14510
anda	-14511
ingu	-14512
okie	-14513
usic	-14514
▁._.	-14515
▁eog	-14516
▁goo	-14517
▁haz	-14518
▁jig	-14519
▁mmc	-14520
▁mms	-14521
▁ped	-14522
▁smt	-14523
gamma	-14524
stats	-14525
vider	-14526
▁empt	-14527
▁irda	-14528
▁maya	-14529
▁xvzf	-14530
▁yank	-14531
▁lasts	-14532
▁poker	-14533
▁iptraf	-14534
▁spring	-14535
standing	-14536
▁explode	-14537
▁jmicron	-14538
▁preface	-14539
▁preform	-14540
▁shifted	-14541
▁libcairo	-14542
appearance	-14543
▁usershare	-14544
▁diagnosing	-14545
▁travelmate	-14546
▁abstraction	-14547
▁nonstandard	-14548
ij	-14549
jc	-14550
sb	-14551
.2-	-14552
5_0	-14553
rdp	-14554
▁8.	-14555
amer	-14556
argb	-14557
oudn	-14558
▁50-	-14559
▁fon	-14560
▁mah	-14561
▁stol	-14562
▁tunn	-14563
istent	-14564
▁altho	-14565
▁parad	-14566
▁biggie	-14567
▁cpanel	-14568
▁exotic	-14569
▁gnomad	-14570
▁nested	-14571
▁sistem	-14572
▁thansk	-14573
▁ununtu	-14574
▁betting	-14575
▁chowned	-14576
▁clobber	-14577
▁fetched	-14578
▁preempt	-14579
▁canadian	-14580
▁compatib	-14581
▁notation	-14582
▁peculiar	-14583
▁prebuilt	-14584
▁strategy	-14585
▁stupidly	-14586
▁mandatory	-14587
▁accounting	-14588
▁correcting	-14589
▁department	-14590
▁portforwarding	-14591
cb	-14592
713	-14593
928	-14594
err	-14595
fro	-14596
mkv	-14597
uuuu	-14598
▁fron	-14599
▁thet	-14600
chance	-14601
having	-14602
iction	-14603
instal	-14604
▁liber	-14605
▁mates	-14606
▁slect	-14607
▁albeit	-14608
▁quirks	-14609
▁walked	-14610
aldomain	-14611
▁hilight	-14612
▁tunnels	-14613
▁unhappy	-14614
▁workign	-14615
▁stupidity	-14616
▁submitted	-14617
▁programmed	-14618
▁accesspoint	-14619
▁educational	-14620
-25	-14621
mnt	-14622
swr	-14623
urd	-14624
wiz	-14625
▁9.	-14626
▁sq	-14627
-0.8	-14628
imax	-14629
webs	-14630
▁1-6	-14631
▁855	-14632
▁csv	-14633
▁fgl	-14634
▁pff	-14635
▁soz	-14636
bones	-14637
filer	-14638
pixel	-14639
▁ddos	-14640
▁inad	-14641
▁prer	-14642
▁spes	-14643
▁unde	-14644
000000	-14645
always	-14646
manger	-14647
ommand	-14648
sample	-14649
▁scrap	-14650
mounter	-14651
▁2.6.35	-14652
▁kitche	-14653
▁stolen	-14654
messages	-14655
▁currupt	-14656
▁discard	-14657
▁legally	-14658
▁modular	-14659
▁sniffer	-14660
▁whining	-14661
evolution	-14662
▁acutally	-14663
▁brothers	-14664
▁mediatomb	-14665
▁transfered	-14666
32'	-14667
vey	-14668
▁7.	-14669
▁tj	-14670
door	-14671
lers	-14672
▁40_	-14673
▁fem	-14674
▁hua	-14675
▁qos	-14676
▁shu	-14677
-----	-14678
otehr	-14679
▁laid	-14680
▁ohci	-14681
▁skim	-14682
▁thom	-14683
▁tint	-14684
▁zope	-14685
memory	-14686
oution	-14687
▁clips	-14688
▁downs	-14689
▁litle	-14690
▁morph	-14691
▁nvdia	-14692
▁resid	-14693
▁synat	-14694
▁chunks	-14695
▁easyer	-14696
▁getent	-14697
▁hebrew	-14698
▁linear	-14699
▁litter	-14700
▁necces	-14701
▁todays	-14702
▁travel	-14703
▁premium	-14704
▁showpkg	-14705
▁suposed	-14706
▁drawback	-14707
▁slashdot	-14708
▁googleing	-14709
▁keylogger	-14710
▁setxkbmap	-14711
▁disturbing	-14712
▁fortunately	-14713
▁intermediate	-14714
-13	-14715
aes	-14716
ear	-14717
een	-14718
3000	-14719
them	-14720
▁430	-14721
▁spm	-14722
assin	-14723
store	-14724
▁ntsc	-14725
▁poly	-14726
▁wmii	-14727
images	-14728
pubkey	-14729
tables	-14730
▁gtkrc	-14731
▁guten	-14732
▁tuned	-14733
▁warns	-14734
▁crying	-14735
▁doubts	-14736
▁upside	-14737
location	-14738
▁arrange	-14739
▁browsed	-14740
▁windwos	-14741
▁incorpor	-14742
▁partiion	-14743
▁bugreport	-14744
▁definetly	-14745
▁stretched	-14746
▁suspicion	-14747
-23	-14748
boo	-14749
ipt	-14750
pec	-14751
▁iz	-14752
chip	-14753
▁fle	-14754
▁hcl	-14755
▁iis	-14756
▁rul	-14757
▁wii	-14758
opens	-14759
score	-14760
▁anny	-14761
▁apro	-14762
▁born	-14763
▁digg	-14764
▁iter	-14765
-1_5_0	-14766
▁blast	-14767
▁craps	-14768
▁finch	-14769
▁journ	-14770
▁judge	-14771
▁mkdos	-14772
▁sells	-14773
▁spots	-14774
plugger	-14775
reading	-14776
▁bounce	-14777
▁divide	-14778
▁tuning	-14779
rrrrrrrr	-14780
▁deskjet	-14781
▁fortune	-14782
▁notices	-14783
▁archived	-14784
▁consumes	-14785
▁stubborn	-14786
▁bypassing	-14787
▁unhelpful	-14788
▁gnomefreak	-14789
▁manipulation	-14790
▁accelleration	-14791
▁redownloading	-14792
-64	-14793
666	-14794
ams	-14795
▁ym	-14796
done	-14797
hope	-14798
olan	-14799
tttt	-14800
▁cig	-14801
▁pii	-14802
▁ust	-14803
etely	-14804
lucky	-14805
▁meen	-14806
▁plop	-14807
▁shar	-14808
▁uids	-14809
▁vagu	-14810
▁psych	-14811
checked	-14812
runtime	-14813
▁breath	-14814
▁citrix	-14815
▁deluxe	-14816
▁iwpriv	-14817
▁resist	-14818
▁tryign	-14819
anything	-14820
▁debsums	-14821
▁goodies	-14822
▁helpers	-14823
▁intsall	-14824
▁periods	-14825
▁abnormal	-14826
▁npviewer	-14827
▁onscreen	-14828
▁patterns	-14829
▁struggle	-14830
▁trackerd	-14831
▁encourage	-14832
▁slideshow	-14833
▁tracepath	-14834
▁btdownload	-14835
▁independant	-14836
▁intergrated	-14837
▁propriatary	-14838
▁torrentflux	-14839
▁clarification	-14840
8.4	-14841
aer	-14842
cow	-14843
gdm	-14844
pes	-14845
wan	-14846
orow	-14847
tran	-14848
▁445	-14849
▁fus	-14850
▁grp	-14851
▁lec	-14852
▁les	-14853
▁lvd	-14854
▁1366	-14855
▁2.14	-14856
▁alps	-14857
▁caut	-14858
▁econ	-14859
▁soph	-14860
audios	-14861
colors	-14862
groups	-14863
▁facts	-14864
▁leaks	-14865
▁mnept	-14866
▁raids	-14867
▁wifes	-14868
▁acount	-14869
▁grafic	-14870
▁summar	-14871
▁comands	-14872
▁gstream	-14873
▁looping	-14874
▁tracert	-14875
▁locating	-14876
▁presence	-14877
▁userland	-14878
▁direcotry	-14879
▁internals	-14880
▁overriding	-14881
9'	-14882
1-6	-14883
640	-14884
cih	-14885
heh	-14886
▁jb	-14887
_2.6	-14888
hour	-14889
luck	-14890
megs	-14891
▁poo	-14892
arest	-14893
itons	-14894
remix	-14895
▁1050	-14896
▁2.12	-14897
▁deaf	-14898
▁firs	-14899
▁laug	-14900
▁tall	-14901
▁anyon	-14902
▁autot	-14903
▁bells	-14904
▁dells	-14905
▁octal	-14906
▁phpbb	-14907
▁pitch	-14908
▁twist	-14909
▁xconf	-14910
actions	-14911
▁scient	-14912
▁windos	-14913
▁xbuntu	-14914
▁contrib	-14915
▁regions	-14916
▁sticker	-14917
▁distingu	-14918
▁patition	-14919
▁scandisk	-14920
▁uptodate	-14921
▁titlebars	-14922
▁makeactive	-14923
▁modprobing	-14924
▁translates	-14925
▁engineering	-14926
▁shellscript	-14927
▁squirrelmail	-14928
lr	-14929
386'	-14930
entu	-14931
lius	-14932
mate	-14933
sect	-14934
sess	-14935
▁das	-14936
▁fis	-14937
▁lur	-14938
esary	-14939
iplex	-14940
▁arnt	-14941
▁conj	-14942
▁nono	-14943
▁othe	-14944
▁scho	-14945
▁whay	-14946
castic	-14947
poison	-14948
▁excut	-14949
▁fishy	-14950
▁qmail	-14951
▁recip	-14952
▁printf	-14953
▁regexp	-14954
▁screem	-14955
▁sweden	-14956
▁acetone	-14957
▁drapper	-14958
▁factors	-14959
▁flavors	-14960
▁qparted	-14961
▁vaguely	-14962
▁altering	-14963
▁backward	-14964
▁disallow	-14965
▁videolan	-14966
▁framerate	-14967
▁noticable	-14968
▁restriced	-14969
▁serpentine	-14970
▁uninstaller	-14971
hu	-14972
430	-14973
878	-14974
___	-14975
iry	-14976
riv	-14977
▁nl	-14978
▁vl	-14979
-0.9	-14980
8859	-14981
omer	-14982
▁210	-14983
▁fee	-14984
▁fru	-14985
▁hos	-14986
▁ime	-14987
▁laz	-14988
▁rcs	-14989
▁shh	-14990
▁tec	-14991
▁batt	-14992
gconfd	-14993
school	-14994
▁enuff	-14995
▁fspot	-14996
▁goofy	-14997
▁guild	-14998
▁wines	-14999
▁sketch	-15000
▁verbat	-15001
[...]
